const unsigned char model[] = {
  0x20, 0x00, 0x00, 0x00, 0x54, 0x46, 0x4c, 0x33, 0x00, 0x00, 0x00, 0x00,
  0x14, 0x00, 0x20, 0x00, 0x1c, 0x00, 0x18, 0x00, 0x14, 0x00, 0x10, 0x00,
  0x0c, 0x00, 0x00, 0x00, 0x08, 0x00, 0x04, 0x00, 0x14, 0x00, 0x00, 0x00,
  0x1c, 0x00, 0x00, 0x00, 0x88, 0x00, 0x00, 0x00, 0xe0, 0x00, 0x00, 0x00,
  0x1c, 0x2b, 0x00, 0x00, 0x2c, 0x2b, 0x00, 0x00, 0x24, 0x42, 0x00, 0x00,
  0x03, 0x00, 0x00, 0x00, 0x01, 0x00, 0x00, 0x00, 0x04, 0x00, 0x00, 0x00,
  0xd2, 0xd3, 0xff, 0xff, 0x0c, 0x00, 0x00, 0x00, 0x1c, 0x00, 0x00, 0x00,
  0x38, 0x00, 0x00, 0x00, 0x0f, 0x00, 0x00, 0x00, 0x73, 0x65, 0x72, 0x76,
  0x69, 0x6e, 0x67, 0x5f, 0x64, 0x65, 0x66, 0x61, 0x75, 0x6c, 0x74, 0x00,
  0x01, 0x00, 0x00, 0x00, 0x04, 0x00, 0x00, 0x00, 0x94, 0xff, 0xff, 0xff,
  0x15, 0x00, 0x00, 0x00, 0x04, 0x00, 0x00, 0x00, 0x07, 0x00, 0x00, 0x00,
  0x64, 0x65, 0x6e, 0x73, 0x65, 0x5f, 0x31, 0x00, 0x01, 0x00, 0x00, 0x00,
  0x04, 0x00, 0x00, 0x00, 0xb2, 0xd4, 0xff, 0xff, 0x04, 0x00, 0x00, 0x00,
  0x0c, 0x00, 0x00, 0x00, 0x63, 0x6f, 0x6e, 0x76, 0x32, 0x64, 0x5f, 0x69,
  0x6e, 0x70, 0x75, 0x74, 0x00, 0x00, 0x00, 0x00, 0x02, 0x00, 0x00, 0x00,
  0x34, 0x00, 0x00, 0x00, 0x04, 0x00, 0x00, 0x00, 0xdc, 0xff, 0xff, 0xff,
  0x18, 0x00, 0x00, 0x00, 0x04, 0x00, 0x00, 0x00, 0x13, 0x00, 0x00, 0x00,
  0x43, 0x4f, 0x4e, 0x56, 0x45, 0x52, 0x53, 0x49, 0x4f, 0x4e, 0x5f, 0x4d,
  0x45, 0x54, 0x41, 0x44, 0x41, 0x54, 0x41, 0x00, 0x08, 0x00, 0x0c, 0x00,
  0x08, 0x00, 0x04, 0x00, 0x08, 0x00, 0x00, 0x00, 0x17, 0x00, 0x00, 0x00,
  0x04, 0x00, 0x00, 0x00, 0x13, 0x00, 0x00, 0x00, 0x6d, 0x69, 0x6e, 0x5f,
  0x72, 0x75, 0x6e, 0x74, 0x69, 0x6d, 0x65, 0x5f, 0x76, 0x65, 0x72, 0x73,
  0x69, 0x6f, 0x6e, 0x00, 0x19, 0x00, 0x00, 0x00, 0x38, 0x2a, 0x00, 0x00,
  0x30, 0x2a, 0x00, 0x00, 0x18, 0x2a, 0x00, 0x00, 0xfc, 0x29, 0x00, 0x00,
  0x8c, 0x29, 0x00, 0x00, 0xfc, 0x28, 0x00, 0x00, 0xec, 0x18, 0x00, 0x00,
  0x5c, 0x18, 0x00, 0x00, 0x4c, 0x06, 0x00, 0x00, 0xfc, 0x05, 0x00, 0x00,
  0x6c, 0x01, 0x00, 0x00, 0x3c, 0x01, 0x00, 0x00, 0xe4, 0x00, 0x00, 0x00,
  0xdc, 0x00, 0x00, 0x00, 0xd4, 0x00, 0x00, 0x00, 0xcc, 0x00, 0x00, 0x00,
  0xc4, 0x00, 0x00, 0x00, 0xbc, 0x00, 0x00, 0x00, 0xb4, 0x00, 0x00, 0x00,
  0xac, 0x00, 0x00, 0x00, 0xa4, 0x00, 0x00, 0x00, 0x9c, 0x00, 0x00, 0x00,
  0x94, 0x00, 0x00, 0x00, 0x74, 0x00, 0x00, 0x00, 0x04, 0x00, 0x00, 0x00,
  0x92, 0xd5, 0xff, 0xff, 0x04, 0x00, 0x00, 0x00, 0x60, 0x00, 0x00, 0x00,
  0x0c, 0x00, 0x00, 0x00, 0x08, 0x00, 0x0e, 0x00, 0x08, 0x00, 0x04, 0x00,
  0x08, 0x00, 0x00, 0x00, 0x10, 0x00, 0x00, 0x00, 0x28, 0x00, 0x00, 0x00,
  0x00, 0x00, 0x06, 0x00, 0x08, 0x00, 0x04, 0x00, 0x06, 0x00, 0x00, 0x00,
  0x04, 0x00, 0x00, 0x00, 0x01, 0x00, 0x00, 0x00, 0xeb, 0x03, 0x00, 0x00,
  0x0c, 0x00, 0x18, 0x00, 0x14, 0x00, 0x10, 0x00, 0x0c, 0x00, 0x04, 0x00,
  0x0c, 0x00, 0x00, 0x00, 0xcc, 0xc8, 0x99, 0x98, 0xcf, 0xcc, 0xbd, 0x79,
  0x02, 0x00, 0x00, 0x00, 0x02, 0x00, 0x00, 0x00, 0x04, 0x00, 0x00, 0x00,
  0x06, 0x00, 0x00, 0x00, 0x32, 0x2e, 0x32, 0x30, 0x2e, 0x30, 0x00, 0x00,
  0xfe, 0xd5, 0xff, 0xff, 0x04, 0x00, 0x00, 0x00, 0x10, 0x00, 0x00, 0x00,
  0x31, 0x2e, 0x31, 0x34, 0x2e, 0x30, 0x00, 0x00, 0x00, 0x00, 0x00, 0x00,
  0x00, 0x00, 0x00, 0x00, 0x78, 0xc0, 0xff, 0xff, 0x7c, 0xc0, 0xff, 0xff,
  0x80, 0xc0, 0xff, 0xff, 0x84, 0xc0, 0xff, 0xff, 0x88, 0xc0, 0xff, 0xff,
  0x8c, 0xc0, 0xff, 0xff, 0x90, 0xc0, 0xff, 0xff, 0x94, 0xc0, 0xff, 0xff,
  0x98, 0xc0, 0xff, 0xff, 0x9c, 0xc0, 0xff, 0xff, 0x42, 0xd6, 0xff, 0xff,
  0x04, 0x00, 0x00, 0x00, 0x48, 0x00, 0x00, 0x00, 0x00, 0x00, 0x97, 0x00,
  0x7e, 0x00, 0x7f, 0x00, 0xa4, 0x00, 0x00, 0x7f, 0x00, 0xa8, 0x00, 0x00,
  0xa4, 0x00, 0x9d, 0x00, 0x00, 0x00, 0x7f, 0x00, 0x00, 0x97, 0x00, 0x00,
  0x00, 0x00, 0x00, 0x81, 0x5e, 0x00, 0x00, 0x00, 0x7f, 0x9a, 0x95, 0x00,
  0x00, 0x00, 0x00, 0xa3, 0x00, 0x62, 0x68, 0x00, 0x00, 0x00, 0x00, 0xb3,
  0x81, 0x4c, 0x00, 0xae, 0x00, 0x00, 0x00, 0xa7, 0x51, 0x7f, 0x00, 0x00,
  0x00, 0x00, 0x00, 0x7a, 0x81, 0x83, 0x00, 0x8f, 0x96, 0xd6, 0xff, 0xff,
  0x04, 0x00, 0x00, 0x00, 0x20, 0x00, 0x00, 0x00, 0x5e, 0x17, 0x00, 0x00,
  0x6b, 0x23, 0x00, 0x00, 0xeb, 0x08, 0x00, 0x00, 0x6b, 0x02, 0x00, 0x00,
  0xbc, 0x10, 0x00, 0x00, 0xee, 0xfe, 0xff, 0xff, 0x16, 0x18, 0x00, 0x00,
  0x9f, 0x07, 0x00, 0x00, 0xc2, 0xd6, 0xff, 0xff, 0x04, 0x00, 0x00, 0x00,
  0x80, 0x04, 0x00, 0x00, 0x00, 0x45, 0x5d, 0x00, 0x00, 0x35, 0x3a, 0xbc,
  0x00, 0x00, 0x00, 0x4d, 0x2f, 0x52, 0x00, 0xc7, 0x32, 0x00, 0x00, 0x5a,
  0x00, 0x00, 0x00, 0x3b, 0x43, 0x00, 0x00, 0x00, 0x47, 0x00, 0x42, 0x00,
  0x00, 0x38, 0x59, 0x00, 0x00, 0x00, 0x00, 0x7f, 0x00, 0x00, 0x00, 0x48,
  0x37, 0x3e, 0x00, 0x00, 0x00, 0x00, 0x00, 0x00, 0x4a, 0x00, 0x32, 0x34,
  0x00, 0x00, 0x00, 0x00, 0x00, 0x00, 0x00, 0x00, 0x00, 0x00, 0x00, 0x00,
  0x00, 0x00, 0x00, 0x00, 0x00, 0xb8, 0xd1, 0x00, 0x00, 0xc5, 0x00, 0x00,
  0x00, 0x39, 0x00, 0x00, 0x00, 0x00, 0x00, 0x40, 0xbb, 0x00, 0x00, 0x00,
  0x00, 0x52, 0x00, 0xcf, 0x00, 0x00, 0x51, 0x00, 0x5f, 0x59, 0x3b, 0x00,
  0x00, 0xce, 0x50, 0x00, 0x00, 0x00, 0x32, 0x30, 0x3f, 0x00, 0x34, 0x00,
  0x00, 0x3c, 0x3c, 0x00, 0x37, 0x4f, 0x00, 0x77, 0x00, 0x31, 0x00, 0x3a,
  0x00, 0x3f, 0x00, 0x00, 0x00, 0x54, 0x00, 0x65, 0x00, 0x00, 0x7f, 0x39,
  0x00, 0x63, 0xbe, 0x00, 0x00, 0x46, 0x00, 0x70, 0x00, 0x00, 0x00, 0x00,
  0x56, 0x00, 0x00, 0x00, 0x7f, 0x00, 0x00, 0x00, 0x00, 0x00, 0xc7, 0x44,
  0x00, 0xc4, 0x00, 0x00, 0x73, 0x00, 0x53, 0x00, 0x00, 0x00, 0x00, 0x00,
  0x00, 0x00, 0x00, 0x73, 0x72, 0xca, 0x00, 0xc1, 0x34, 0x00, 0xb8, 0x00,
  0xc9, 0x9c, 0x00, 0x00, 0x3e, 0x00, 0x00, 0x39, 0x00, 0x00, 0x41, 0x3f,
  0x51, 0x00, 0x00, 0x50, 0x58, 0x00, 0x37, 0xc5, 0x00, 0x00, 0x00, 0x00,
  0xbf, 0x00, 0x00, 0x00, 0x81, 0x00, 0xb2, 0x00, 0x00, 0x3f, 0xa2, 0x00,
  0x93, 0x00, 0x40, 0x00, 0x00, 0x00, 0x86, 0x00, 0xc8, 0xb9, 0x00, 0xcd,
  0xc6, 0xcf, 0xc0, 0xc9, 0x00, 0x00, 0x00, 0xb9, 0x00, 0x00, 0xc8, 0x37,
  0x00, 0x00, 0x00, 0x00, 0x00, 0x00, 0x00, 0x00, 0x00, 0x3f, 0x00, 0x31,
  0x57, 0x5e, 0x00, 0x00, 0x00, 0x6e, 0x00, 0x00, 0x00, 0x00, 0x00, 0x3e,
  0xc4, 0x6d, 0x30, 0x00, 0x00, 0x00, 0x00, 0x00, 0x00, 0x55, 0x00, 0x3a,
  0x00, 0x5a, 0x00, 0x47, 0xb6, 0x7a, 0x7f, 0x00, 0x56, 0x00, 0x3b, 0x00,
  0xbf, 0x69, 0x00, 0x7d, 0x00, 0x59, 0x00, 0xcb, 0x4c, 0x67, 0x00, 0x00,
  0x3e, 0x00, 0x00, 0x00, 0x67, 0x00, 0x00, 0x62, 0x00, 0xb8, 0x00, 0x00,
  0x00, 0x63, 0x00, 0x51, 0x4a, 0x00, 0x00, 0x50, 0x65, 0x00, 0x41, 0x00,
  0x00, 0x00, 0x3d, 0x00, 0x00, 0x00, 0xb7, 0x47, 0x5d, 0xbc, 0x4b, 0x00,
  0x00, 0x50, 0x00, 0x6c, 0x00, 0x44, 0x00, 0x00, 0x00, 0x00, 0x00, 0x64,
  0x56, 0x00, 0x00, 0xae, 0x00, 0x00, 0x79, 0x00, 0x7f, 0x50, 0xaf, 0xc0,
  0x65, 0x00, 0x00, 0x00, 0x00, 0x00, 0x00, 0x00, 0x00, 0x5e, 0x6e, 0x00,
  0x00, 0x78, 0x00, 0x00, 0x00, 0x4e, 0x45, 0x5f, 0x00, 0x3c, 0x00, 0x00,
  0x00, 0x4a, 0x49, 0x62, 0x3e, 0x00, 0x00, 0x00, 0x00, 0x00, 0x00, 0x00,
  0x00, 0x00, 0x4c, 0x00, 0x60, 0x00, 0x00, 0x00, 0x4d, 0x00, 0x44, 0x00,
  0x00, 0x00, 0x79, 0x00, 0x00, 0x4c, 0x00, 0x00, 0x00, 0x46, 0x00, 0x00,
  0x00, 0x00, 0x3d, 0x00, 0x00, 0x93, 0x00, 0x81, 0x00, 0x00, 0x00, 0x00,
  0x00, 0xb3, 0xa2, 0x9e, 0xab, 0x00, 0x00, 0x00, 0x46, 0xca, 0x00, 0x00,
  0x00, 0xbf, 0x3a, 0x00, 0x95, 0x00, 0x00, 0x00, 0x00, 0x6d, 0xab, 0x00,
  0xce, 0xb9, 0x00, 0x00, 0x00, 0x00, 0x00, 0x00, 0x00, 0xb5, 0xba, 0x00,
  0x00, 0x00, 0x00, 0x00, 0x00, 0x49, 0x00, 0x00, 0xb8, 0x00, 0x56, 0x3f,
  0xbd, 0x00, 0x35, 0x00, 0x00, 0x53, 0x00, 0x3c, 0xbe, 0x62, 0x00, 0x00,
  0x5d, 0x75, 0x00, 0x00, 0x00, 0xa3, 0xbb, 0xa8, 0x00, 0xc6, 0x00, 0xbb,
  0x3c, 0x00, 0x00, 0x00, 0x00, 0x00, 0x00, 0xbb, 0x9b, 0x00, 0x3f, 0x00,
  0x00, 0x57, 0xca, 0x6a, 0x00, 0x53, 0x00, 0xb4, 0x00, 0x4c, 0x00, 0x5f,
  0x00, 0xbc, 0x00, 0x00, 0x2f, 0x00, 0x00, 0x00, 0x00, 0x3b, 0x00, 0x00,
  0xa1, 0x42, 0x00, 0x00, 0x81, 0x00, 0x00, 0x00, 0x00, 0x00, 0x00, 0x00,
  0xce, 0x35, 0x00, 0x00, 0x00, 0x41, 0x45, 0x00, 0x00, 0x00, 0x00, 0xa8,
  0x00, 0x00, 0x51, 0x36, 0x00, 0x00, 0x8b, 0x97, 0x9a, 0xa2, 0x00, 0x67,
  0x00, 0x73, 0xb4, 0x6b, 0x00, 0x00, 0x00, 0x6c, 0x50, 0x00, 0x00, 0x8a,
  0x00, 0x00, 0x00, 0x71, 0x00, 0x00, 0x00, 0x00, 0x00, 0x00, 0x00, 0x95,
  0x00, 0x00, 0x00, 0x00, 0x00, 0x00, 0x00, 0xa8, 0x00, 0xa8, 0x9f, 0x95,
  0x94, 0x9d, 0x46, 0x00, 0x00, 0x00, 0x00, 0xa2, 0x00, 0x00, 0x4c, 0x00,
  0x00, 0x53, 0x97, 0x00, 0x00, 0x00, 0x4f, 0x00, 0x00, 0x00, 0x81, 0x00,
  0x9e, 0x00, 0x00, 0x00, 0x00, 0x5e, 0x00, 0x00, 0x00, 0x00, 0xad, 0x55,
  0xad, 0x00, 0x00, 0x00, 0x00, 0x67, 0x00, 0x3e, 0x81, 0x00, 0x00, 0x00,
  0xa7, 0x71, 0xc1, 0x00, 0x00, 0x00, 0xae, 0x00, 0x00, 0x00, 0x00, 0x00,
  0x00, 0x00, 0xb4, 0x00, 0x00, 0x00, 0x00, 0x00, 0x00, 0x7d, 0x00, 0x00,
  0x00, 0x70, 0x00, 0x00, 0x00, 0xab, 0x83, 0x00, 0xc3, 0x00, 0x00, 0x00,
  0x55, 0x00, 0xa0, 0x00, 0x00, 0x00, 0x5e, 0x54, 0x00, 0x44, 0x00, 0x00,
  0x42, 0x00, 0x00, 0x00, 0x83, 0x00, 0xb9, 0x00, 0x51, 0x62, 0xbb, 0x00,
  0xc2, 0x00, 0x00, 0xc5, 0x00, 0x43, 0x81, 0x00, 0x00, 0xb8, 0xa3, 0xa6,
  0x00, 0xb1, 0xa8, 0xc2, 0x00, 0x00, 0x00, 0x92, 0x9d, 0x00, 0x47, 0x00,
  0x00, 0x00, 0x00, 0x00, 0xb7, 0x00, 0x8c, 0x00, 0xb0, 0x00, 0x3f, 0x00,
  0x46, 0x52, 0x00, 0x60, 0x00, 0x35, 0xc8, 0xb9, 0x31, 0x00, 0x43, 0x00,
  0x00, 0x5a, 0x00, 0xc8, 0x00, 0x5b, 0x00, 0x48, 0x00, 0x62, 0x4c, 0x00,
  0x00, 0x69, 0x00, 0x00, 0xb7, 0x5b, 0x00, 0x00, 0x00, 0x66, 0x00, 0x00,
  0xb5, 0x00, 0x49, 0xc4, 0x00, 0x63, 0x81, 0x00, 0x00, 0x00, 0x00, 0xcb,
  0xbb, 0x00, 0xd8, 0x00, 0x00, 0x55, 0x00, 0x3f, 0x00, 0x00, 0x4c, 0x00,
  0x00, 0x54, 0x51, 0x00, 0x00, 0x62, 0x00, 0x00, 0xd9, 0x00, 0x36, 0x00,
  0x00, 0x34, 0xc1, 0x2f, 0x00, 0xc6, 0xc3, 0xb1, 0xd5, 0x00, 0x00, 0x00,
  0x00, 0x00, 0x33, 0x39, 0x38, 0x00, 0x4a, 0x00, 0x00, 0x00, 0x00, 0x00,
  0x00, 0x39, 0x00, 0x00, 0x00, 0x00, 0x3b, 0x00, 0x00, 0x00, 0x00, 0x00,
  0xa6, 0xc7, 0xb5, 0x84, 0x9f, 0xb4, 0x00, 0x00, 0x00, 0xbe, 0xa9, 0x81,
  0x00, 0xc3, 0x00, 0x00, 0x00, 0x52, 0x00, 0xb6, 0x00, 0x00, 0x00, 0x39,
  0x00, 0x47, 0x00, 0x00, 0x37, 0x00, 0xc2, 0x00, 0xcd, 0x00, 0x00, 0x00,
  0x00, 0x67, 0x00, 0x6d, 0x00, 0x00, 0x00, 0x00, 0xb6, 0x00, 0x00, 0x00,
  0x00, 0x00, 0x00, 0xba, 0x36, 0x00, 0x00, 0x00, 0x00, 0x58, 0x00, 0x00,
  0xc3, 0x55, 0x54, 0x37, 0x00, 0x9b, 0x9b, 0x00, 0x00, 0x8e, 0x5e, 0x00,
  0x00, 0x34, 0x00, 0x39, 0xd1, 0x00, 0x00, 0xb5, 0x00, 0xaa, 0x36, 0x48,
  0x9c, 0x00, 0xcb, 0x00, 0x00, 0x00, 0x00, 0xb2, 0x58, 0x00, 0x00, 0x00,
  0x41, 0xc2, 0xca, 0x00, 0x00, 0x00, 0x4c, 0x00, 0x00, 0x00, 0x79, 0x68,
  0x4b, 0x41, 0x00, 0xc4, 0xaf, 0x00, 0x00, 0x00, 0x00, 0x00, 0x00, 0x00,
  0x00, 0x4f, 0x00, 0x00, 0x41, 0x3b, 0x00, 0x00, 0x00, 0x00, 0x7f, 0x56,
  0x00, 0x5e, 0x00, 0x3d, 0x72, 0x00, 0x00, 0x6f, 0x00, 0x3b, 0x39, 0xb9,
  0x72, 0x00, 0x00, 0x7f, 0x63, 0xc3, 0x4b, 0xc4, 0x00, 0x00, 0x00, 0x4c,
  0x00, 0x00, 0x53, 0x00, 0x51, 0x00, 0x4f, 0x51, 0x57, 0xba, 0x62, 0x00,
  0x00, 0x00, 0x00, 0x00, 0x00, 0x00, 0x00, 0x00, 0x00, 0x00, 0x00, 0x5a,
  0x00, 0x00, 0x00, 0x40, 0x57, 0x00, 0x42, 0x00, 0x00, 0x38, 0x00, 0x00,
  0x00, 0x00, 0x00, 0x00, 0x00, 0x00, 0x00, 0x00, 0x00, 0x00, 0x4f, 0x00,
  0x00, 0x43, 0x00, 0x00, 0x00, 0x00, 0xa2, 0x00, 0x00, 0x00, 0x00, 0x00,
  0x00, 0x00, 0x82, 0xa7, 0x00, 0x00, 0x00, 0x00, 0x6e, 0x81, 0x90, 0x8b,
  0x38, 0x9f, 0x64, 0x00, 0x51, 0x00, 0x00, 0x00, 0x00, 0x66, 0xb6, 0x00,
  0x00, 0x8b, 0x00, 0x00, 0x00, 0x00, 0x5d, 0x49, 0x00, 0x00, 0x00, 0x99,
  0x00, 0x96, 0x00, 0x00, 0x00, 0x00, 0x00, 0x00, 0x00, 0x00, 0x00, 0x3d,
  0x00, 0x5b, 0x00, 0x6c, 0x00, 0x65, 0xc3, 0x56, 0xb4, 0x00, 0x00, 0x00,
  0x48, 0x00, 0xaa, 0x00, 0x4e, 0xdb, 0xff, 0xff, 0x04, 0x00, 0x00, 0x00,
  0x40, 0x00, 0x00, 0x00, 0xeb, 0xf7, 0xff, 0xff, 0x40, 0xf5, 0xff, 0xff,
  0xeb, 0x06, 0x00, 0x00, 0x23, 0x07, 0x00, 0x00, 0xce, 0xf8, 0xff, 0xff,
  0x32, 0xfe, 0xff, 0xff, 0x45, 0x1e, 0x00, 0x00, 0x71, 0x0b, 0x00, 0x00,
  0x07, 0x28, 0x00, 0x00, 0x06, 0x14, 0x00, 0x00, 0xec, 0x14, 0x00, 0x00,
  0x8f, 0x06, 0x00, 0x00, 0x20, 0x0f, 0x00, 0x00, 0xb9, 0x00, 0x00, 0x00,
  0x95, 0xec, 0xff, 0xff, 0xe1, 0x34, 0x00, 0x00, 0x9a, 0xdb, 0xff, 0xff,
  0x04, 0x00, 0x00, 0x00, 0x00, 0x12, 0x00, 0x00, 0x4a, 0x36, 0x00, 0x64,
  0xc2, 0x00, 0x47, 0x62, 0xca, 0x00, 0x56, 0x00, 0x6a, 0x46, 0x00, 0x00,
  0x00, 0x00, 0x00, 0x33, 0x00, 0x00, 0x00, 0x31, 0xc6, 0x4f, 0x2f, 0x00,
  0x39, 0x58, 0x00, 0x00, 0x00, 0x00, 0xcb, 0x34, 0x00, 0x00, 0x5c, 0x48,
  0xc6, 0x42, 0x7f, 0x50, 0x3d, 0x75, 0xd0, 0x65, 0x00, 0x00, 0x00, 0x28,
  0x00, 0x00, 0x3b, 0x00, 0x36, 0x00, 0x2c, 0x28, 0x49, 0xc5, 0x00, 0x00,
  0x00, 0x00, 0x00, 0x00, 0x00, 0x00, 0x00, 0x00, 0x00, 0x70, 0x6c, 0x29,
  0x00, 0xcf, 0xcb, 0x56, 0x00, 0x00, 0xcb, 0x54, 0x2a, 0x32, 0x4f, 0x5d,
  0x00, 0x39, 0x5a, 0x29, 0x00, 0xc5, 0xbc, 0x00, 0x00, 0xbd, 0x00, 0x00,
  0xc9, 0xc1, 0xc4, 0xbb, 0x48, 0x00, 0xc5, 0xb7, 0x00, 0x00, 0xb9, 0x00,
  0x00, 0x00, 0x00, 0x25, 0xb0, 0xb7, 0x00, 0x00, 0x00, 0xc8, 0x00, 0x00,
  0x00, 0x00, 0xbf, 0x00, 0xba, 0xc8, 0xdd, 0x00, 0xd1, 0xda, 0x47, 0x00,
  0x00, 0x00, 0xc4, 0x00, 0x00, 0x00, 0xb8, 0x48, 0x00, 0xb3, 0x00, 0xb6,
  0xa0, 0xcf, 0x00, 0x00, 0x00, 0xc9, 0x9f, 0x00, 0xbc, 0x00, 0x00, 0xc4,
  0x00, 0x00, 0x3b, 0xb9, 0x00, 0x00, 0x00, 0x00, 0x38, 0x00, 0x00, 0xa9,
  0xcc, 0x00, 0x00, 0x00, 0x00, 0x00, 0x46, 0xa3, 0x3d, 0x3c, 0xab, 0x00,
  0x00, 0x00, 0x00, 0x00, 0x00, 0x00, 0x00, 0x00, 0xca, 0x00, 0x00, 0x49,
  0xc8, 0x00, 0x00, 0xc5, 0x00, 0x00, 0x53, 0x00, 0x61, 0x00, 0x00, 0xbe,
  0xd1, 0x35, 0x00, 0x48, 0xb7, 0xcf, 0x00, 0xbb, 0x5c, 0x00, 0x4c, 0x00,
  0x00, 0x00, 0x00, 0x00, 0x00, 0x00, 0xa6, 0x00, 0xce, 0x00, 0x63, 0x5b,
  0x00, 0x37, 0x00, 0x4c, 0x00, 0x66, 0x3c, 0x63, 0x00, 0x00, 0x00, 0xb7,
  0x51, 0x34, 0x36, 0x00, 0xbb, 0x00, 0x00, 0x00, 0x00, 0x00, 0x00, 0xc4,
  0x00, 0x00, 0x00, 0x00, 0x00, 0x00, 0x00, 0x00, 0x00, 0x00, 0x00, 0x00,
  0x66, 0x00, 0x00, 0x00, 0x48, 0x34, 0x00, 0x4a, 0x38, 0x4c, 0x7f, 0x00,
  0x00, 0x43, 0x43, 0x62, 0x00, 0x00, 0xc5, 0x4c, 0x00, 0x00, 0x8f, 0x4d,
  0x00, 0x00, 0x64, 0x6b, 0x00, 0x6a, 0x7f, 0x00, 0x7d, 0x6c, 0x00, 0x00,
  0x3d, 0x4b, 0x00, 0x50, 0xbc, 0x47, 0x00, 0x00, 0x00, 0x5f, 0x50, 0x00,
  0x50, 0x2e, 0x00, 0x56, 0x39, 0x00, 0xac, 0x00, 0x00, 0x35, 0x00, 0x36,
  0xd4, 0x3d, 0x4a, 0x5b, 0x00, 0x50, 0xb9, 0x00, 0x3d, 0x00, 0x00, 0x00,
  0x00, 0x00, 0x00, 0x00, 0x3b, 0x69, 0x00, 0x00, 0x00, 0x98, 0x00, 0x00,
  0x00, 0xba, 0x32, 0x4f, 0x00, 0xce, 0xb0, 0x00, 0x00, 0x00, 0x64, 0x00,
  0x00, 0x00, 0xd6, 0x3e, 0x00, 0x00, 0x00, 0x54, 0x3c, 0xd7, 0x61, 0x00,
  0x47, 0x6c, 0x63, 0x37, 0x40, 0xc2, 0xc4, 0x42, 0xcc, 0x00, 0x41, 0x00,
  0xc1, 0x00, 0x00, 0x00, 0x00, 0x49, 0xc8, 0xb3, 0x00, 0x00, 0x00, 0x4a,
  0xcf, 0x00, 0x00, 0x2c, 0xd1, 0x00, 0x31, 0xb2, 0x34, 0x00, 0x00, 0x00,
  0x00, 0x49, 0x00, 0x00, 0x00, 0x00, 0x00, 0x00, 0x00, 0xce, 0x00, 0x00,
  0x6e, 0x00, 0xc8, 0xb4, 0xb5, 0x00, 0xc4, 0x7a, 0x41, 0x00, 0x31, 0x00,
  0x4e, 0x42, 0x00, 0x00, 0x00, 0x00, 0x00, 0x00, 0x00, 0x00, 0x58, 0x00,
  0x3b, 0x00, 0x56, 0x81, 0x00, 0x3e, 0x95, 0x00, 0x00, 0x00, 0x00, 0x00,
  0x9e, 0x00, 0x34, 0xc2, 0x33, 0x00, 0x00, 0x96, 0x00, 0x00, 0x00, 0xc4,
  0xa4, 0x00, 0xa3, 0xc6, 0x90, 0x00, 0x33, 0x81, 0x00, 0x00, 0x00, 0x00,
  0x00, 0x00, 0x00, 0x00, 0xb8, 0x00, 0x00, 0x35, 0x00, 0x00, 0x3e, 0x00,
  0x37, 0x00, 0x00, 0xa2, 0x00, 0x00, 0xa6, 0xb8, 0x00, 0xa2, 0x00, 0x00,
  0x00, 0x00, 0x00, 0x00, 0x3a, 0x2f, 0x00, 0xaa, 0x00, 0x42, 0xa7, 0xa7,
  0x00, 0xd0, 0x00, 0x00, 0x00, 0x2f, 0x00, 0xc0, 0x00, 0x3c, 0x40, 0x00,
  0x3c, 0x38, 0x00, 0x00, 0x00, 0x00, 0x00, 0x00, 0xc3, 0x00, 0x4a, 0x00,
  0x00, 0xc5, 0x00, 0xb7, 0x00, 0x00, 0xb9, 0xc0, 0x00, 0xa4, 0x00, 0xc9,
  0x00, 0xc3, 0x00, 0x00, 0x00, 0x00, 0x00, 0xca, 0x3a, 0x00, 0xca, 0x00,
  0x00, 0x00, 0x00, 0x3d, 0xaa, 0x00, 0x39, 0x00, 0x00, 0xc4, 0x27, 0xcd,
  0x00, 0x00, 0x00, 0x00, 0x00, 0xba, 0x00, 0x00, 0xd4, 0xd7, 0x00, 0x00,
  0x00, 0x00, 0x24, 0xa6, 0x58, 0x43, 0xca, 0x64, 0x00, 0x00, 0x00, 0x00,
  0x00, 0x62, 0x00, 0x00, 0x36, 0x54, 0x42, 0xa3, 0x00, 0x00, 0xa7, 0x00,
  0xc9, 0x8e, 0xc1, 0x00, 0x9a, 0x00, 0x47, 0x81, 0x00, 0x00, 0x00, 0x4a,
  0x00, 0x00, 0x42, 0x00, 0x00, 0x00, 0x00, 0x28, 0x3c, 0x00, 0x00, 0x5a,
  0x00, 0x56, 0x00, 0x00, 0x00, 0x00, 0x3f, 0x00, 0x00, 0xd2, 0x00, 0x33,
  0x00, 0x5e, 0x00, 0x00, 0x29, 0x00, 0x00, 0x00, 0x00, 0x49, 0xc9, 0x00,
  0xcb, 0x00, 0x00, 0x00, 0x00, 0xce, 0x00, 0xc3, 0x30, 0xd7, 0xd1, 0x28,
  0xd5, 0x00, 0xcc, 0x00, 0xca, 0x00, 0x00, 0x00, 0x00, 0xca, 0x00, 0x36,
  0x00, 0x29, 0x00, 0x47, 0x00, 0x00, 0x00, 0x3f, 0xc1, 0x00, 0x56, 0x00,
  0x41, 0x40, 0x27, 0x00, 0x29, 0x00, 0x33, 0x00, 0x00, 0x00, 0x37, 0x28,
  0x00, 0x00, 0x00, 0x00, 0x00, 0xd2, 0x00, 0x00, 0x00, 0x00, 0x81, 0x2b,
  0xc8, 0xb6, 0x00, 0x00, 0x00, 0x00, 0x52, 0xc0, 0x35, 0x00, 0xb3, 0xd7,
  0xbe, 0x00, 0xa7, 0x2e, 0x00, 0x00, 0x51, 0x00, 0x00, 0x2f, 0x00, 0x00,
  0x00, 0x00, 0x00, 0x00, 0xc6, 0x00, 0x00, 0x00, 0xb7, 0x00, 0x46, 0x00,
  0x00, 0xd2, 0x00, 0xd0, 0x00, 0x34, 0x00, 0x00, 0x00, 0x00, 0xb6, 0x4b,
  0xc1, 0x32, 0x00, 0x00, 0x00, 0x00, 0x00, 0x00, 0x00, 0x00, 0xb4, 0x4b,
  0x00, 0x33, 0xc4, 0x00, 0x00, 0x00, 0x49, 0x00, 0x00, 0x00, 0x00, 0x46,
  0x00, 0x33, 0x00, 0x4f, 0x00, 0x00, 0xc7, 0x00, 0x00, 0x00, 0x00, 0x00,
  0xc6, 0x52, 0x00, 0x00, 0x37, 0x00, 0x00, 0x46, 0x00, 0x00, 0x00, 0x00,
  0x00, 0x00, 0x00, 0x00, 0x00, 0x3e, 0x00, 0x00, 0xc5, 0x00, 0x00, 0x00,
  0x00, 0xce, 0x00, 0xcf, 0x00, 0x00, 0xc0, 0x00, 0x00, 0x2d, 0xcf, 0x00,
  0x00, 0xd6, 0x00, 0x00, 0x34, 0x00, 0x36, 0x65, 0x49, 0x2c, 0x34, 0x00,
  0x3b, 0x00, 0x00, 0x52, 0x47, 0x00, 0x00, 0x00, 0x98, 0x00, 0xa7, 0x38,
  0xa2, 0xc9, 0x00, 0x00, 0x00, 0x00, 0x6e, 0x00, 0x4d, 0x46, 0x00, 0x00,
  0xc9, 0x00, 0xc6, 0x00, 0x00, 0x00, 0x7b, 0xcd, 0x00, 0x00, 0x00, 0x00,
  0x00, 0x3c, 0xb1, 0x00, 0x00, 0x36, 0xc5, 0x00, 0x00, 0x00, 0x7f, 0x4b,
  0xce, 0x00, 0x5f, 0x45, 0x3b, 0x48, 0x00, 0x00, 0x00, 0x00, 0x00, 0x38,
  0xcb, 0x00, 0x00, 0x00, 0x00, 0x00, 0x00, 0x00, 0x00, 0xb0, 0x00, 0x00,
  0x00, 0x00, 0xc0, 0x00, 0xca, 0x00, 0x00, 0x00, 0x00, 0x43, 0x00, 0x46,
  0x52, 0xd5, 0x00, 0xcd, 0x00, 0x00, 0x00, 0x4e, 0x00, 0x00, 0x51, 0x00,
  0x2e, 0x3d, 0x68, 0x58, 0x00, 0x00, 0x00, 0x00, 0x00, 0x00, 0x00, 0x00,
  0x00, 0x00, 0xc7, 0x00, 0x48, 0x00, 0x00, 0xc3, 0x00, 0xab, 0x00, 0x00,
  0xb8, 0x00, 0x00, 0x00, 0x00, 0x00, 0x00, 0x00, 0x2e, 0xd2, 0x00, 0x00,
  0x00, 0x00, 0x00, 0x00, 0x00, 0x3e, 0x00, 0x00, 0x43, 0x00, 0x00, 0x44,
  0x00, 0x46, 0x00, 0x00, 0x00, 0x00, 0x00, 0x00, 0x4e, 0xa2, 0x00, 0x00,
  0x00, 0x00, 0x00, 0x00, 0x9e, 0xa7, 0x00, 0x00, 0x00, 0x00, 0x00, 0x00,
  0x00, 0xb3, 0x00, 0x00, 0x00, 0xb5, 0x00, 0xa4, 0x70, 0x00, 0x61, 0x4e,
  0x00, 0x00, 0x00, 0x43, 0x00, 0x56, 0x00, 0x00, 0x00, 0x00, 0x00, 0x69,
  0x00, 0x00, 0x00, 0x00, 0x3f, 0x7f, 0x00, 0x65, 0x00, 0x00, 0xa1, 0x00,
  0x00, 0x00, 0x00, 0x00, 0x00, 0x00, 0x00, 0x00, 0x00, 0x00, 0x00, 0x00,
  0x44, 0x9f, 0x00, 0x43, 0xaf, 0x00, 0x40, 0x00, 0x9c, 0x00, 0x00, 0x00,
  0x00, 0x00, 0xb5, 0x47, 0x00, 0x46, 0x00, 0x00, 0x00, 0x00, 0x00, 0x00,
  0x00, 0x60, 0x00, 0x00, 0x00, 0x00, 0x42, 0x00, 0x3f, 0x9d, 0x00, 0x61,
  0x00, 0x00, 0xb7, 0x55, 0x00, 0xb0, 0x48, 0xb5, 0x00, 0x00, 0x00, 0x00,
  0x00, 0x00, 0x9e, 0x00, 0x00, 0x00, 0x00, 0x00, 0x00, 0x00, 0x00, 0x00,
  0x52, 0xbc, 0x00, 0x00, 0x00, 0x00, 0x00, 0x7a, 0x00, 0x00, 0x69, 0x00,
  0x00, 0xbc, 0x54, 0x00, 0x5f, 0x00, 0x5c, 0x00, 0x00, 0x00, 0x00, 0x00,
  0x28, 0x00, 0x8a, 0x00, 0x00, 0x6f, 0xb1, 0x4f, 0x00, 0x00, 0x00, 0x00,
  0x43, 0x00, 0x3c, 0x00, 0x38, 0x00, 0x00, 0xcc, 0x79, 0x00, 0x00, 0x00,
  0x00, 0xca, 0xc6, 0xb0, 0x00, 0x3d, 0xad, 0x56, 0x2d, 0x00, 0x00, 0x00,
  0x00, 0x41, 0x48, 0x00, 0x48, 0x00, 0x00, 0x00, 0x00, 0x00, 0x00, 0xd2,
  0x00, 0x00, 0xc9, 0xc6, 0x3f, 0xb6, 0x00, 0xb0, 0x99, 0x00, 0x00, 0x00,
  0xc6, 0x00, 0x43, 0xcd, 0x2e, 0x00, 0x00, 0x00, 0x00, 0x00, 0xb4, 0x00,
  0x40, 0x00, 0xc9, 0xcf, 0x00, 0x34, 0x00, 0xd5, 0x2c, 0x00, 0x00, 0x37,
  0x00, 0x00, 0x00, 0xcb, 0x91, 0x00, 0x2b, 0xb0, 0x00, 0xd2, 0x00, 0xcc,
  0xbd, 0xb1, 0x00, 0xa1, 0x00, 0xb0, 0xaf, 0x00, 0xc2, 0x00, 0x00, 0x00,
  0x00, 0x00, 0x00, 0x81, 0x00, 0x00, 0x00, 0x00, 0x56, 0xb3, 0xb5, 0x00,
  0x00, 0xba, 0x00, 0x9e, 0x2c, 0x00, 0x4e, 0xc3, 0x00, 0x3d, 0xc0, 0x00,
  0x2c, 0x00, 0x00, 0x38, 0x00, 0x47, 0x00, 0xaf, 0x70, 0x4b, 0x5e, 0x3b,
  0x5c, 0x00, 0x4f, 0x00, 0x96, 0x00, 0x00, 0x00, 0x66, 0x69, 0x00, 0x86,
  0x00, 0x00, 0x50, 0x83, 0x00, 0x00, 0x00, 0x54, 0x43, 0x00, 0xbe, 0x00,
  0x81, 0x00, 0x00, 0x8e, 0x00, 0x00, 0x00, 0x00, 0x00, 0x00, 0x00, 0x00,
  0x00, 0x00, 0x00, 0x00, 0x00, 0x44, 0x00, 0x00, 0x00, 0x00, 0x3b, 0x00,
  0x72, 0x00, 0x00, 0x00, 0x00, 0x00, 0x00, 0x00, 0xa2, 0x00, 0x00, 0x00,
  0x00, 0x00, 0x00, 0x6c, 0x00, 0x52, 0x00, 0x00, 0xb6, 0x00, 0x00, 0x00,
  0xad, 0xa5, 0x00, 0x46, 0x00, 0x00, 0x00, 0x00, 0x00, 0x00, 0x00, 0x00,
  0x92, 0x5a, 0x9a, 0x4b, 0x00, 0xb6, 0x00, 0x00, 0x00, 0x47, 0x00, 0x54,
  0x00, 0x00, 0x00, 0x00, 0x00, 0x00, 0x00, 0x00, 0x00, 0x00, 0xb2, 0xac,
  0x00, 0x00, 0x00, 0x00, 0x00, 0xaf, 0x00, 0x00, 0xb2, 0xbf, 0x55, 0x00,
  0x98, 0x00, 0xa5, 0x00, 0x00, 0x96, 0xa7, 0x00, 0x00, 0x00, 0x00, 0xb3,
  0x00, 0x00, 0x00, 0x00, 0x00, 0x00, 0x00, 0x4e, 0xc7, 0x00, 0x00, 0x00,
  0x00, 0x00, 0x5c, 0x00, 0x48, 0x00, 0x4f, 0x00, 0x00, 0x00, 0x00, 0x00,
  0x00, 0x00, 0x00, 0x00, 0xb9, 0x00, 0x00, 0x00, 0x00, 0x4c, 0x52, 0x00,
  0x4e, 0x6c, 0xb4, 0x4e, 0x00, 0x00, 0x00, 0x6a, 0x81, 0x00, 0x00, 0xc6,
  0x45, 0xb2, 0x00, 0xbd, 0x41, 0x5d, 0x99, 0x00, 0x00, 0x00, 0x00, 0x00,
  0xb5, 0xc5, 0x00, 0x00, 0x00, 0x00, 0x00, 0x3c, 0x59, 0x00, 0xac, 0x00,
  0x35, 0x00, 0x00, 0x00, 0x00, 0xc6, 0x00, 0x00, 0x56, 0x5d, 0x73, 0x3a,
  0x00, 0x00, 0x00, 0x00, 0x00, 0x00, 0x00, 0x69, 0x3b, 0x00, 0x00, 0x00,
  0x00, 0x76, 0x4d, 0x69, 0x00, 0x37, 0x00, 0x4e, 0x38, 0x3a, 0x00, 0x00,
  0x00, 0x00, 0x00, 0xb8, 0x71, 0x00, 0x00, 0x00, 0x00, 0xba, 0xc9, 0x5d,
  0x00, 0xc1, 0x00, 0x00, 0x00, 0x00, 0x00, 0xbe, 0x00, 0x52, 0x82, 0x00,
  0x00, 0x00, 0x00, 0x00, 0xbf, 0xba, 0xcc, 0x00, 0x00, 0x00, 0x00, 0x00,
  0xc8, 0x60, 0x5c, 0x67, 0x6a, 0x00, 0xc4, 0x00, 0x00, 0x00, 0x00, 0xcc,
  0x00, 0x00, 0x00, 0x5d, 0x00, 0xb1, 0x00, 0x00, 0x00, 0x67, 0x55, 0x49,
  0x46, 0x53, 0x00, 0x81, 0x6b, 0x58, 0x92, 0x00, 0x00, 0x00, 0x00, 0x00,
  0x00, 0x55, 0x47, 0xab, 0x00, 0x00, 0x00, 0xb5, 0x00, 0x00, 0xc5, 0xc2,
  0x00, 0x9d, 0xce, 0x00, 0x8a, 0x00, 0x00, 0xa4, 0x49, 0x38, 0x00, 0xd1,
  0x41, 0x51, 0x43, 0x00, 0x00, 0xc0, 0x46, 0x00, 0x00, 0x50, 0x4e, 0x00,
  0x00, 0x00, 0x00, 0xcf, 0x2e, 0x3e, 0x00, 0x77, 0xa4, 0x00, 0xcb, 0xc3,
  0xb0, 0x43, 0x00, 0xc4, 0x00, 0x6b, 0x00, 0x00, 0x00, 0x32, 0x32, 0xc1,
  0xc4, 0x00, 0x00, 0x00, 0x00, 0x00, 0x60, 0x00, 0x00, 0x00, 0x00, 0x52,
  0x38, 0x37, 0x39, 0x4c, 0xc7, 0x00, 0x62, 0x00, 0x00, 0x00, 0x00, 0x00,
  0x00, 0x00, 0x00, 0x5a, 0x3d, 0x00, 0x40, 0x00, 0x00, 0x00, 0x00, 0x4b,
  0x00, 0x00, 0x00, 0xc8, 0x31, 0x00, 0xbc, 0x61, 0x59, 0x30, 0x00, 0x00,
  0xca, 0x00, 0x00, 0x00, 0x00, 0x4a, 0x00, 0x00, 0x00, 0x00, 0x00, 0x00,
  0x00, 0x00, 0x00, 0x00, 0xca, 0x00, 0x00, 0xd1, 0xaf, 0xdc, 0x00, 0xbf,
  0x00, 0x00, 0x6b, 0xcb, 0x00, 0x00, 0xc8, 0x00, 0x00, 0x42, 0xc3, 0x27,
  0x00, 0x00, 0x00, 0x00, 0xd8, 0xca, 0x3b, 0xb7, 0x00, 0x28, 0xd4, 0x00,
  0x2b, 0x00, 0x00, 0x00, 0x00, 0xc5, 0x33, 0x00, 0x00, 0xdd, 0x00, 0xd6,
  0xc8, 0x00, 0x00, 0xc0, 0x00, 0x00, 0xd3, 0xd9, 0xc7, 0x00, 0x00, 0xdc,
  0x00, 0x00, 0x00, 0x00, 0x00, 0xd9, 0x00, 0xda, 0x2b, 0x00, 0x00, 0x00,
  0x00, 0x00, 0x2f, 0xdc, 0x00, 0x00, 0x00, 0x00, 0x00, 0x00, 0x54, 0x00,
  0x00, 0x00, 0x00, 0x00, 0x00, 0x3b, 0x00, 0x29, 0x00, 0x00, 0x00, 0x25,
  0x28, 0x00, 0x00, 0xda, 0x00, 0x00, 0x3b, 0x33, 0x00, 0x00, 0x30, 0x00,
  0x00, 0x00, 0x00, 0x27, 0x00, 0x00, 0x3c, 0x00, 0x00, 0x00, 0x36, 0x00,
  0x00, 0xd3, 0x00, 0x00, 0x3e, 0x00, 0xdb, 0x68, 0x00, 0x00, 0x67, 0x44,
  0x00, 0x41, 0x5b, 0x67, 0x7f, 0x33, 0x00, 0x49, 0x00, 0x00, 0xd0, 0x00,
  0x3b, 0x00, 0x37, 0x00, 0x00, 0x2d, 0x3c, 0x59, 0x3c, 0xb4, 0xd0, 0xbf,
  0x00, 0x3b, 0x00, 0x6c, 0x00, 0x30, 0x36, 0x00, 0x00, 0x00, 0x33, 0x48,
  0x3a, 0xc8, 0x83, 0x3d, 0x30, 0x00, 0xc5, 0x63, 0x00, 0x00, 0x29, 0x00,
  0x00, 0x7f, 0x5a, 0x28, 0x30, 0x00, 0x00, 0x00, 0x00, 0x2c, 0x45, 0x00,
  0x00, 0x2b, 0x00, 0xd8, 0x3b, 0x00, 0xaa, 0x00, 0x9f, 0x00, 0x00, 0x00,
  0x31, 0x2e, 0x3d, 0x2e, 0x00, 0x00, 0xc2, 0x00, 0x00, 0x00, 0x00, 0x00,
  0xdc, 0x00, 0x00, 0x00, 0x00, 0xbc, 0x00, 0x00, 0x00, 0xd5, 0x00, 0x00,
  0x00, 0x00, 0xd1, 0xd2, 0x2e, 0xa3, 0x00, 0x00, 0x00, 0x00, 0x3e, 0x00,
  0x00, 0x00, 0x00, 0x00, 0x00, 0x29, 0x00, 0x28, 0x00, 0x68, 0x00, 0x85,
  0x00, 0x00, 0x3e, 0x00, 0x00, 0x00, 0x00, 0xc6, 0x00, 0xc5, 0xb3, 0x00,
  0xb7, 0xce, 0x00, 0x00, 0xd6, 0x00, 0x00, 0x00, 0xd7, 0x00, 0x9b, 0x00,
  0x00, 0x00, 0x00, 0xa5, 0x00, 0xa6, 0x00, 0x00, 0xd0, 0x00, 0x00, 0xc8,
  0x00, 0x00, 0x00, 0x00, 0x46, 0x00, 0xb2, 0xbc, 0xac, 0x00, 0x00, 0x00,
  0x00, 0x00, 0x45, 0xad, 0x00, 0x00, 0xb9, 0xcc, 0x00, 0x00, 0x00, 0xcb,
  0xcd, 0x00, 0x43, 0x00, 0xc0, 0x00, 0x00, 0xbe, 0x00, 0x00, 0x00, 0x2d,
  0x36, 0x00, 0xbc, 0xd2, 0x00, 0xba, 0xd3, 0xc0, 0x00, 0x00, 0x00, 0x25,
  0xda, 0x00, 0x00, 0x2c, 0x00, 0x00, 0x00, 0x00, 0x31, 0x00, 0x00, 0x00,
  0x00, 0x00, 0x00, 0x62, 0x00, 0x2d, 0x35, 0x00, 0x3e, 0x4f, 0x3e, 0x44,
  0x7f, 0x00, 0x00, 0x56, 0xc6, 0x00, 0x00, 0x00, 0xc2, 0x00, 0x00, 0x3e,
  0x00, 0xb8, 0x00, 0x00, 0x00, 0x00, 0xda, 0x57, 0x00, 0x00, 0xd4, 0x00,
  0x00, 0x00, 0x2f, 0x2c, 0x00, 0x00, 0x00, 0x00, 0x34, 0x00, 0xdc, 0x00,
  0x00, 0x32, 0x2f, 0x00, 0x00, 0x00, 0xc5, 0x00, 0x00, 0x6e, 0x3b, 0x00,
  0x00, 0xc9, 0x00, 0x00, 0x00, 0x33, 0x00, 0x00, 0x00, 0x00, 0x00, 0x00,
  0x00, 0x47, 0x00, 0x62, 0x36, 0x00, 0xce, 0x00, 0x8a, 0xa2, 0x00, 0x00,
  0x00, 0x00, 0x62, 0x00, 0x97, 0x00, 0x00, 0x00, 0x00, 0x00, 0x9f, 0x00,
  0x85, 0x00, 0x00, 0x00, 0x00, 0x99, 0x00, 0x8e, 0x00, 0x85, 0x61, 0x00,
  0x6b, 0xaa, 0x00, 0x00, 0x00, 0x60, 0x00, 0x00, 0x00, 0x00, 0xa4, 0x00,
  0x00, 0x00, 0x00, 0x68, 0x59, 0x00, 0x00, 0x00, 0x00, 0x6a, 0x00, 0x00,
  0x00, 0x00, 0x8a, 0x81, 0x00, 0x00, 0x00, 0x00, 0x00, 0x00, 0x92, 0x00,
  0x00, 0x00, 0x00, 0x00, 0x96, 0x00, 0x00, 0x00, 0xaa, 0x00, 0x68, 0xa4,
  0x00, 0x00, 0xa1, 0x00, 0xa4, 0xa2, 0x00, 0x9f, 0x00, 0x00, 0x00, 0x00,
  0xa2, 0x00, 0x00, 0x00, 0x00, 0x00, 0x00, 0x00, 0x00, 0x00, 0x64, 0x00,
  0x8d, 0x00, 0x00, 0x5b, 0x00, 0x5d, 0x00, 0x68, 0x78, 0x00, 0x00, 0x00,
  0x00, 0x00, 0x00, 0x00, 0x00, 0x00, 0x91, 0x00, 0x60, 0x00, 0x00, 0x00,
  0x00, 0x00, 0x00, 0x00, 0x00, 0x96, 0x00, 0x00, 0x00, 0x00, 0x00, 0x00,
  0x95, 0x8d, 0x00, 0x90, 0x00, 0x00, 0x00, 0x00, 0x00, 0x00, 0x00, 0x00,
  0x00, 0x9c, 0x00, 0x00, 0x00, 0x94, 0x39, 0xad, 0x00, 0x00, 0x00, 0x00,
  0x89, 0xb6, 0x00, 0x00, 0x90, 0x00, 0x00, 0x00, 0x51, 0x00, 0x00, 0xb2,
  0x00, 0x4b, 0x00, 0x00, 0x00, 0x00, 0x00, 0x00, 0x00, 0x00, 0xbc, 0x00,
  0x00, 0x00, 0x00, 0x00, 0x00, 0x52, 0x00, 0x00, 0x00, 0xc7, 0x00, 0x00,
  0x00, 0xb6, 0x00, 0xb8, 0x00, 0x00, 0x51, 0x4d, 0x00, 0x43, 0x00, 0x00,
  0x00, 0x4c, 0xc7, 0x00, 0x44, 0xc5, 0x4d, 0x00, 0x5f, 0x00, 0x4d, 0x00,
  0x45, 0x00, 0x00, 0x00, 0x00, 0x5e, 0x69, 0x73, 0x00, 0x00, 0x00, 0x40,
  0x00, 0x00, 0x58, 0x00, 0x7f, 0x40, 0x00, 0x00, 0x00, 0x00, 0x4f, 0x00,
  0x00, 0x55, 0x3e, 0x00, 0x00, 0x00, 0x00, 0xbe, 0x47, 0x4f, 0x00, 0x00,
  0x00, 0x00, 0x5e, 0xb1, 0x00, 0x00, 0x00, 0x00, 0x00, 0x00, 0xad, 0xa5,
  0x4f, 0x00, 0x00, 0x00, 0x00, 0x00, 0x4b, 0x00, 0x00, 0x00, 0x4e, 0x00,
  0x00, 0x63, 0x7e, 0x65, 0x00, 0x00, 0x00, 0x52, 0x00, 0xa3, 0x00, 0x00,
  0xa1, 0x00, 0x00, 0x8f, 0xa1, 0x00, 0x00, 0xa2, 0x00, 0x00, 0x00, 0x00,
  0x00, 0xa8, 0x96, 0x00, 0x9f, 0x8b, 0x58, 0x8c, 0x00, 0x00, 0xa7, 0x00,
  0x00, 0x00, 0x00, 0x00, 0x00, 0x00, 0x60, 0x6a, 0xa3, 0x00, 0x00, 0x00,
  0x00, 0x85, 0x83, 0x00, 0x00, 0x61, 0x00, 0x00, 0x84, 0x68, 0xa2, 0x9d,
  0x00, 0x8e, 0x67, 0x00, 0x00, 0x00, 0x8b, 0x8b, 0x00, 0x00, 0x00, 0x00,
  0x00, 0x00, 0x00, 0x00, 0x95, 0x00, 0x81, 0x00, 0x00, 0x00, 0x00, 0xa7,
  0x00, 0x00, 0x00, 0x71, 0x9d, 0x00, 0x8f, 0x00, 0x00, 0x63, 0x5d, 0x93,
  0x00, 0x00, 0x00, 0x99, 0x00, 0x95, 0x69, 0x00, 0x90, 0x00, 0x00, 0x00,
  0x00, 0x9e, 0x00, 0x00, 0x63, 0x00, 0x00, 0x00, 0x00, 0x00, 0x00, 0x00,
  0x9e, 0x00, 0x00, 0x94, 0x63, 0x5c, 0x00, 0x87, 0x00, 0x00, 0x94, 0x00,
  0x00, 0x00, 0xa5, 0x00, 0x00, 0x00, 0x00, 0x00, 0x00, 0x00, 0x00, 0x6c,
  0x5e, 0x00, 0x00, 0x5d, 0x00, 0x9b, 0x82, 0x00, 0x00, 0x00, 0x00, 0x00,
  0x65, 0x00, 0x00, 0x91, 0xa7, 0x00, 0x00, 0x00, 0x00, 0x65, 0x00, 0x00,
  0x00, 0x00, 0x00, 0x00, 0x00, 0x9f, 0x00, 0x00, 0x00, 0x00, 0x00, 0x00,
  0x00, 0x00, 0x00, 0x5d, 0x62, 0x00, 0x00, 0x00, 0x00, 0x94, 0x9a, 0x00,
  0x63, 0x86, 0x00, 0x00, 0x00, 0x00, 0x00, 0x70, 0x87, 0x00, 0x00, 0x8a,
  0x67, 0xa2, 0x85, 0x81, 0x9e, 0x6f, 0x94, 0x00, 0x00, 0x00, 0x00, 0x9a,
  0x00, 0x00, 0xa1, 0x00, 0x00, 0x00, 0x00, 0x00, 0x00, 0x00, 0x84, 0x99,
  0x00, 0x00, 0x00, 0x00, 0x00, 0x00, 0x00, 0x00, 0x00, 0x92, 0x00, 0x93,
  0x93, 0x00, 0x8f, 0x00, 0x00, 0x00, 0x8b, 0x61, 0xa2, 0x87, 0x00, 0xa3,
  0x00, 0x5b, 0x00, 0x00, 0x69, 0x00, 0x00, 0x97, 0x00, 0x00, 0x9f, 0xa4,
  0x00, 0x00, 0xa0, 0x00, 0x94, 0x00, 0x00, 0x61, 0x00, 0xa5, 0x00, 0x91,
  0x59, 0x00, 0x00, 0x00, 0x00, 0x00, 0x00, 0x00, 0x65, 0x00, 0x00, 0x00,
  0x00, 0x94, 0x8b, 0x8d, 0x00, 0x00, 0x00, 0x58, 0x2d, 0x00, 0xa6, 0x3e,
  0xac, 0x00, 0x4d, 0x67, 0x00, 0x7f, 0x72, 0x00, 0x48, 0x00, 0x00, 0x00,
  0x00, 0x37, 0x00, 0x3e, 0x00, 0x00, 0x55, 0x40, 0x00, 0x00, 0x51, 0x50,
  0x43, 0x00, 0x37, 0x00, 0x30, 0x41, 0x00, 0x00, 0x00, 0x00, 0x00, 0x34,
  0xab, 0x00, 0x00, 0x00, 0x00, 0x48, 0x00, 0x00, 0x00, 0x00, 0x00, 0x00,
  0x00, 0xd3, 0x00, 0x4c, 0x00, 0x00, 0x00, 0x00, 0x3b, 0x00, 0xb6, 0x32,
  0x3d, 0x00, 0x00, 0x00, 0x44, 0x00, 0x00, 0x5a, 0x00, 0x00, 0x00, 0x00,
  0x00, 0x00, 0x00, 0xc6, 0x00, 0x4b, 0x00, 0x00, 0x00, 0x2d, 0x42, 0x00,
  0x00, 0x2f, 0x69, 0x00, 0xd2, 0x43, 0x32, 0x00, 0xcc, 0x00, 0xc4, 0x00,
  0x00, 0xb3, 0x00, 0x00, 0x5b, 0xca, 0x00, 0x00, 0xcd, 0xc9, 0x00, 0x52,
  0xb5, 0x00, 0x3b, 0x00, 0x00, 0x00, 0x00, 0x00, 0x00, 0x00, 0x00, 0x00,
  0x56, 0x00, 0x00, 0xc3, 0x2e, 0x00, 0x3d, 0x00, 0x00, 0x00, 0x00, 0xb5,
  0xc7, 0x00, 0x00, 0x50, 0xbc, 0x00, 0x00, 0x00, 0x00, 0x00, 0x00, 0x3b,
  0x00, 0x00, 0x6b, 0x00, 0xcd, 0x00, 0x00, 0x00, 0x00, 0x00, 0xb8, 0x00,
  0x00, 0x00, 0x8c, 0x76, 0x00, 0xcb, 0x7f, 0x34, 0xc2, 0x00, 0x7c, 0x49,
  0x63, 0x00, 0x00, 0x00, 0x00, 0x49, 0x00, 0x00, 0xd1, 0x38, 0x59, 0x00,
  0x00, 0x4c, 0x00, 0x00, 0x3f, 0x00, 0x00, 0x35, 0x00, 0xbf, 0x00, 0x00,
  0x00, 0x00, 0x00, 0xb9, 0x3d, 0x00, 0x00, 0x00, 0x00, 0xce, 0x00, 0xbc,
  0x00, 0x00, 0x00, 0x00, 0x00, 0x00, 0x00, 0x36, 0x48, 0x2f, 0x00, 0x00,
  0x30, 0x00, 0xc6, 0x00, 0x00, 0x45, 0xd2, 0x51, 0x30, 0x00, 0x00, 0x00,
  0x00, 0x00, 0x6e, 0x38, 0x54, 0x00, 0x00, 0x00, 0x00, 0x00, 0xd0, 0x41,
  0xab, 0x32, 0x00, 0x00, 0x30, 0xce, 0x00, 0x00, 0x36, 0x00, 0x00, 0x00,
  0x00, 0x00, 0x00, 0x00, 0x00, 0x00, 0x00, 0x00, 0x3b, 0xab, 0x00, 0xc8,
  0xb0, 0xd2, 0xd1, 0x00, 0x00, 0x00, 0x00, 0xae, 0x00, 0x00, 0x00, 0x00,
  0x00, 0x00, 0x00, 0x00, 0x00, 0x00, 0x40, 0x00, 0x00, 0x50, 0x00, 0x60,
  0x4f, 0x42, 0x00, 0x00, 0xa0, 0x00, 0x72, 0x00, 0x54, 0x40, 0x00, 0x00,
  0x00, 0x00, 0x00, 0x62, 0x00, 0x00, 0x39, 0x7d, 0xba, 0x46, 0x00, 0x00,
  0xd1, 0x00, 0x00, 0x00, 0x00, 0x3d, 0x00, 0x00, 0x00, 0x00, 0x00, 0x7b,
  0x00, 0x2d, 0x4d, 0x7f, 0x00, 0x00, 0x00, 0x00, 0x36, 0x00, 0x45, 0x00,
  0x00, 0xc9, 0x9c, 0x38, 0x00, 0x00, 0x00, 0x40, 0xad, 0xb6, 0x00, 0x00,
  0x00, 0xb7, 0x00, 0x48, 0x00, 0x00, 0x00, 0x00, 0x00, 0x00, 0x00, 0x40,
  0xc0, 0xa3, 0x00, 0xa9, 0x00, 0x00, 0x00, 0x36, 0x00, 0x31, 0x45, 0x00,
  0xae, 0x4e, 0x00, 0x00, 0xd0, 0x00, 0x00, 0xc8, 0x00, 0xb1, 0x00, 0x00,
  0x00, 0xc1, 0xc7, 0x00, 0x00, 0xc9, 0x00, 0x00, 0x00, 0x00, 0x00, 0x00,
  0x00, 0x00, 0x00, 0x00, 0xbc, 0x00, 0xb5, 0x00, 0x00, 0x33, 0x00, 0xba,
  0x00, 0x00, 0x00, 0x33, 0x00, 0x38, 0x00, 0x00, 0x3a, 0x00, 0x00, 0x00,
  0x00, 0x3b, 0x00, 0x00, 0x00, 0x00, 0x00, 0xc0, 0x00, 0x00, 0x00, 0x00,
  0x00, 0x31, 0x00, 0x00, 0x3e, 0x00, 0x00, 0xd0, 0xcd, 0x00, 0x36, 0x00,
  0x00, 0x00, 0x00, 0xb9, 0xd4, 0x00, 0x00, 0x00, 0x00, 0xbf, 0x00, 0xa7,
  0xc6, 0x00, 0x00, 0x00, 0x00, 0xa4, 0x00, 0x00, 0x00, 0xb9, 0x8f, 0x00,
  0x00, 0x35, 0xab, 0x00, 0x00, 0x00, 0xd3, 0xa9, 0x40, 0x00, 0x00, 0x00,
  0x00, 0x00, 0x32, 0x2e, 0x34, 0x00, 0x00, 0x2a, 0x00, 0x00, 0x50, 0xc4,
  0x00, 0x49, 0xc3, 0x38, 0x32, 0x00, 0x52, 0x00, 0x00, 0x00, 0x70, 0x00,
  0x7f, 0x33, 0x00, 0x5f, 0xd5, 0x00, 0xb7, 0x00, 0xb3, 0x00, 0x00, 0x00,
  0x00, 0x00, 0x00, 0x00, 0x00, 0x43, 0x00, 0x3d, 0x00, 0x00, 0x00, 0x00,
  0x00, 0x00, 0x00, 0x55, 0xcb, 0x35, 0xa4, 0x00, 0x00, 0xb0, 0x00, 0x31,
  0x00, 0xc2, 0x00, 0x29, 0x00, 0x00, 0xd7, 0x35, 0xb4, 0x68, 0x00, 0x51,
  0x00, 0x00, 0xb5, 0x00, 0x2f, 0xc8, 0x00, 0x00, 0x00, 0x42, 0x61, 0x2c,
  0x2a, 0x00, 0x00, 0x00, 0x3c, 0xb6, 0x00, 0x00, 0x00, 0x4d, 0x52, 0xbc,
  0x42, 0x00, 0x00, 0x00, 0xbc, 0x00, 0x00, 0x00, 0x00, 0x00, 0x5a, 0xba,
  0x33, 0x00, 0x56, 0xb0, 0x00, 0x53, 0x9e, 0x53, 0x00, 0xa8, 0xa3, 0x00,
  0x00, 0x00, 0x6f, 0xbb, 0x3a, 0x00, 0x54, 0x00, 0x00, 0x00, 0x81, 0x00,
  0x00, 0x92, 0x97, 0x00, 0x00, 0x00, 0x00, 0x97, 0x00, 0x00, 0x00, 0x5c,
  0x00, 0x00, 0x53, 0x4a, 0x00, 0xc3, 0x58, 0x56, 0x00, 0x00, 0x00, 0x35,
  0x4d, 0x00, 0x00, 0x94, 0x43, 0x00, 0x00, 0x00, 0xc9, 0xb5, 0x00, 0xcc,
  0x00, 0x00, 0x00, 0x9f, 0x00, 0x50, 0x00, 0x53, 0x00, 0x00, 0x00, 0x00,
  0x87, 0x00, 0x00, 0x6f, 0x00, 0x32, 0x44, 0x00, 0x37, 0x00, 0xc0, 0x44,
  0x00, 0x53, 0x00, 0x00, 0xa6, 0x50, 0x00, 0x63, 0x00, 0x00, 0x00, 0x00,
  0x00, 0x00, 0x33, 0x00, 0x00, 0x47, 0x00, 0xc8, 0x00, 0x00, 0x41, 0x00,
  0xc1, 0x00, 0x00, 0x00, 0x49, 0x00, 0xb1, 0x00, 0x00, 0x00, 0x00, 0x75,
  0x00, 0x79, 0x00, 0x00, 0x00, 0x34, 0x00, 0xc0, 0x00, 0xb3, 0xbe, 0xc9,
  0xbf, 0x00, 0x44, 0x00, 0x00, 0x00, 0xd4, 0xbe, 0x00, 0x00, 0x00, 0x00,
  0x00, 0x00, 0x00, 0x00, 0x00, 0x00, 0xc4, 0x35, 0x2d, 0x00, 0x2f, 0xae,
  0xcd, 0x00, 0xcf, 0x3e, 0x29, 0x00, 0x47, 0x00, 0x55, 0x00, 0xd1, 0x41,
  0x00, 0x00, 0xdd, 0x00, 0x91, 0x39, 0x63, 0xaf, 0xc6, 0xb0, 0x00, 0x00,
  0x00, 0x00, 0x00, 0xac, 0x00, 0x00, 0x00, 0x00, 0x43, 0x00, 0x00, 0x00,
  0xbf, 0x00, 0x00, 0x00, 0x00, 0x00, 0x35, 0x49, 0x00, 0x00, 0x00, 0xd2,
  0x00, 0x52, 0xc5, 0x5d, 0x00, 0x00, 0x00, 0x95, 0x00, 0x00, 0xd0, 0x00,
  0x9c, 0x97, 0x00, 0x2d, 0x9f, 0x54, 0x68, 0x00, 0xd0, 0x00, 0x00, 0x29,
  0x00, 0x00, 0x00, 0x00, 0x00, 0x00, 0x25, 0xcf, 0x39, 0x30, 0x00, 0x30,
  0xc3, 0x00, 0xc9, 0x00, 0x00, 0x00, 0x57, 0x00, 0x00, 0x00, 0x00, 0x00,
  0x3a, 0x00, 0x00, 0x3d, 0x44, 0x44, 0x2e, 0x53, 0x60, 0x4b, 0x7b, 0x66,
  0x00, 0x34, 0x00, 0x00, 0x00, 0x7f, 0x00, 0x2e, 0x00, 0xb4, 0x00, 0x00,
  0xb4, 0x00, 0x00, 0x00, 0x00, 0x00, 0x3c, 0x00, 0x00, 0xa4, 0xb7, 0x00,
  0x00, 0x00, 0xcd, 0x00, 0xa7, 0xcb, 0x31, 0x2b, 0x00, 0x00, 0x00, 0x00,
  0x00, 0x00, 0xbf, 0x4f, 0x00, 0x41, 0xcb, 0x29, 0x00, 0xd0, 0x4b, 0x00,
  0x00, 0x31, 0x4c, 0x2e, 0x00, 0x7f, 0x00, 0x00, 0xbd, 0x00, 0x00, 0x00,
  0xcc, 0x00, 0x00, 0x2e, 0x00, 0x4b, 0x4a, 0x00, 0x43, 0x00, 0xd2, 0x00,
  0x00, 0x45, 0x00, 0x00, 0xdb, 0x00, 0x30, 0x00, 0x00, 0x00, 0x00, 0x00,
  0x00, 0x00, 0x00, 0x3a, 0x39, 0x3b, 0x2a, 0x2c, 0x2b, 0x00, 0x60, 0x4a,
  0x00, 0x00, 0x00, 0x4a, 0x00, 0x00, 0x00, 0x00, 0x00, 0xd6, 0x40, 0xcb,
  0x00, 0xd7, 0xb4, 0x00, 0x00, 0x00, 0x00, 0x43, 0x00, 0x00, 0x00, 0x00,
  0x3e, 0x00, 0x3d, 0x00, 0x33, 0x2b, 0x00, 0xdb, 0x00, 0x2a, 0xd5, 0x00,
  0x00, 0x00, 0x00, 0x00, 0x2c, 0x00, 0x00, 0x00, 0x00, 0x00, 0x3e, 0xcd,
  0x6d, 0xd3, 0x00, 0x00, 0x00, 0x00, 0x00, 0x3b, 0x00, 0x42, 0x00, 0x00,
  0x00, 0x00, 0x00, 0x00, 0x00, 0x00, 0x00, 0x40, 0xd8, 0x00, 0x30, 0x00,
  0x00, 0x00, 0x25, 0x00, 0x3e, 0x00, 0xcf, 0x00, 0x00, 0x00, 0xd9, 0x2c,
  0xaa, 0xc5, 0x4c, 0xb3, 0x00, 0x00, 0x00, 0x00, 0x3b, 0x32, 0x00, 0x00,
  0xa1, 0x28, 0xc0, 0x00, 0x00, 0xd6, 0x00, 0x9f, 0x00, 0x35, 0x00, 0x00,
  0x2a, 0x00, 0x2a, 0x00, 0x00, 0x00, 0x00, 0x29, 0x00, 0x00, 0x00, 0x00,
  0x00, 0x3d, 0x00, 0xd3, 0x00, 0x24, 0xd4, 0x2f, 0xbd, 0xbd, 0x00, 0x00,
  0xd2, 0x00, 0x00, 0x00, 0x00, 0x00, 0x00, 0xde, 0x2f, 0x00, 0x00, 0x00,
  0x00, 0xb6, 0xcc, 0x00, 0xb6, 0x00, 0x30, 0x81, 0x4b, 0x00, 0x00, 0xcf,
  0x4d, 0x00, 0x00, 0x36, 0x00, 0x00, 0x00, 0x00, 0xcd, 0x00, 0x3e, 0xd4,
  0x2a, 0x00, 0x42, 0xd2, 0x00, 0x00, 0x00, 0x00, 0x00, 0xc9, 0x2e, 0x00,
  0xb9, 0x00, 0x00, 0xb2, 0x00, 0xc8, 0x00, 0x27, 0x00, 0x00, 0xbe, 0x00,
  0x00, 0x00, 0xd0, 0xd7, 0xbe, 0x00, 0x00, 0x00, 0x00, 0x00, 0x00, 0x75,
  0x00, 0x9f, 0xa5, 0x00, 0x00, 0x00, 0x00, 0x00, 0x00, 0x00, 0x00, 0x00,
  0x70, 0x98, 0x75, 0x00, 0x00, 0x00, 0x00, 0x00, 0x00, 0x00, 0x9e, 0x00,
  0x00, 0x00, 0x71, 0x00, 0x00, 0x6f, 0x00, 0x00, 0x00, 0x00, 0x00, 0x8f,
  0x9b, 0x00, 0x00, 0x00, 0x79, 0x94, 0x00, 0x98, 0x00, 0x6c, 0x00, 0x00,
  0x68, 0x00, 0x00, 0x00, 0x00, 0x00, 0x00, 0x00, 0x00, 0x00, 0x00, 0x00,
  0x7a, 0x00, 0x00, 0x00, 0x00, 0x00, 0x00, 0x00, 0x00, 0x00, 0x00, 0x93,
  0x89, 0x00, 0x00, 0x00, 0x00, 0x00, 0x00, 0x00, 0x00, 0x00, 0x9d, 0x00,
  0x00, 0x00, 0x99, 0x00, 0xa8, 0x00, 0x97, 0x00, 0xa5, 0x00, 0x74, 0x00,
  0x9c, 0x93, 0x00, 0x00, 0x00, 0x00, 0x00, 0x00, 0x5a, 0x7f, 0x00, 0x00,
  0x00, 0x00, 0x7b, 0x00, 0x00, 0x00, 0x00, 0x00, 0xa2, 0x00, 0x00, 0x00,
  0x00, 0x00, 0x00, 0x00, 0x00, 0xa0, 0x00, 0x00, 0x00, 0x00, 0x00, 0x68,
  0xa8, 0x00, 0x00, 0x00, 0x00, 0x00, 0x00, 0x00, 0xd4, 0x00, 0xcc, 0x00,
  0x00, 0x00, 0xc9, 0x00, 0x00, 0x00, 0x00, 0x27, 0x00, 0x00, 0x00, 0xc3,
  0x00, 0x00, 0xca, 0x28, 0x39, 0x00, 0x00, 0x00, 0x00, 0x47, 0x00, 0x27,
  0x2c, 0xcb, 0x00, 0x38, 0x00, 0x27, 0x00, 0x5c, 0x36, 0x48, 0x44, 0x27,
  0x00, 0x31, 0x00, 0x57, 0x00, 0x2b, 0x00, 0x00, 0x00, 0x00, 0x46, 0xc3,
  0x26, 0x00, 0xb1, 0x26, 0xd8, 0x00, 0xcf, 0x2a, 0xd2, 0x00, 0x00, 0xbf,
  0x3d, 0x00, 0x00, 0x00, 0x00, 0x00, 0x81, 0xc8, 0x00, 0x00, 0x00, 0x00,
  0x00, 0x00, 0x28, 0xd4, 0x29, 0x00, 0x00, 0xd2, 0x3d, 0x00, 0x00, 0xa3,
  0x33, 0x00, 0x8b, 0x00, 0xa4, 0x00, 0x32, 0xbd, 0x00, 0x2c, 0x23, 0xd9,
  0xd6, 0x00, 0x00, 0x39, 0x2e, 0xc0, 0xaf, 0x00, 0xd1, 0x00, 0x2e, 0x00,
  0x3a, 0xd8, 0x00, 0xbe, 0xcf, 0x00, 0x00, 0x00, 0xc5, 0xd2, 0x00, 0xd9,
  0x00, 0x00, 0x00, 0x00, 0x00, 0x00, 0x34, 0x00, 0x00, 0x00, 0x95, 0x00,
  0x00, 0x00, 0xb0, 0x00, 0x00, 0xc3, 0x00, 0x00, 0x42, 0x00, 0xc0, 0x3c,
  0xd8, 0x00, 0x3e, 0x00, 0x00, 0x00, 0x7f, 0x50, 0x3d, 0x00, 0xb1, 0x00,
  0x00, 0x2d, 0xad, 0x7d, 0x00, 0x32, 0x38, 0x37, 0x00, 0x34, 0x2e, 0x00,
  0x00, 0x00, 0x00, 0x33, 0x00, 0x47, 0x82, 0x6b, 0x00, 0x00, 0x3c, 0x42,
  0x00, 0x65, 0x4f, 0x41, 0x61, 0x2d, 0xdb, 0x00, 0x32, 0x00, 0x00, 0x00,
  0x00, 0x00, 0x00, 0x00, 0x00, 0x00, 0x00, 0x00, 0x00, 0xcc, 0x00, 0x00,
  0x00, 0xcf, 0x00, 0x38, 0x00, 0x00, 0xc2, 0xd0, 0x00, 0x49, 0x00, 0x00,
  0x00, 0xa7, 0x00, 0x00, 0x00, 0xcd, 0xe0, 0x2a, 0x26, 0x00, 0x37, 0x00,
  0x4b, 0x00, 0x00, 0x29, 0x00, 0x00, 0xdc, 0x32, 0x00, 0x00, 0x00, 0xd9,
  0x00, 0x00, 0x00, 0x43, 0x00, 0x29, 0x00, 0x00, 0x00, 0x00, 0x00, 0xc8,
  0xce, 0x00, 0x41, 0xc6, 0x00, 0x00, 0xb9, 0xd6, 0x5f, 0x00, 0xc1, 0x00,
  0x00, 0x00, 0x00, 0x00, 0x00, 0x00, 0x00, 0x00, 0x35, 0x00, 0x00, 0xd0,
  0x3b, 0x00, 0xd5, 0xa2, 0xdb, 0x00, 0x00, 0x37, 0x00, 0x00, 0xb6, 0x71,
  0x99, 0x00, 0x3f, 0x00, 0x00, 0x00, 0x00, 0xc6, 0x00, 0x00, 0x00, 0xae,
  0xaf, 0x00, 0x00, 0x7a, 0x00, 0xaa, 0x6b, 0x00, 0x3c, 0x00, 0x39, 0x00,
  0x00, 0x41, 0x9e, 0x40, 0x4f, 0x00, 0x00, 0x66, 0x00, 0x00, 0x5f, 0x00,
  0xab, 0x5f, 0x00, 0x00, 0x00, 0x00, 0x00, 0x5b, 0x00, 0x00, 0xa7, 0x00,
  0xc3, 0x00, 0x00, 0x00, 0x00, 0x00, 0xc0, 0x57, 0x00, 0xad, 0x00, 0x00,
  0x3e, 0x45, 0xa9, 0x40, 0xb6, 0x00, 0x4e, 0x4a, 0x4b, 0x00, 0x00, 0x00,
  0x00, 0xbf, 0x00, 0x47, 0x5e, 0x00, 0x00, 0x7e, 0x00, 0x00, 0x72, 0x00,
  0x00, 0x7f, 0x77, 0x00, 0x4f, 0x00, 0x00, 0x00, 0x00, 0xb7, 0x00, 0x00,
  0x00, 0x00, 0x00, 0x9c, 0x00, 0xbf, 0xbf, 0x00, 0x00, 0x00, 0xbb, 0x41,
  0xaa, 0x00, 0x00, 0x55, 0x00, 0x00, 0x00, 0x99, 0x6d, 0x00, 0x00, 0xa9,
  0xb2, 0xc0, 0x00, 0x59, 0x00, 0x00, 0x00, 0x00, 0x00, 0x43, 0x00, 0x52,
  0x00, 0x00, 0x00, 0x00, 0x41, 0x5c, 0x4e, 0x00, 0x00, 0x00, 0xd2, 0x7f,
  0x00, 0x00, 0x2b, 0x00, 0x00, 0x2f, 0x54, 0x00, 0x4d, 0xdc, 0xc8, 0x00,
  0x00, 0x00, 0x9d, 0x40, 0x26, 0x00, 0x55, 0x00, 0x34, 0x4b, 0x31, 0x00,
  0x6e, 0x00, 0xd1, 0x41, 0x00, 0x00, 0xd0, 0x6d, 0x00, 0x00, 0x3d, 0x00,
  0x00, 0x77, 0x6d, 0x6c, 0x50, 0x00, 0xc8, 0x00, 0x00, 0xcb, 0x00, 0x24,
  0x00, 0x00, 0x00, 0xca, 0x26, 0x28, 0x00, 0x3a, 0x00, 0x00, 0x00, 0x33,
  0x00, 0x00, 0x00, 0x00, 0x00, 0x00, 0x99, 0xd5, 0x40, 0x47, 0x00, 0x2b,
  0x00, 0xb0, 0x00, 0x00, 0x00, 0x00, 0x00, 0x00, 0x3e, 0x00, 0x35, 0x00,
  0x30, 0x2d, 0x3c, 0x00, 0x2c, 0x00, 0xd6, 0x4a, 0x00, 0x00, 0x28, 0x00,
  0x2f, 0x00, 0x00, 0x00, 0x2b, 0x00, 0xc9, 0x00, 0x2f, 0x40, 0x00, 0xbe,
  0x00, 0x00, 0x40, 0x00, 0x00, 0x00, 0xb6, 0x00, 0x00, 0x00, 0x00, 0x00,
  0x00, 0x47, 0x00, 0x00, 0x00, 0x00, 0x35, 0xd4, 0x38, 0x00, 0x00, 0x00,
  0x2f, 0x00, 0x00, 0xbe, 0xb2, 0x00, 0x00, 0xda, 0xa6, 0xed, 0xff, 0xff,
  0x04, 0x00, 0x00, 0x00, 0x80, 0x00, 0x00, 0x00, 0x0e, 0x0c, 0x00, 0x00,
  0x11, 0x10, 0x00, 0x00, 0xb2, 0x09, 0x00, 0x00, 0x98, 0xff, 0xff, 0xff,
  0x16, 0x02, 0x00, 0x00, 0x73, 0x00, 0x00, 0x00, 0x87, 0x02, 0x00, 0x00,
  0x60, 0xfe, 0xff, 0xff, 0x0b, 0xea, 0xff, 0xff, 0x53, 0xff, 0xff, 0xff,
  0x36, 0x05, 0x00, 0x00, 0x0d, 0x02, 0x00, 0x00, 0x25, 0x0b, 0x00, 0x00,
  0x73, 0x03, 0x00, 0x00, 0xcb, 0x09, 0x00, 0x00, 0xd0, 0xf6, 0xff, 0xff,
  0x63, 0x05, 0x00, 0x00, 0x81, 0xf5, 0xff, 0xff, 0x70, 0xef, 0xff, 0xff,
  0x2e, 0xef, 0xff, 0xff, 0x35, 0x00, 0x00, 0x00, 0x04, 0xfa, 0xff, 0xff,
  0x57, 0x0a, 0x00, 0x00, 0xab, 0xfb, 0xff, 0xff, 0x2d, 0x09, 0x00, 0x00,
  0xb3, 0x10, 0x00, 0x00, 0x4f, 0xfc, 0xff, 0xff, 0xcc, 0x09, 0x00, 0x00,
  0x8a, 0xf6, 0xff, 0xff, 0xb9, 0x05, 0x00, 0x00, 0x2b, 0x0a, 0x00, 0x00,
  0xf8, 0x00, 0x00, 0x00, 0x32, 0xee, 0xff, 0xff, 0x04, 0x00, 0x00, 0x00,
  0x00, 0x10, 0x00, 0x00, 0x00, 0x00, 0x00, 0x9d, 0x4e, 0x00, 0x00, 0xae,
  0xa5, 0x00, 0x00, 0x00, 0x00, 0x86, 0x00, 0x00, 0x00, 0x00, 0x97, 0x89,
  0x00, 0xae, 0x00, 0x00, 0x8f, 0x8f, 0x00, 0x00, 0x69, 0xa8, 0x00, 0x67,
  0x54, 0x00, 0x00, 0x00, 0x00, 0x00, 0xac, 0x00, 0x00, 0x81, 0x00, 0x58,
  0x00, 0x00, 0x00, 0x00, 0x00, 0x00, 0x98, 0x00, 0x00, 0x00, 0x00, 0x00,
  0x00, 0x00, 0x8c, 0x5b, 0x00, 0x00, 0x00, 0x9a, 0x00, 0x00, 0x00, 0x00,
  0x00, 0x00, 0x00, 0x00, 0x51, 0x57, 0x00, 0x00, 0x00, 0x00, 0x00, 0x00,
  0x00, 0x00, 0x00, 0x93, 0x00, 0x00, 0x5c, 0x62, 0x00, 0x52, 0x00, 0x00,
  0x00, 0x00, 0x00, 0xa5, 0x00, 0x00, 0x00, 0xa3, 0x00, 0x00, 0x00, 0x59,
  0x00, 0x86, 0x60, 0xae, 0x00, 0x55, 0x00, 0x00, 0x00, 0x79, 0x75, 0x00,
  0x00, 0x00, 0x00, 0x4f, 0x00, 0x00, 0x5e, 0xb0, 0x00, 0x00, 0x00, 0x00,
  0x00, 0x00, 0xd2, 0x00, 0x72, 0xba, 0x00, 0x00, 0x00, 0x00, 0xb0, 0x33,
  0x00, 0xb9, 0x00, 0x00, 0xb9, 0x00, 0x00, 0x52, 0x00, 0x00, 0x41, 0x00,
  0x00, 0x00, 0x4a, 0x00, 0xd2, 0xc7, 0x00, 0x00, 0xb7, 0xbb, 0xc5, 0x38,
  0xce, 0x81, 0xa7, 0x00, 0xba, 0x00, 0x9a, 0x00, 0x00, 0x00, 0x00, 0xd2,
  0x00, 0x00, 0x00, 0xc7, 0x00, 0x00, 0x00, 0x64, 0x00, 0xc9, 0x00, 0x3a,
  0x00, 0xc0, 0x00, 0xa1, 0x00, 0xcf, 0x3f, 0x00, 0x00, 0x00, 0x00, 0x00,
  0xcc, 0x00, 0x00, 0x56, 0x3a, 0x53, 0x00, 0x00, 0xce, 0x00, 0xc3, 0x00,
  0x00, 0x35, 0x00, 0x00, 0x3b, 0x00, 0x00, 0x3a, 0x00, 0x39, 0x00, 0x00,
  0x61, 0x00, 0x00, 0x00, 0x48, 0x00, 0xc4, 0x44, 0x00, 0x00, 0x00, 0x00,
  0x00, 0x00, 0x00, 0xc8, 0x00, 0x2e, 0x00, 0x00, 0x00, 0x49, 0x00, 0x00,
  0x00, 0x00, 0x39, 0x00, 0x5c, 0x33, 0xc0, 0x00, 0x43, 0x00, 0x5a, 0xac,
  0xb9, 0x59, 0x00, 0x00, 0x00, 0x00, 0x00, 0xae, 0x53, 0x00, 0xb9, 0x00,
  0x4a, 0xc0, 0x00, 0x00, 0x00, 0x00, 0xaa, 0xab, 0x00, 0x5e, 0x00, 0x50,
  0x00, 0x00, 0x00, 0x78, 0x7b, 0x7f, 0x00, 0x00, 0x00, 0x00, 0x6a, 0x00,
  0x00, 0x4e, 0x4a, 0xc4, 0x65, 0x00, 0x00, 0x00, 0x00, 0x00, 0x00, 0x00,
  0x00, 0x5c, 0x00, 0x00, 0x00, 0x00, 0x00, 0x00, 0x00, 0x68, 0x55, 0x5d,
  0x00, 0x54, 0x00, 0x00, 0xb0, 0x00, 0x00, 0x00, 0x00, 0xb2, 0x00, 0x00,
  0xb6, 0x00, 0x00, 0x52, 0x00, 0x00, 0x00, 0x00, 0x00, 0x00, 0x69, 0x00,
  0x00, 0xc7, 0x00, 0x00, 0x00, 0x00, 0x00, 0x00, 0x3a, 0x00, 0xc4, 0xc4,
  0x00, 0x5d, 0x00, 0x00, 0x00, 0xc5, 0x00, 0x00, 0x00, 0x00, 0x44, 0x00,
  0x3c, 0x00, 0x00, 0x00, 0x00, 0xc1, 0x00, 0xbe, 0x00, 0x00, 0x00, 0x42,
  0xc1, 0x00, 0x67, 0xbe, 0x00, 0xbe, 0x00, 0x5b, 0xd0, 0x90, 0xc1, 0x00,
  0x52, 0x00, 0x39, 0x00, 0xbf, 0x33, 0x00, 0xca, 0x00, 0x00, 0x00, 0x00,
  0x00, 0x4d, 0x37, 0x41, 0xc3, 0xcd, 0x4e, 0x00, 0x6e, 0x00, 0xcc, 0x00,
  0xa7, 0xa0, 0x00, 0x00, 0x00, 0x00, 0x00, 0x00, 0x00, 0x00, 0x00, 0x00,
  0x82, 0x00, 0x81, 0xbc, 0x85, 0x00, 0xbf, 0xc3, 0x00, 0x00, 0x00, 0x00,
  0x00, 0xae, 0x3b, 0x00, 0x00, 0x00, 0x00, 0x00, 0x00, 0x34, 0x00, 0x59,
  0x5e, 0x00, 0x00, 0x00, 0xc3, 0x46, 0x00, 0x00, 0xcc, 0x00, 0x00, 0xcf,
  0x00, 0xbc, 0x00, 0x00, 0xd1, 0xd0, 0x00, 0x5c, 0x00, 0x00, 0x00, 0x00,
  0xc7, 0x36, 0x00, 0x00, 0x00, 0x00, 0x00, 0x42, 0x00, 0x00, 0x33, 0x00,
  0x41, 0x00, 0xc3, 0x3b, 0x00, 0x3d, 0x00, 0x30, 0x41, 0x31, 0x00, 0x00,
  0xa8, 0x00, 0x00, 0x00, 0x39, 0x92, 0x00, 0x00, 0xc9, 0x00, 0xad, 0xaa,
  0x00, 0x00, 0x00, 0x00, 0x8e, 0x93, 0x5c, 0x00, 0x00, 0x89, 0x9f, 0x00,
  0x81, 0x00, 0x76, 0x00, 0x6a, 0x00, 0xa5, 0x00, 0x00, 0x00, 0x00, 0x6f,
  0x00, 0x00, 0x8f, 0x00, 0x00, 0x00, 0x00, 0x00, 0x00, 0x59, 0x6d, 0x00,
  0x00, 0x9f, 0x00, 0x79, 0x00, 0x00, 0x00, 0x00, 0x79, 0x00, 0x00, 0x00,
  0x00, 0x00, 0x00, 0x62, 0xac, 0x00, 0x00, 0x98, 0xa1, 0xae, 0x00, 0x72,
  0x00, 0x91, 0xa5, 0x9c, 0x00, 0xaf, 0x63, 0x6e, 0x00, 0x00, 0x5f, 0x69,
  0x00, 0x00, 0xb0, 0x72, 0x00, 0x59, 0x00, 0x00, 0x99, 0xb0, 0x00, 0x00,
  0x00, 0x00, 0x00, 0x00, 0x00, 0xa7, 0xad, 0x00, 0x5e, 0x00, 0x00, 0x00,
  0x95, 0x66, 0x00, 0x00, 0x00, 0x8f, 0x00, 0x86, 0x5b, 0x00, 0x00, 0xad,
  0xa9, 0x5d, 0x00, 0x8d, 0x00, 0x84, 0xa5, 0x71, 0x57, 0x00, 0x64, 0x00,
  0x91, 0x00, 0x00, 0x9e, 0x00, 0x00, 0x00, 0x00, 0x00, 0xb4, 0x4d, 0xd5,
  0xbe, 0x00, 0xca, 0xaf, 0x00, 0x00, 0x36, 0xc4, 0x00, 0x41, 0x00, 0x00,
  0x00, 0x37, 0x00, 0x00, 0xcc, 0x00, 0xc5, 0x00, 0x00, 0x00, 0xcf, 0x00,
  0x00, 0x7f, 0x00, 0x50, 0x38, 0x00, 0x5d, 0x00, 0x00, 0x50, 0x3f, 0xd0,
  0x77, 0x3f, 0x00, 0x00, 0xc2, 0x65, 0x00, 0xc6, 0x00, 0xbf, 0x3d, 0x32,
  0x71, 0x3e, 0x97, 0x00, 0x37, 0x53, 0x39, 0x00, 0x52, 0x00, 0x39, 0x68,
  0xbd, 0xcb, 0x00, 0x00, 0x3e, 0x42, 0x00, 0x00, 0xc8, 0x00, 0x00, 0x3a,
  0x3e, 0x00, 0x00, 0x00, 0x2f, 0x00, 0x32, 0x00, 0xb6, 0xd0, 0x54, 0x3b,
  0x00, 0xb2, 0x00, 0x00, 0xc4, 0x00, 0x00, 0xbf, 0x00, 0x38, 0x00, 0x00,
  0x00, 0x00, 0x00, 0x00, 0x00, 0x00, 0x00, 0x00, 0x76, 0x00, 0xcd, 0x32,
  0x38, 0x00, 0x00, 0xd1, 0xc1, 0xcb, 0x00, 0x00, 0x55, 0x00, 0xc7, 0x00,
  0xc7, 0x00, 0x00, 0xae, 0x00, 0x9c, 0x00, 0x2e, 0x00, 0x00, 0x3f, 0x00,
  0x50, 0x00, 0x00, 0x00, 0xc9, 0x70, 0x00, 0xd2, 0xd3, 0xd0, 0x00, 0x00,
  0x00, 0x00, 0xcc, 0xc9, 0x00, 0x3f, 0x00, 0x00, 0x3b, 0x33, 0xce, 0x00,
  0x00, 0x00, 0x4b, 0x3c, 0x00, 0x6d, 0x4d, 0x00, 0x5a, 0x00, 0x00, 0x00,
  0x81, 0x00, 0x8b, 0x00, 0x00, 0xc8, 0x41, 0x00, 0x67, 0x00, 0x92, 0xd1,
  0x43, 0x66, 0x00, 0xd0, 0x00, 0x00, 0x4e, 0x53, 0xca, 0xd0, 0x00, 0x00,
  0x2e, 0x31, 0x00, 0x00, 0x00, 0x00, 0x33, 0x00, 0x00, 0x00, 0x00, 0x00,
  0x00, 0x00, 0x00, 0x00, 0x00, 0xc0, 0x00, 0x47, 0x42, 0xb5, 0x00, 0x00,
  0xcf, 0x00, 0xb9, 0x38, 0x9c, 0x65, 0xc7, 0x00, 0x58, 0x00, 0x4e, 0x3b,
  0x00, 0xaf, 0x00, 0x37, 0x58, 0xb7, 0x37, 0x00, 0x00, 0x00, 0x00, 0x2d,
  0xd1, 0x00, 0xc1, 0x00, 0x3c, 0x00, 0x00, 0x00, 0x00, 0x00, 0x00, 0xc9,
  0x8f, 0x00, 0x9e, 0x89, 0x81, 0x00, 0x00, 0x77, 0x00, 0x00, 0x72, 0x00,
  0x6a, 0x8c, 0x8b, 0x00, 0x00, 0x00, 0x00, 0x00, 0x00, 0x00, 0x00, 0x00,
  0x6b, 0x00, 0x00, 0x56, 0x00, 0x72, 0x00, 0x00, 0x00, 0x00, 0x00, 0x00,
  0x00, 0x62, 0x9d, 0x00, 0x8d, 0x00, 0x00, 0x8f, 0xa9, 0x72, 0xa6, 0x57,
  0x00, 0x00, 0x00, 0x5b, 0x00, 0x00, 0x5c, 0x00, 0x79, 0x00, 0x72, 0x00,
  0x00, 0x00, 0x00, 0x00, 0x6f, 0x8b, 0x67, 0x00, 0xac, 0x00, 0xa1, 0x00,
  0x00, 0x5e, 0x00, 0x00, 0x53, 0x00, 0x00, 0x00, 0x00, 0x00, 0x76, 0x00,
  0x9f, 0x95, 0x00, 0x5f, 0x00, 0x00, 0x90, 0x00, 0x00, 0x00, 0x62, 0x00,
  0x00, 0x00, 0xa0, 0x00, 0x8f, 0x00, 0x00, 0x00, 0x97, 0x00, 0x00, 0x8a,
  0x5f, 0x00, 0x00, 0x5e, 0x00, 0x00, 0x00, 0x99, 0x71, 0x00, 0x00, 0x93,
  0x94, 0x00, 0x00, 0x8a, 0x00, 0x59, 0x66, 0x00, 0x4f, 0x00, 0x5b, 0x00,
  0xa7, 0x00, 0x00, 0x00, 0x00, 0x2d, 0x5a, 0x00, 0x35, 0x00, 0x00, 0x30,
  0x30, 0x00, 0x00, 0x00, 0x00, 0x39, 0xad, 0x00, 0x97, 0x56, 0xbd, 0x00,
  0x00, 0x52, 0x00, 0x00, 0x33, 0x61, 0x63, 0x00, 0x00, 0x3d, 0x00, 0x00,
  0x00, 0x00, 0x55, 0xb1, 0x00, 0x00, 0x3b, 0x00, 0x00, 0x00, 0x00, 0x00,
  0x7c, 0x00, 0x00, 0xc3, 0x00, 0x72, 0xac, 0x00, 0xca, 0x53, 0x3d, 0x00,
  0xb0, 0x00, 0xb5, 0xae, 0x00, 0x00, 0xce, 0x00, 0x00, 0x9f, 0x40, 0x00,
  0x2f, 0x00, 0x3b, 0x3c, 0x00, 0x00, 0x00, 0x00, 0x00, 0x00, 0x4c, 0x00,
  0x00, 0x00, 0x00, 0xbe, 0x00, 0x00, 0x00, 0x00, 0x00, 0x54, 0x00, 0x00,
  0xb4, 0x00, 0x00, 0x00, 0x00, 0x00, 0x00, 0x00, 0x57, 0x00, 0x31, 0x00,
  0x5a, 0xc1, 0x36, 0x00, 0x00, 0x00, 0xc9, 0x00, 0x00, 0x7f, 0x00, 0x00,
  0x00, 0x00, 0x3c, 0x00, 0x00, 0x00, 0x00, 0xab, 0x3b, 0x51, 0x00, 0x00,
  0x97, 0xb6, 0x00, 0x4f, 0x3f, 0xc1, 0x00, 0x00, 0x00, 0x00, 0x00, 0xc3,
  0x46, 0x00, 0x00, 0x00, 0x00, 0x2d, 0xca, 0x29, 0xbf, 0xc4, 0x34, 0xab,
  0x46, 0x00, 0x2e, 0x00, 0x00, 0x00, 0xc4, 0x00, 0x00, 0x39, 0x52, 0x30,
  0x44, 0x00, 0x00, 0x00, 0x00, 0xbd, 0x00, 0x00, 0x00, 0x00, 0x7f, 0x34,
  0xd1, 0x00, 0x00, 0x00, 0x9f, 0x00, 0x00, 0x00, 0x00, 0x00, 0x00, 0xb6,
  0x00, 0x00, 0x33, 0x00, 0x00, 0x00, 0x00, 0xc7, 0x2e, 0x00, 0x00, 0xca,
  0xc0, 0x3f, 0xcf, 0x00, 0x00, 0x00, 0x00, 0x38, 0xc1, 0x00, 0xb6, 0xc3,
  0x36, 0x00, 0x48, 0x33, 0x00, 0xbf, 0x5b, 0xd3, 0xad, 0xc7, 0x00, 0x00,
  0xca, 0x57, 0x35, 0x00, 0x85, 0x31, 0x00, 0x3d, 0x00, 0x00, 0x45, 0x2c,
  0x00, 0x3e, 0x00, 0xbf, 0x00, 0x33, 0x00, 0x00, 0x00, 0x78, 0x00, 0x00,
  0xb8, 0x61, 0x00, 0x00, 0x3c, 0x4e, 0x38, 0x4b, 0xa4, 0x00, 0x00, 0x35,
  0x00, 0x00, 0x00, 0x31, 0x00, 0x00, 0x00, 0x00, 0xcf, 0x00, 0x00, 0x00,
  0x00, 0x00, 0x00, 0x00, 0x00, 0x93, 0x00, 0xc2, 0x00, 0x00, 0x00, 0x00,
  0x00, 0x00, 0xc1, 0x00, 0xcc, 0x00, 0x00, 0x00, 0x76, 0x00, 0x76, 0x00,
  0x00, 0x00, 0xd5, 0x00, 0x00, 0xbe, 0x7f, 0x00, 0x00, 0xb4, 0x00, 0x00,
  0x00, 0xc0, 0xd0, 0xc6, 0x2c, 0x00, 0x49, 0xb4, 0x00, 0xcb, 0x50, 0x00,
  0x00, 0x00, 0x00, 0x00, 0x00, 0x2b, 0xc5, 0x00, 0x00, 0x2a, 0x00, 0x32,
  0x35, 0x2f, 0x00, 0x00, 0x00, 0x00, 0xb1, 0x00, 0x00, 0x00, 0x35, 0x00,
  0x53, 0x00, 0x66, 0x00, 0x00, 0x00, 0x00, 0x00, 0x00, 0x00, 0x00, 0xb9,
  0xc1, 0x00, 0xc9, 0x32, 0xaf, 0x00, 0x00, 0x00, 0x00, 0x00, 0x31, 0x00,
  0x00, 0xcb, 0x00, 0x00, 0x00, 0x00, 0x2f, 0x4d, 0x6c, 0x00, 0x00, 0x00,
  0x00, 0x00, 0x00, 0x00, 0x59, 0x00, 0x44, 0xcf, 0x00, 0x61, 0x5f, 0x00,
  0x00, 0x00, 0x00, 0xb9, 0x00, 0x00, 0x00, 0x8e, 0xb5, 0x6b, 0x00, 0x00,
  0x00, 0x00, 0x00, 0x00, 0x00, 0x00, 0x7f, 0x00, 0x00, 0x64, 0x66, 0x00,
  0x00, 0x00, 0x00, 0x00, 0x00, 0x00, 0x00, 0x41, 0x00, 0xb3, 0x00, 0x00,
  0x57, 0x4f, 0x00, 0xbf, 0x47, 0x7f, 0xa7, 0x00, 0x00, 0x39, 0x4c, 0x00,
  0xb7, 0x00, 0x00, 0x00, 0x00, 0x00, 0x00, 0x00, 0x00, 0x00, 0x00, 0x00,
  0x47, 0x00, 0x5b, 0x00, 0x00, 0x00, 0x00, 0xbf, 0x00, 0x00, 0x00, 0x00,
  0x00, 0x00, 0x00, 0x00, 0xcb, 0x00, 0x00, 0x00, 0x00, 0x00, 0x00, 0x3b,
  0xcb, 0x00, 0x00, 0x00, 0x00, 0xcd, 0x00, 0x00, 0x00, 0x00, 0x45, 0xc2,
  0x5e, 0x00, 0x00, 0x00, 0x51, 0xa1, 0xb4, 0x00, 0x00, 0x68, 0x00, 0x00,
  0x00, 0xba, 0x63, 0x00, 0x00, 0x00, 0x00, 0x00, 0x00, 0x00, 0x36, 0x00,
  0x00, 0x00, 0x00, 0x3a, 0x00, 0xce, 0x00, 0x00, 0xc2, 0x00, 0x00, 0x40,
  0x00, 0x00, 0xce, 0x00, 0x00, 0x00, 0x4a, 0x00, 0x00, 0xbd, 0xb3, 0xb9,
  0xc2, 0xa8, 0x00, 0x3d, 0x00, 0xa7, 0x9e, 0x36, 0x00, 0x32, 0xcd, 0x00,
  0x00, 0x00, 0x00, 0x00, 0xbb, 0x3f, 0x00, 0x00, 0xad, 0xab, 0x33, 0x00,
  0xb2, 0xae, 0x3d, 0xcd, 0x3e, 0xc5, 0x81, 0x00, 0x00, 0x00, 0x44, 0x00,
  0x56, 0x00, 0x00, 0x00, 0x00, 0x44, 0x31, 0x00, 0x00, 0x4d, 0x00, 0x00,
  0xc3, 0x00, 0x00, 0x4f, 0x00, 0x00, 0x00, 0x00, 0x2e, 0x31, 0x55, 0x00,
  0x00, 0x00, 0x00, 0x00, 0x00, 0xc0, 0x00, 0x58, 0x49, 0x00, 0x00, 0x00,
  0x00, 0x47, 0x00, 0x00, 0x00, 0x42, 0x00, 0x00, 0xbe, 0x00, 0x2c, 0x00,
  0xcf, 0x00, 0x00, 0x3f, 0x00, 0xb0, 0x41, 0x32, 0x00, 0xc0, 0xc2, 0x39,
  0x00, 0x39, 0x00, 0x00, 0x00, 0x00, 0xd6, 0x00, 0x00, 0x00, 0xad, 0x4e,
  0x00, 0xb6, 0xc8, 0x2e, 0x29, 0x00, 0x00, 0x3e, 0x00, 0xd3, 0x00, 0x49,
  0x46, 0x00, 0x47, 0x00, 0x00, 0xca, 0x00, 0xcd, 0x00, 0xbf, 0x00, 0x00,
  0x00, 0x9f, 0xae, 0x00, 0xa1, 0x00, 0xbe, 0x32, 0x00, 0xd3, 0x00, 0x00,
  0x00, 0x00, 0x28, 0x00, 0x00, 0x00, 0x00, 0x2c, 0x00, 0x81, 0x00, 0x29,
  0x00, 0xb6, 0x8d, 0xbf, 0x00, 0x00, 0x42, 0xcf, 0x00, 0x00, 0x00, 0x00,
  0x00, 0x00, 0x00, 0x41, 0x2c, 0x45, 0x00, 0xd5, 0xc2, 0x00, 0x00, 0x00,
  0x34, 0x00, 0xc8, 0x32, 0x00, 0x00, 0x00, 0x00, 0x00, 0x41, 0x00, 0x00,
  0x00, 0x00, 0x00, 0x00, 0x00, 0x2b, 0x00, 0x00, 0x00, 0x52, 0x28, 0x00,
  0xac, 0x00, 0x00, 0x35, 0x00, 0x00, 0x00, 0xd0, 0x3f, 0x00, 0x00, 0x00,
  0x00, 0x00, 0x00, 0x38, 0x00, 0x53, 0xd2, 0x00, 0x2f, 0xa3, 0x3b, 0x00,
  0xb0, 0x00, 0x37, 0xc5, 0x37, 0x00, 0x00, 0xcd, 0xce, 0x00, 0x00, 0x00,
  0x00, 0x00, 0xc3, 0x00, 0x46, 0x30, 0x00, 0x00, 0x00, 0x00, 0x00, 0x00,
  0x00, 0x00, 0x00, 0x61, 0x3d, 0x00, 0x00, 0x00, 0x33, 0x63, 0x78, 0x00,
  0x7f, 0x00, 0x00, 0x00, 0x00, 0x37, 0x98, 0x00, 0x00, 0x00, 0x00, 0x51,
  0x7d, 0x31, 0x00, 0xb2, 0x45, 0x00, 0x37, 0xca, 0x00, 0x00, 0x00, 0x6b,
  0x00, 0x00, 0x00, 0x00, 0x00, 0x00, 0x00, 0x00, 0xbb, 0x3c, 0x2c, 0x00,
  0x00, 0xc9, 0x00, 0x00, 0x4d, 0x00, 0x00, 0x00, 0x00, 0x00, 0x3b, 0x00,
  0x00, 0x28, 0x00, 0x00, 0xcb, 0x00, 0x29, 0x00, 0x94, 0x00, 0x00, 0x34,
  0x00, 0x00, 0x00, 0x00, 0x00, 0x00, 0x38, 0x3c, 0x00, 0xd0, 0x00, 0x00,
  0x53, 0xc9, 0x00, 0xc6, 0x00, 0x00, 0xc0, 0x00, 0x5f, 0x40, 0x00, 0xbe,
  0xc7, 0xce, 0x00, 0xcf, 0x91, 0x00, 0x00, 0x00, 0x00, 0x00, 0x00, 0x00,
  0x00, 0x93, 0x00, 0xa4, 0x5a, 0xb0, 0x00, 0x00, 0x00, 0x00, 0x00, 0x00,
  0x00, 0x00, 0x67, 0x00, 0x00, 0xa6, 0x00, 0x5e, 0x00, 0x00, 0x00, 0x00,
  0x00, 0x00, 0x00, 0xb0, 0x00, 0x00, 0x81, 0x66, 0x00, 0x00, 0x00, 0xa2,
  0x00, 0x00, 0x00, 0x00, 0x7b, 0x00, 0x00, 0x00, 0x00, 0x82, 0x00, 0xae,
  0x00, 0x00, 0x64, 0x00, 0x00, 0x00, 0x00, 0x00, 0x00, 0x55, 0x5b, 0x00,
  0xa4, 0xa8, 0x00, 0x8d, 0x55, 0x00, 0x00, 0x00, 0x00, 0x00, 0x00, 0x73,
  0x00, 0x00, 0x00, 0x00, 0x86, 0x00, 0x00, 0x00, 0x00, 0x00, 0x00, 0x00,
  0x00, 0x00, 0x56, 0x00, 0x6e, 0x9d, 0x95, 0x00, 0x82, 0x00, 0x00, 0x00,
  0x00, 0x6c, 0x00, 0x00, 0x00, 0x00, 0x00, 0x7a, 0x85, 0x00, 0x69, 0x00,
  0x6b, 0x75, 0x8b, 0x00, 0x00, 0x96, 0x00, 0x00, 0x00, 0x00, 0x00, 0x84,
  0x00, 0x00, 0x99, 0x00, 0x9d, 0x00, 0xae, 0xb7, 0xa5, 0x00, 0x00, 0x00,
  0x00, 0x00, 0x00, 0x00, 0x49, 0x93, 0x00, 0x91, 0x00, 0xb4, 0x00, 0x00,
  0x00, 0x5d, 0x00, 0x00, 0xb5, 0x00, 0x00, 0x00, 0x9d, 0x5e, 0x00, 0x57,
  0x00, 0x00, 0x00, 0x4e, 0x9b, 0x00, 0x4a, 0x00, 0xb8, 0x00, 0x00, 0xa8,
  0x00, 0x68, 0x9e, 0x94, 0xa3, 0x00, 0x00, 0x00, 0x5c, 0x00, 0x00, 0x00,
  0x52, 0x00, 0x00, 0x55, 0x00, 0x00, 0x00, 0x00, 0xac, 0x00, 0x50, 0x00,
  0x00, 0x00, 0x8e, 0x00, 0x77, 0x56, 0x4e, 0x66, 0x00, 0x00, 0x65, 0x00,
  0xa7, 0x00, 0x00, 0xa3, 0x00, 0x00, 0x00, 0x00, 0x00, 0xa3, 0x00, 0x00,
  0x4d, 0x00, 0x85, 0x00, 0x00, 0x00, 0x00, 0x00, 0x00, 0x81, 0x00, 0x64,
  0xaf, 0x00, 0x64, 0x00, 0x00, 0x00, 0x00, 0x00, 0x00, 0x00, 0x00, 0x00,
  0xa6, 0xad, 0x00, 0x00, 0x00, 0x9d, 0x8f, 0x00, 0xab, 0x00, 0xba, 0x5a,
  0x00, 0x00, 0x00, 0x00, 0x00, 0x00, 0xb0, 0x00, 0xad, 0x00, 0x00, 0x00,
  0x00, 0x00, 0x34, 0x00, 0xab, 0x00, 0x00, 0x56, 0xce, 0xa6, 0x00, 0xc0,
  0x53, 0x00, 0xbd, 0x00, 0x00, 0xcf, 0x00, 0x00, 0xaa, 0x00, 0x00, 0x00,
  0x00, 0x00, 0x96, 0x31, 0x00, 0x36, 0x81, 0xbc, 0x00, 0x00, 0x00, 0xcf,
  0xa7, 0x00, 0x96, 0xc8, 0x00, 0x00, 0x00, 0x00, 0x00, 0x00, 0xc3, 0x00,
  0x38, 0x00, 0x00, 0x64, 0x51, 0x00, 0x00, 0x00, 0x00, 0x3e, 0xbd, 0x31,
  0xb4, 0x00, 0x00, 0x00, 0x00, 0x00, 0x00, 0x37, 0xd4, 0x4e, 0x00, 0x37,
  0x00, 0x00, 0x4f, 0x00, 0x48, 0x00, 0x00, 0xb5, 0xce, 0x00, 0xac, 0x43,
  0x00, 0xc2, 0xc2, 0x00, 0x00, 0x00, 0x00, 0x00, 0x00, 0xc8, 0x3c, 0x00,
  0x00, 0x00, 0x00, 0x35, 0xbe, 0x39, 0x00, 0x00, 0x00, 0x00, 0x00, 0x00,
  0x32, 0x00, 0x00, 0x96, 0x00, 0x00, 0xba, 0x00, 0x5b, 0xbe, 0x00, 0x00,
  0x00, 0x00, 0x00, 0x5e, 0x00, 0x00, 0x00, 0x36, 0x00, 0xd1, 0x00, 0x2d,
  0x00, 0x32, 0x00, 0x38, 0x3a, 0x00, 0x00, 0x00, 0x00, 0x9b, 0xae, 0x00,
  0xa2, 0xcc, 0x00, 0x00, 0x00, 0x81, 0x00, 0x00, 0xca, 0x00, 0xb3, 0x2d,
  0x00, 0x00, 0x00, 0x00, 0x00, 0x00, 0x34, 0x00, 0x00, 0x00, 0x00, 0x00,
  0x00, 0x00, 0x00, 0x00, 0x00, 0x9c, 0x00, 0xbb, 0x00, 0x00, 0x00, 0x46,
  0x00, 0x00, 0x00, 0x00, 0x00, 0x00, 0x00, 0x4a, 0x2f, 0x00, 0x00, 0xc3,
  0xca, 0x00, 0x00, 0x00, 0x32, 0x56, 0xc3, 0x4f, 0x00, 0x30, 0x00, 0x00,
  0x00, 0x00, 0x00, 0xd1, 0x54, 0x00, 0x00, 0x00, 0x00, 0xd4, 0xc6, 0x00,
  0x00, 0x00, 0x00, 0x00, 0x00, 0x00, 0xcc, 0x00, 0xb5, 0x00, 0x00, 0x00,
  0x00, 0x00, 0x00, 0x4c, 0xb0, 0xa5, 0x00, 0x00, 0x00, 0x34, 0xd0, 0x00,
  0x00, 0xad, 0x81, 0x54, 0xb4, 0x00, 0x00, 0x68, 0x00, 0x00, 0xa5, 0x9a,
  0x00, 0x00, 0x00, 0x00, 0x00, 0x8e, 0x00, 0x99, 0xb2, 0x5a, 0x00, 0x5f,
  0x00, 0xac, 0x00, 0x95, 0x00, 0x00, 0x00, 0x00, 0x00, 0x4b, 0x87, 0x82,
  0x00, 0x00, 0x00, 0x58, 0x00, 0x00, 0xb2, 0x00, 0x6e, 0x4d, 0x55, 0x00,
  0x50, 0xb2, 0x00, 0x00, 0x00, 0x00, 0x00, 0x53, 0x9e, 0xa8, 0x00, 0x98,
  0x00, 0x00, 0x00, 0xb5, 0x00, 0x9c, 0x58, 0x00, 0x00, 0x00, 0x00, 0x00,
  0x00, 0x00, 0x00, 0x00, 0x00, 0x00, 0x00, 0xa5, 0x00, 0x00, 0x00, 0x00,
  0x00, 0x00, 0x58, 0x00, 0x00, 0x00, 0xa7, 0x54, 0x00, 0xa5, 0x00, 0x8c,
  0x93, 0x00, 0xae, 0x00, 0x52, 0x00, 0x00, 0x00, 0x5d, 0x00, 0x00, 0x00,
  0xaa, 0x00, 0x00, 0x00, 0x69, 0x00, 0x00, 0x62, 0x00, 0x00, 0x00, 0x00,
  0x00, 0x91, 0x00, 0x00, 0x00, 0x00, 0x00, 0x00, 0x67, 0x46, 0x00, 0x00,
  0xa6, 0x6c, 0x00, 0xc0, 0x00, 0x00, 0x61, 0x99, 0x49, 0x46, 0x00, 0x32,
  0x36, 0x34, 0x00, 0x00, 0x00, 0x00, 0x00, 0x00, 0x00, 0x00, 0x00, 0x00,
  0x00, 0x00, 0x35, 0x3a, 0x71, 0x48, 0x5d, 0x00, 0x51, 0x00, 0x00, 0x00,
  0x00, 0x00, 0x51, 0x00, 0x00, 0x00, 0x7f, 0x35, 0x44, 0xb7, 0x53, 0x00,
  0x00, 0x38, 0x5d, 0xca, 0x63, 0x6e, 0xc4, 0x41, 0x00, 0x00, 0x3e, 0x56,
  0xb2, 0x00, 0x00, 0xc8, 0xc1, 0x44, 0x00, 0x00, 0x33, 0xa2, 0xc1, 0xc1,
  0x00, 0x32, 0x46, 0x00, 0x5c, 0x4d, 0x00, 0xbb, 0xa8, 0x30, 0x4e, 0x00,
  0xc9, 0x00, 0x00, 0x48, 0x00, 0x00, 0x00, 0xc9, 0x00, 0x51, 0xc0, 0x00,
  0x00, 0x55, 0xc5, 0x00, 0x00, 0xc1, 0x00, 0x00, 0x00, 0x00, 0x00, 0xc9,
  0x00, 0x3c, 0x00, 0x39, 0x5b, 0xba, 0x00, 0xa7, 0x00, 0x7e, 0x00, 0xbb,
  0x00, 0x63, 0x00, 0x00, 0xaa, 0x00, 0x00, 0x3e, 0x41, 0x00, 0x2e, 0x00,
  0x00, 0x00, 0xd9, 0x00, 0x00, 0xb0, 0x00, 0x27, 0x00, 0x00, 0xd6, 0x2c,
  0x00, 0x00, 0x00, 0x00, 0x60, 0xc7, 0x4e, 0x00, 0x00, 0x91, 0x00, 0xb5,
  0x00, 0x00, 0x00, 0x2d, 0x38, 0x99, 0xab, 0x00, 0xa8, 0x00, 0x00, 0x2f,
  0x00, 0x00, 0x2d, 0x00, 0x00, 0x00, 0x00, 0x00, 0x92, 0x00, 0x00, 0x00,
  0xb5, 0x81, 0x45, 0xd1, 0x00, 0xd4, 0x8a, 0x00, 0x28, 0x00, 0x39, 0x00,
  0xd0, 0x00, 0x28, 0x00, 0x2c, 0x3b, 0xda, 0x00, 0x00, 0x00, 0xd1, 0x00,
  0x00, 0x00, 0x39, 0x00, 0x00, 0x00, 0x00, 0x42, 0xc8, 0x00, 0x00, 0x28,
  0x4f, 0xd9, 0x40, 0x00, 0x00, 0xb4, 0x00, 0x00, 0x26, 0x00, 0x00, 0x00,
  0xc7, 0x00, 0x00, 0x00, 0x00, 0x5f, 0x00, 0x00, 0x00, 0x00, 0x00, 0x00,
  0x40, 0x4d, 0x00, 0x00, 0x00, 0x00, 0x00, 0x00, 0x36, 0x00, 0x00, 0x00,
  0xd1, 0x00, 0x2a, 0x2c, 0xa6, 0xb8, 0x00, 0xd2, 0x39, 0x28, 0x00, 0xd9,
  0x00, 0x52, 0x00, 0x00, 0x28, 0x29, 0x00, 0x31, 0x00, 0x00, 0x00, 0x00,
  0x00, 0x2b, 0x00, 0x00, 0x49, 0x54, 0xc0, 0x79, 0x00, 0xc6, 0x00, 0x00,
  0x00, 0x59, 0x00, 0x00, 0x00, 0x30, 0x00, 0x00, 0x00, 0x31, 0x81, 0xd2,
  0x28, 0x00, 0x00, 0xda, 0x43, 0x00, 0x85, 0x00, 0x00, 0x46, 0x00, 0x3b,
  0x00, 0x37, 0x00, 0x00, 0xb3, 0x00, 0x00, 0x00, 0xd7, 0x3b, 0xbf, 0x47,
  0xc7, 0x00, 0x00, 0x3a, 0x00, 0x00, 0x00, 0x00, 0x00, 0xcf, 0x00, 0xcb,
  0x00, 0xcb, 0x00, 0x00, 0x38, 0x00, 0x39, 0x00, 0x00, 0x00, 0xb9, 0x00,
  0x00, 0x63, 0x00, 0x00, 0x44, 0x00, 0x35, 0x00, 0x00, 0xad, 0xd5, 0x00,
  0x3c, 0xd9, 0x00, 0x00, 0x5c, 0x00, 0x00, 0x00, 0x00, 0xc4, 0x00, 0x2e,
  0x3b, 0x00, 0xd0, 0x00, 0x00, 0xcf, 0xdc, 0x9d, 0x00, 0x00, 0x5c, 0x00,
  0xb1, 0x00, 0x00, 0x35, 0x2f, 0x36, 0x64, 0xa8, 0x00, 0x45, 0x00, 0x00,
  0xce, 0x00, 0x00, 0x00, 0x00, 0x00, 0x00, 0xbb, 0x00, 0x4d, 0xc0, 0x00,
  0x00, 0x00, 0x00, 0x00, 0x33, 0x00, 0x6b, 0x00, 0x00, 0x00, 0x7a, 0x00,
  0x63, 0x00, 0x4b, 0x00, 0x00, 0x00, 0x00, 0x00, 0x40, 0x00, 0x38, 0x00,
  0x7f, 0x00, 0x3f, 0x00, 0x00, 0x00, 0xbe, 0xcb, 0x00, 0x3e, 0x54, 0x00,
  0x00, 0x00, 0xc5, 0x00, 0x2b, 0x2a, 0x00, 0x00, 0x00, 0x00, 0x2a, 0xc1,
  0x00, 0x00, 0x50, 0x00, 0x52, 0x00, 0xcf, 0xb3, 0x00, 0xc0, 0x3c, 0x00,
  0xc9, 0x00, 0x00, 0x00, 0x00, 0x00, 0x00, 0x2d, 0x9a, 0x47, 0x2c, 0x00,
  0x00, 0x00, 0x00, 0xd6, 0x31, 0x00, 0x00, 0x00, 0x00, 0xc8, 0x00, 0xcd,
  0x00, 0x00, 0xd6, 0x33, 0x00, 0xbd, 0xc1, 0xd0, 0x4b, 0x7b, 0x00, 0x3e,
  0x00, 0x00, 0x00, 0x00, 0x00, 0x00, 0x00, 0x8a, 0x00, 0x00, 0x00, 0x00,
  0x98, 0x8d, 0x00, 0x00, 0x00, 0x97, 0x00, 0xa2, 0xad, 0x55, 0x00, 0x9e,
  0x9d, 0x00, 0x00, 0x00, 0x96, 0x00, 0x00, 0x00, 0x00, 0x6b, 0x00, 0x00,
  0x9f, 0x00, 0x00, 0x57, 0x00, 0x00, 0x00, 0x00, 0x8e, 0x00, 0xad, 0x00,
  0x00, 0x00, 0xa3, 0x00, 0x00, 0x00, 0x00, 0x00, 0x00, 0x00, 0x00, 0x00,
  0x00, 0xa0, 0x94, 0x99, 0x00, 0xa2, 0x00, 0xb1, 0x00, 0x00, 0x00, 0x68,
  0x00, 0xa1, 0x90, 0x00, 0x00, 0x00, 0x00, 0x00, 0x00, 0x00, 0x6b, 0x00,
  0x81, 0x00, 0x00, 0x00, 0x5b, 0x00, 0x00, 0x00, 0x00, 0xaf, 0x00, 0x00,
  0x00, 0x00, 0x00, 0x63, 0x5e, 0x00, 0x00, 0x00, 0x00, 0x56, 0x00, 0x00,
  0x54, 0x00, 0x00, 0x00, 0x00, 0x61, 0x4e, 0x00, 0x84, 0x00, 0x00, 0x00,
  0x00, 0x5d, 0x00, 0x00, 0x00, 0x00, 0x00, 0x94, 0x00, 0x00, 0x9e, 0x00,
  0xb5, 0x00, 0x2e, 0x4c, 0x00, 0xd4, 0x00, 0xc8, 0x00, 0x00, 0x00, 0x2c,
  0x00, 0x00, 0x00, 0x36, 0x00, 0xcc, 0x2d, 0x00, 0xda, 0x00, 0xc4, 0x37,
  0x00, 0x00, 0x41, 0x00, 0x3c, 0x00, 0x00, 0x00, 0x00, 0x81, 0xbf, 0x42,
  0x30, 0x00, 0x00, 0x00, 0x00, 0xcb, 0xc5, 0xd9, 0x00, 0x00, 0xa4, 0x00,
  0x9d, 0x00, 0x2a, 0x31, 0x00, 0xc8, 0xbf, 0xd9, 0x00, 0x00, 0x00, 0x00,
  0x53, 0x00, 0x00, 0x00, 0x00, 0x00, 0x00, 0x35, 0x00, 0x00, 0xd3, 0x00,
  0x00, 0x2a, 0x00, 0x00, 0x00, 0x00, 0x00, 0xcb, 0xd5, 0x00, 0x00, 0x00,
  0xd9, 0x00, 0x44, 0x36, 0x35, 0xd2, 0x4c, 0x00, 0x00, 0x00, 0x00, 0x00,
  0x00, 0x00, 0xd2, 0x00, 0x00, 0xcf, 0x00, 0x00, 0x00, 0x29, 0xa5, 0xd9,
  0x61, 0x00, 0x35, 0xcd, 0x00, 0x00, 0x25, 0x00, 0x00, 0x00, 0x2c, 0xd4,
  0x00, 0xde, 0xc4, 0x00, 0xc3, 0x00, 0xb1, 0x00, 0x00, 0x00, 0x00, 0x00,
  0x49, 0x00, 0x00, 0x00, 0xc0, 0xbe, 0xc3, 0x00, 0x2c, 0xa9, 0x00, 0x39,
  0x00, 0x00, 0x00, 0x00, 0x00, 0xcd, 0x5e, 0x3c, 0x5a, 0x00, 0x36, 0x00,
  0x8c, 0x84, 0x49, 0x8f, 0x00, 0x35, 0x00, 0x00, 0xd1, 0x00, 0x9f, 0x2b,
  0x00, 0x40, 0x00, 0x3f, 0x7f, 0x00, 0x64, 0xc9, 0x2a, 0xcc, 0x2c, 0xc4,
  0x00, 0x00, 0x00, 0x00, 0xb5, 0xb4, 0xcd, 0xbe, 0xa8, 0xb7, 0x00, 0x00,
  0x00, 0x00, 0x4b, 0x00, 0x00, 0x00, 0x53, 0x00, 0x32, 0x2a, 0xb6, 0x00,
  0x00, 0x00, 0x00, 0x3f, 0xb0, 0x38, 0x00, 0x00, 0x00, 0x35, 0x91, 0x00,
  0x00, 0x4c, 0x00, 0xc3, 0x30, 0x00, 0x00, 0x00, 0x6f, 0x00, 0x00, 0x00,
  0x00, 0x00, 0x00, 0x00, 0xcd, 0x34, 0x30, 0x00, 0x00, 0x00, 0x00, 0x36,
  0xa1, 0x00, 0x00, 0x00, 0x28, 0x00, 0x00, 0x00, 0x00, 0x00, 0x00, 0x00,
  0x00, 0x67, 0x38, 0x60, 0x00, 0x56, 0x00, 0xc9, 0x00, 0x00, 0x32, 0x00,
  0xa3, 0xc2, 0x3b, 0xd4, 0x00, 0x00, 0x47, 0x00, 0x40, 0x2f, 0x00, 0x00,
  0x41, 0xbd, 0x00, 0x2f, 0x4c, 0x00, 0xca, 0x00, 0xb5, 0x00, 0x3d, 0x00,
  0x64, 0x7c, 0x00, 0x00, 0x00, 0x00, 0x3d, 0x00, 0x2e, 0x00, 0x00, 0x00,
  0x7f, 0xb6, 0x69, 0x3d, 0x00, 0x00, 0x3e, 0x00, 0x30, 0x00, 0x3a, 0x00,
  0x3b, 0x33, 0x00, 0x00, 0x00, 0x00, 0x00, 0x00, 0x00, 0x00, 0x00, 0x00,
  0xb6, 0x00, 0x00, 0x00, 0x5f, 0xb0, 0x00, 0x2d, 0x00, 0xcd, 0x4a, 0x32,
  0x00, 0x00, 0x00, 0xd2, 0xcc, 0xbd, 0x00, 0xcc, 0x00, 0x00, 0x00, 0x00,
  0x00, 0x00, 0x00, 0x00, 0x00, 0x00, 0x00, 0xc5, 0xae, 0x00, 0x3a, 0x30,
  0x00, 0x36, 0x2c, 0x00, 0x00, 0x56, 0x2c, 0x40, 0x00, 0x00, 0xd6, 0x00,
  0x00, 0x2e, 0x00, 0x00, 0x00, 0x4b, 0x00, 0x00, 0xcd, 0x73, 0x00, 0x00,
  0x00, 0x00, 0xd6, 0x6f, 0x3e, 0x00, 0x2c, 0xbf, 0x00, 0x00, 0x00, 0x00,
  0x99, 0x00, 0x00, 0x00, 0x00, 0x00, 0x00, 0x00, 0x00, 0x00, 0x00, 0x00,
  0x00, 0xd2, 0x00, 0xc2, 0x5f, 0x00, 0x00, 0x00, 0xc9, 0x96, 0x00, 0x00,
  0x00, 0x00, 0x00, 0xb4, 0x00, 0x00, 0x00, 0x00, 0x9e, 0x32, 0x81, 0x00,
  0x95, 0xc0, 0x37, 0x00, 0x00, 0x00, 0x9a, 0x00, 0x00, 0x00, 0x4a, 0x00,
  0x00, 0x00, 0x9d, 0x00, 0xc4, 0x00, 0x43, 0x00, 0x48, 0x00, 0xa5, 0xc8,
  0xa0, 0x00, 0x00, 0x00, 0xbc, 0x3f, 0x00, 0x00, 0x33, 0x00, 0x00, 0x00,
  0x00, 0x00, 0x00, 0x39, 0x00, 0x00, 0x00, 0x00, 0x00, 0x00, 0x00, 0x00,
  0x00, 0x00, 0xba, 0x3b, 0x00, 0x00, 0xb5, 0x00, 0xd0, 0x39, 0x00, 0x44,
  0x5d, 0xb4, 0xcf, 0x00, 0x00, 0x00, 0xc6, 0xcf, 0x00, 0x00, 0x00, 0x00,
  0x00, 0x00, 0x00, 0xc0, 0x00, 0x8f, 0x00, 0x00, 0x00, 0xa0, 0x00, 0x70,
  0x00, 0xc3, 0x00, 0x00, 0x00, 0x00, 0xa4, 0x00, 0xb4, 0xc2, 0xb1, 0xc8,
  0x00, 0x00, 0x00, 0x00, 0xb9, 0x00, 0x00, 0x00, 0x00, 0xc5, 0x00, 0x00,
  0x3a, 0x64, 0xac, 0x4c, 0x93, 0x81, 0x00, 0x36, 0x00, 0x00, 0x00, 0x00,
  0x00, 0x40, 0x93, 0x00, 0xb7, 0x4a, 0x00, 0x00, 0xbc, 0x43, 0x00, 0x00,
  0x00, 0x00, 0xc3, 0x00, 0x3d, 0x00, 0x00, 0xb9, 0x00, 0x00, 0x9e, 0x00,
  0x00, 0x00, 0x44, 0x58, 0x6f, 0x00, 0xa4, 0x44, 0x00, 0x55, 0x00, 0x37,
  0x00, 0x00, 0xbf, 0xbf, 0x00, 0x36, 0x00, 0xc7, 0x4f, 0x00, 0xce, 0x5a,
  0x00, 0x00, 0x00, 0x00, 0xbb, 0x00, 0xa5, 0x00, 0xca, 0x00, 0xc7, 0x66,
  0x37, 0xc1, 0x00, 0x00, 0x00, 0x00, 0x9d, 0x00, 0x3f, 0x00, 0x00, 0x00,
  0x00, 0x00, 0xbc, 0x00, 0xae, 0xbb, 0xc7, 0x49, 0x54, 0xad, 0x00, 0x00,
  0xc8, 0xac, 0x00, 0xa1, 0x58, 0x00, 0x00, 0x00, 0x00, 0x4e, 0xd9, 0x00,
  0x00, 0x00, 0x00, 0xbf, 0xc8, 0x2c, 0x00, 0x00, 0x00, 0xce, 0x00, 0x00,
  0x00, 0xd3, 0x00, 0x00, 0xae, 0x00, 0xca, 0x32, 0x3f, 0x49, 0x00, 0x00,
  0x00, 0x00, 0x41, 0x00, 0x00, 0x3c, 0x57, 0x00, 0x00, 0x00, 0x00, 0x00,
  0x00, 0x00, 0x36, 0x3e, 0x00, 0x00, 0x00, 0x4d, 0x31, 0x00, 0x00, 0x00,
  0x00, 0x00, 0x00, 0x00, 0x00, 0x00, 0x7f, 0x4d, 0xcb, 0x3b, 0x00, 0xc2,
  0x00, 0x00, 0x3e, 0xbe, 0x00, 0xbf, 0x00, 0x00, 0x00, 0xc2, 0x42, 0x35,
  0x4f, 0xc6, 0x37, 0x00, 0xc1, 0xcd, 0x00, 0x00, 0x00, 0x00, 0x00, 0x00,
  0xbd, 0x00, 0x00, 0x3f, 0xd0, 0x00, 0x00, 0x00, 0x3c, 0xd7, 0x00, 0x00,
  0x2e, 0xca, 0x00, 0x00, 0x00, 0x00, 0x34, 0x00, 0x00, 0x00, 0x00, 0xc6,
  0x00, 0xce, 0xc8, 0xcb, 0x3c, 0x67, 0xc3, 0x00, 0x00, 0x00, 0x4a, 0x00,
  0x00, 0x5c, 0x00, 0xad, 0x00, 0x31, 0x00, 0x00, 0xca, 0x00, 0x59, 0x00,
  0x00, 0x00, 0x30, 0x00, 0x00, 0x00, 0x00, 0x00, 0x3b, 0x00, 0x00, 0x40,
  0x00, 0x00, 0x00, 0x00, 0xbf, 0xce, 0x4a, 0x00, 0x5c, 0x00, 0x48, 0xbb,
  0x00, 0x00, 0x00, 0x51, 0x00, 0x00, 0x00, 0xcb, 0x46, 0xc3, 0x32, 0x00,
  0x65, 0x37, 0x00, 0x40, 0x00, 0x00, 0x00, 0x00, 0x00, 0x00, 0xbd, 0xc4,
  0x00, 0x00, 0x00, 0x4d, 0x00, 0x00, 0x00, 0x00, 0x00, 0x34, 0x46, 0xc8,
  0x00, 0xbd, 0x00, 0x00, 0x00, 0x00, 0x00, 0x00, 0x31, 0x3c, 0x3d, 0xb9,
  0x00, 0x00, 0x36, 0x00, 0x00, 0x00, 0x00, 0x00, 0x3f, 0x00, 0x39, 0xcb,
  0x7f, 0x00, 0x49, 0xca, 0xa4, 0x5c, 0x00, 0x00, 0xce, 0x47, 0x5b, 0x00,
  0x00, 0x00, 0x00, 0x00, 0x48, 0x00, 0xb7, 0x00, 0x00, 0x00, 0x00, 0x00,
  0x00, 0x47, 0x00, 0x42, 0x3c, 0x3c, 0x00, 0x00, 0x3e, 0xfe, 0xff, 0xff,
  0x04, 0x00, 0x00, 0x00, 0x80, 0x00, 0x00, 0x00, 0xfb, 0xfb, 0xff, 0xff,
  0x41, 0x04, 0x00, 0x00, 0x0f, 0x05, 0x00, 0x00, 0xdc, 0x04, 0x00, 0x00,
  0x75, 0xff, 0xff, 0xff, 0x88, 0x00, 0x00, 0x00, 0x7b, 0xff, 0xff, 0xff,
  0x80, 0xff, 0xff, 0xff, 0x2f, 0x00, 0x00, 0x00, 0x11, 0x03, 0x00, 0x00,
  0x42, 0x03, 0x00, 0x00, 0x77, 0x04, 0x00, 0x00, 0x4e, 0x01, 0x00, 0x00,
  0x24, 0x01, 0x00, 0x00, 0x80, 0x00, 0x00, 0x00, 0x2d, 0xfd, 0xff, 0xff,
  0xab, 0xfc, 0xff, 0xff, 0x9c, 0xfc, 0xff, 0xff, 0x74, 0xfd, 0xff, 0xff,
  0x9b, 0xfb, 0xff, 0xff, 0x61, 0x01, 0x00, 0x00, 0x49, 0x00, 0x00, 0x00,
  0x27, 0xff, 0xff, 0xff, 0x0c, 0x03, 0x00, 0x00, 0x07, 0xfb, 0xff, 0xff,
  0xf3, 0xff, 0xff, 0xff, 0xd1, 0x03, 0x00, 0x00, 0x0f, 0x02, 0x00, 0x00,
  0x42, 0x01, 0x00, 0x00, 0xff, 0x02, 0x00, 0x00, 0x62, 0x06, 0x00, 0x00,
  0x16, 0x04, 0x00, 0x00, 0xca, 0xfe, 0xff, 0xff, 0x04, 0x00, 0x00, 0x00,
  0x60, 0x00, 0x00, 0x00, 0x00, 0x8d, 0x00, 0x00, 0x00, 0x00, 0x00, 0x00,
  0x65, 0x00, 0x00, 0x00, 0xb1, 0xa2, 0x00, 0xb4, 0x00, 0xa6, 0x8e, 0x00,
  0x5c, 0x00, 0x00, 0x00, 0x00, 0x00, 0x00, 0x4b, 0xae, 0x00, 0x7f, 0x00,
  0x00, 0x00, 0xab, 0x7c, 0x00, 0x00, 0x00, 0x00, 0x00, 0x8e, 0x95, 0xa5,
  0x00, 0x00, 0x00, 0xac, 0x00, 0x6c, 0x00, 0xab, 0x00, 0x00, 0x00, 0xa0,
  0x00, 0x00, 0x00, 0x8f, 0x00, 0x7f, 0x00, 0x9f, 0x00, 0x00, 0x00, 0xb8,
  0x00, 0xa5, 0x81, 0x00, 0x00, 0x48, 0x51, 0xa1, 0x00, 0x4f, 0x86, 0x00,
  0x00, 0x00, 0x00, 0x00, 0x00, 0x46, 0x98, 0x00, 0x00, 0x8b, 0x73, 0x47,
  0x97, 0x97, 0x00, 0x00, 0x36, 0xff, 0xff, 0xff, 0x04, 0x00, 0x00, 0x00,
  0x0c, 0x00, 0x00, 0x00, 0xf1, 0xff, 0xff, 0xff, 0x65, 0xfe, 0xff, 0xff,
  0xb2, 0x01, 0x00, 0x00, 0x4e, 0xff, 0xff, 0xff, 0x04, 0x00, 0x00, 0x00,
  0x08, 0x00, 0x00, 0x00, 0xff, 0xff, 0xff, 0xff, 0x80, 0x00, 0x00, 0x00,
  0xc0, 0xe9, 0xff, 0xff, 0xc4, 0xe9, 0xff, 0xff, 0x0f, 0x00, 0x00, 0x00,
  0x4d, 0x4c, 0x49, 0x52, 0x20, 0x43, 0x6f, 0x6e, 0x76, 0x65, 0x72, 0x74,
  0x65, 0x64, 0x2e, 0x00, 0x01, 0x00, 0x00, 0x00, 0x14, 0x00, 0x00, 0x00,
  0x00, 0x00, 0x0e, 0x00, 0x18, 0x00, 0x14, 0x00, 0x10, 0x00, 0x0c, 0x00,
  0x08, 0x00, 0x04, 0x00, 0x0e, 0x00, 0x00, 0x00, 0x14, 0x00, 0x00, 0x00,
  0x1c, 0x00, 0x00, 0x00, 0xec, 0x02, 0x00, 0x00, 0xf0, 0x02, 0x00, 0x00,
  0xf4, 0x02, 0x00, 0x00, 0x04, 0x00, 0x00, 0x00, 0x6d, 0x61, 0x69, 0x6e,
  0x00, 0x00, 0x00, 0x00, 0x0a, 0x00, 0x00, 0x00, 0x84, 0x02, 0x00, 0x00,
  0x20, 0x02, 0x00, 0x00, 0xcc, 0x01, 0x00, 0x00, 0x88, 0x01, 0x00, 0x00,
  0x34, 0x01, 0x00, 0x00, 0xf0, 0x00, 0x00, 0x00, 0xc8, 0x00, 0x00, 0x00,
  0x78, 0x00, 0x00, 0x00, 0x40, 0x00, 0x00, 0x00, 0x04, 0x00, 0x00, 0x00,
  0x12, 0xfe, 0xff, 0xff, 0x1c, 0x00, 0x00, 0x00, 0x00, 0x00, 0x00, 0x09,
  0x1c, 0x00, 0x00, 0x00, 0x20, 0x00, 0x00, 0x00, 0x04, 0x00, 0x00, 0x00,
  0x00, 0x00, 0x06, 0x00, 0x08, 0x00, 0x04, 0x00, 0x06, 0x00, 0x00, 0x00,
  0x00, 0x00, 0x80, 0x3f, 0x01, 0x00, 0x00, 0x00, 0x15, 0x00, 0x00, 0x00,
  0x01, 0x00, 0x00, 0x00, 0x14, 0x00, 0x00, 0x00, 0xda, 0xfe, 0xff, 0xff,
  0x14, 0x00, 0x00, 0x00, 0x00, 0x00, 0x00, 0x08, 0x10, 0x00, 0x00, 0x00,
  0x14, 0x00, 0x00, 0x00, 0x03, 0x00, 0x00, 0x00, 0x94, 0xea, 0xff, 0xff,
  0x01, 0x00, 0x00, 0x00, 0x14, 0x00, 0x00, 0x00, 0x03, 0x00, 0x00, 0x00,
  0x13, 0x00, 0x00, 0x00, 0x03, 0x00, 0x00, 0x00, 0x02, 0x00, 0x00, 0x00,
  0x7e, 0xfe, 0xff, 0xff, 0x1c, 0x00, 0x00, 0x00, 0x00, 0x00, 0x00, 0x08,
  0x1c, 0x00, 0x00, 0x00, 0x20, 0x00, 0x00, 0x00, 0x03, 0x00, 0x00, 0x00,
  0x00, 0x00, 0x06, 0x00, 0x08, 0x00, 0x07, 0x00, 0x06, 0x00, 0x00, 0x00,
  0x00, 0x00, 0x00, 0x01, 0x01, 0x00, 0x00, 0x00, 0x13, 0x00, 0x00, 0x00,
  0x03, 0x00, 0x00, 0x00, 0x12, 0x00, 0x00, 0x00, 0x05, 0x00, 0x00, 0x00,
  0x04, 0x00, 0x00, 0x00, 0x00, 0x00, 0x0a, 0x00, 0x10, 0x00, 0x0c, 0x00,
  0x08, 0x00, 0x04, 0x00, 0x0a, 0x00, 0x00, 0x00, 0x0c, 0x00, 0x00, 0x00,
  0x10, 0x00, 0x00, 0x00, 0x02, 0x00, 0x00, 0x00, 0x01, 0x00, 0x00, 0x00,
  0x12, 0x00, 0x00, 0x00, 0x02, 0x00, 0x00, 0x00, 0x11, 0x00, 0x00, 0x00,
  0x01, 0x00, 0x00, 0x00, 0x7e, 0xff, 0xff, 0xff, 0x14, 0x00, 0x00, 0x00,
  0x00, 0x00, 0x00, 0x05, 0x24, 0x00, 0x00, 0x00, 0x28, 0x00, 0x00, 0x00,
  0x01, 0x00, 0x00, 0x00, 0xde, 0xfe, 0xff, 0xff, 0x02, 0x00, 0x00, 0x00,
  0x02, 0x00, 0x00, 0x00, 0x02, 0x00, 0x00, 0x00, 0x02, 0x00, 0x00, 0x00,
  0x00, 0x00, 0x00, 0x01, 0x01, 0x00, 0x00, 0x00, 0x11, 0x00, 0x00, 0x00,
  0x01, 0x00, 0x00, 0x00, 0x10, 0x00, 0x00, 0x00, 0xce, 0xfe, 0xff, 0xff,
  0x10, 0x00, 0x00, 0x00, 0x00, 0x00, 0x00, 0x01, 0x1c, 0x00, 0x00, 0x00,
  0x20, 0x00, 0x00, 0x00, 0xc0, 0xfe, 0xff, 0xff, 0x00, 0x00, 0x00, 0x01,
  0x01, 0x00, 0x00, 0x00, 0x01, 0x00, 0x00, 0x00, 0x00, 0x00, 0x00, 0x01,
  0x01, 0x00, 0x00, 0x00, 0x10, 0x00, 0x00, 0x00, 0x03, 0x00, 0x00, 0x00,
  0x0f, 0x00, 0x00, 0x00, 0x07, 0x00, 0x00, 0x00, 0x06, 0x00, 0x00, 0x00,
  0x00, 0x00, 0x0e, 0x00, 0x18, 0x00, 0x14, 0x00, 0x10, 0x00, 0x0c, 0x00,
  0x0b, 0x00, 0x04, 0x00, 0x0e, 0x00, 0x00, 0x00, 0x14, 0x00, 0x00, 0x00,
  0x00, 0x00, 0x00, 0x05, 0x24, 0x00, 0x00, 0x00, 0x28, 0x00, 0x00, 0x00,
  0x01, 0x00, 0x00, 0x00, 0x6e, 0xff, 0xff, 0xff, 0x02, 0x00, 0x00, 0x00,
  0x02, 0x00, 0x00, 0x00, 0x02, 0x00, 0x00, 0x00, 0x02, 0x00, 0x00, 0x00,
  0x00, 0x00, 0x00, 0x01, 0x01, 0x00, 0x00, 0x00, 0x0f, 0x00, 0x00, 0x00,
  0x01, 0x00, 0x00, 0x00, 0x0e, 0x00, 0x00, 0x00, 0x5e, 0xff, 0xff, 0xff,
  0x10, 0x00, 0x00, 0x00, 0x00, 0x00, 0x00, 0x01, 0x1c, 0x00, 0x00, 0x00,
  0x20, 0x00, 0x00, 0x00, 0x50, 0xff, 0xff, 0xff, 0x00, 0x00, 0x00, 0x01,
  0x01, 0x00, 0x00, 0x00, 0x01, 0x00, 0x00, 0x00, 0x00, 0x00, 0x00, 0x01,
  0x01, 0x00, 0x00, 0x00, 0x0e, 0x00, 0x00, 0x00, 0x03, 0x00, 0x00, 0x00,
  0x0d, 0x00, 0x00, 0x00, 0x09, 0x00, 0x00, 0x00, 0x08, 0x00, 0x00, 0x00,
  0x00, 0x00, 0x0e, 0x00, 0x1a, 0x00, 0x14, 0x00, 0x10, 0x00, 0x0c, 0x00,
  0x0b, 0x00, 0x04, 0x00, 0x0e, 0x00, 0x00, 0x00, 0x24, 0x00, 0x00, 0x00,
  0x00, 0x00, 0x00, 0x05, 0x34, 0x00, 0x00, 0x00, 0x38, 0x00, 0x00, 0x00,
  0x01, 0x00, 0x00, 0x00, 0x00, 0x00, 0x0e, 0x00, 0x18, 0x00, 0x17, 0x00,
  0x10, 0x00, 0x0c, 0x00, 0x08, 0x00, 0x04, 0x00, 0x0e, 0x00, 0x00, 0x00,
  0x02, 0x00, 0x00, 0x00, 0x02, 0x00, 0x00, 0x00, 0x02, 0x00, 0x00, 0x00,
  0x02, 0x00, 0x00, 0x00, 0x00, 0x00, 0x00, 0x01, 0x01, 0x00, 0x00, 0x00,
  0x0d, 0x00, 0x00, 0x00, 0x01, 0x00, 0x00, 0x00, 0x0c, 0x00, 0x00, 0x00,
  0x00, 0x00, 0x0e, 0x00, 0x14, 0x00, 0x00, 0x00, 0x10, 0x00, 0x0c, 0x00,
  0x0b, 0x00, 0x04, 0x00, 0x0e, 0x00, 0x00, 0x00, 0x1c, 0x00, 0x00, 0x00,
  0x00, 0x00, 0x00, 0x01, 0x28, 0x00, 0x00, 0x00, 0x2c, 0x00, 0x00, 0x00,
  0x0c, 0x00, 0x14, 0x00, 0x13, 0x00, 0x0c, 0x00, 0x08, 0x00, 0x07, 0x00,
  0x0c, 0x00, 0x00, 0x00, 0x00, 0x00, 0x00, 0x01, 0x01, 0x00, 0x00, 0x00,
  0x01, 0x00, 0x00, 0x00, 0x00, 0x00, 0x00, 0x01, 0x01, 0x00, 0x00, 0x00,
  0x0c, 0x00, 0x00, 0x00, 0x03, 0x00, 0x00, 0x00, 0x00, 0x00, 0x00, 0x00,
  0x0b, 0x00, 0x00, 0x00, 0x0a, 0x00, 0x00, 0x00, 0x01, 0x00, 0x00, 0x00,
  0x15, 0x00, 0x00, 0x00, 0x01, 0x00, 0x00, 0x00, 0x00, 0x00, 0x00, 0x00,
  0x16, 0x00, 0x00, 0x00, 0x3c, 0x13, 0x00, 0x00, 0xe0, 0x12, 0x00, 0x00,
  0x50, 0x12, 0x00, 0x00, 0xd4, 0x11, 0x00, 0x00, 0x00, 0x10, 0x00, 0x00,
  0x24, 0x0e, 0x00, 0x00, 0x50, 0x0c, 0x00, 0x00, 0x6c, 0x0a, 0x00, 0x00,
  0x58, 0x09, 0x00, 0x00, 0x34, 0x08, 0x00, 0x00, 0x80, 0x07, 0x00, 0x00,
  0xbc, 0x06, 0x00, 0x00, 0xd8, 0x05, 0x00, 0x00, 0x44, 0x05, 0x00, 0x00,
  0x58, 0x04, 0x00, 0x00, 0xc4, 0x03, 0x00, 0x00, 0xd8, 0x02, 0x00, 0x00,
  0x44, 0x02, 0x00, 0x00, 0xc8, 0x01, 0x00, 0x00, 0x1c, 0x01, 0x00, 0x00,
  0x80, 0x00, 0x00, 0x00, 0x04, 0x00, 0x00, 0x00, 0x32, 0xed, 0xff, 0xff,
  0x00, 0x00, 0x00, 0x01, 0x18, 0x00, 0x00, 0x00, 0x20, 0x00, 0x00, 0x00,
  0x3c, 0x00, 0x00, 0x00, 0x16, 0x00, 0x00, 0x00, 0x00, 0x00, 0x00, 0x09,
  0x50, 0x00, 0x00, 0x00, 0x02, 0x00, 0x00, 0x00, 0xff, 0xff, 0xff, 0xff,
  0x03, 0x00, 0x00, 0x00, 0x14, 0xed, 0xff, 0xff, 0x08, 0x00, 0x00, 0x00,
  0x10, 0x00, 0x00, 0x00, 0x01, 0x00, 0x00, 0x00, 0x80, 0xff, 0xff, 0xff,
  0xff, 0xff, 0xff, 0xff, 0x01, 0x00, 0x00, 0x00, 0x00, 0x00, 0x80, 0x3b,
  0x19, 0x00, 0x00, 0x00, 0x53, 0x74, 0x61, 0x74, 0x65, 0x66, 0x75, 0x6c,
  0x50, 0x61, 0x72, 0x74, 0x69, 0x74, 0x69, 0x6f, 0x6e, 0x65, 0x64, 0x43,
  0x61, 0x6c, 0x6c, 0x3a, 0x30, 0x00, 0x00, 0x00, 0x02, 0x00, 0x00, 0x00,
  0x01, 0x00, 0x00, 0x00, 0x03, 0x00, 0x00, 0x00, 0xaa, 0xed, 0xff, 0xff,
  0x00, 0x00, 0x00, 0x01, 0x18, 0x00, 0x00, 0x00, 0x20, 0x00, 0x00, 0x00,
  0x40, 0x00, 0x00, 0x00, 0x15, 0x00, 0x00, 0x00, 0x00, 0x00, 0x00, 0x09,
  0x70, 0x00, 0x00, 0x00, 0x02, 0x00, 0x00, 0x00, 0xff, 0xff, 0xff, 0xff,
  0x03, 0x00, 0x00, 0x00, 0x8c, 0xed, 0xff, 0xff, 0x08, 0x00, 0x00, 0x00,
  0x14, 0x00, 0x00, 0x00, 0x01, 0x00, 0x00, 0x00, 0x1f, 0x00, 0x00, 0x00,
  0x00, 0x00, 0x00, 0x00, 0x00, 0x00, 0x00, 0x00, 0x01, 0x00, 0x00, 0x00,
  0x1a, 0x9c, 0x64, 0x3d, 0x34, 0x00, 0x00, 0x00, 0x73, 0x65, 0x71, 0x75,
  0x65, 0x6e, 0x74, 0x69, 0x61, 0x6c, 0x2f, 0x64, 0x65, 0x6e, 0x73, 0x65,
  0x5f, 0x31, 0x2f, 0x4d, 0x61, 0x74, 0x4d, 0x75, 0x6c, 0x3b, 0x73, 0x65,
  0x71, 0x75, 0x65, 0x6e, 0x74, 0x69, 0x61, 0x6c, 0x2f, 0x64, 0x65, 0x6e,
  0x73, 0x65, 0x5f, 0x31, 0x2f, 0x42, 0x69, 0x61, 0x73, 0x41, 0x64, 0x64,
  0x00, 0x00, 0x00, 0x00, 0x02, 0x00, 0x00, 0x00, 0x01, 0x00, 0x00, 0x00,
  0x03, 0x00, 0x00, 0x00, 0x42, 0xee, 0xff, 0xff, 0x00, 0x00, 0x00, 0x01,
  0x18, 0x00, 0x00, 0x00, 0x20, 0x00, 0x00, 0x00, 0x40, 0x00, 0x00, 0x00,
  0x14, 0x00, 0x00, 0x00, 0x00, 0x00, 0x00, 0x09, 0x80, 0x00, 0x00, 0x00,
  0x02, 0x00, 0x00, 0x00, 0xff, 0xff, 0xff, 0xff, 0x20, 0x00, 0x00, 0x00,
  0x24, 0xee, 0xff, 0xff, 0x08, 0x00, 0x00, 0x00, 0x14, 0x00, 0x00, 0x00,
  0x01, 0x00, 0x00, 0x00, 0x80, 0xff, 0xff, 0xff, 0xff, 0xff, 0xff, 0xff,
  0x00, 0x00, 0x00, 0x00, 0x01, 0x00, 0x00, 0x00, 0x79, 0xfb, 0x80, 0x3c,
  0x46, 0x00, 0x00, 0x00, 0x73, 0x65, 0x71, 0x75, 0x65, 0x6e, 0x74, 0x69,
  0x61, 0x6c, 0x2f, 0x64, 0x65, 0x6e, 0x73, 0x65, 0x2f, 0x4d, 0x61, 0x74,
  0x4d, 0x75, 0x6c, 0x3b, 0x73, 0x65, 0x71, 0x75, 0x65, 0x6e, 0x74, 0x69,
  0x61, 0x6c, 0x2f, 0x64, 0x65, 0x6e, 0x73, 0x65, 0x2f, 0x52, 0x65, 0x6c,
  0x75, 0x3b, 0x73, 0x65, 0x71, 0x75, 0x65, 0x6e, 0x74, 0x69, 0x61, 0x6c,
  0x2f, 0x64, 0x65, 0x6e, 0x73, 0x65, 0x2f, 0x42, 0x69, 0x61, 0x73, 0x41,
  0x64, 0x64, 0x00, 0x00, 0x02, 0x00, 0x00, 0x00, 0x01, 0x00, 0x00, 0x00,
  0x20, 0x00, 0x00, 0x00, 0xea, 0xee, 0xff, 0xff, 0x00, 0x00, 0x00, 0x01,
  0x18, 0x00, 0x00, 0x00, 0x20, 0x00, 0x00, 0x00, 0x3c, 0x00, 0x00, 0x00,
  0x13, 0x00, 0x00, 0x00, 0x00, 0x00, 0x00, 0x09, 0x50, 0x00, 0x00, 0x00,
  0x02, 0x00, 0x00, 0x00, 0xff, 0xff, 0xff, 0xff, 0x80, 0x00, 0x00, 0x00,
  0xcc, 0xee, 0xff, 0xff, 0x08, 0x00, 0x00, 0x00, 0x10, 0x00, 0x00, 0x00,
  0x01, 0x00, 0x00, 0x00, 0x80, 0xff, 0xff, 0xff, 0xff, 0xff, 0xff, 0xff,
  0x01, 0x00, 0x00, 0x00, 0x71, 0x7e, 0xfa, 0x3b, 0x1a, 0x00, 0x00, 0x00,
  0x73, 0x65, 0x71, 0x75, 0x65, 0x6e, 0x74, 0x69, 0x61, 0x6c, 0x2f, 0x66,
  0x6c, 0x61, 0x74, 0x74, 0x65, 0x6e, 0x2f, 0x52, 0x65, 0x73, 0x68, 0x61,
  0x70, 0x65, 0x00, 0x00, 0x02, 0x00, 0x00, 0x00, 0x01, 0x00, 0x00, 0x00,
  0x80, 0x00, 0x00, 0x00, 0x62, 0xef, 0xff, 0xff, 0x00, 0x00, 0x00, 0x01,
  0x18, 0x00, 0x00, 0x00, 0x28, 0x00, 0x00, 0x00, 0x44, 0x00, 0x00, 0x00,
  0x12, 0x00, 0x00, 0x00, 0x00, 0x00, 0x00, 0x09, 0x60, 0x00, 0x00, 0x00,
  0x04, 0x00, 0x00, 0x00, 0xff, 0xff, 0xff, 0xff, 0x02, 0x00, 0x00, 0x00,
  0x02, 0x00, 0x00, 0x00, 0x20, 0x00, 0x00, 0x00, 0x4c, 0xef, 0xff, 0xff,
  0x08, 0x00, 0x00, 0x00, 0x10, 0x00, 0x00, 0x00, 0x01, 0x00, 0x00, 0x00,
  0x80, 0xff, 0xff, 0xff, 0xff, 0xff, 0xff, 0xff, 0x01, 0x00, 0x00, 0x00,
  0x71, 0x7e, 0xfa, 0x3b, 0x22, 0x00, 0x00, 0x00, 0x73, 0x65, 0x71, 0x75,
  0x65, 0x6e, 0x74, 0x69, 0x61, 0x6c, 0x2f, 0x6d, 0x61, 0x78, 0x5f, 0x70,
  0x6f, 0x6f, 0x6c, 0x69, 0x6e, 0x67, 0x32, 0x64, 0x5f, 0x32, 0x2f, 0x4d,
  0x61, 0x78, 0x50, 0x6f, 0x6f, 0x6c, 0x00, 0x00, 0x04, 0x00, 0x00, 0x00,
  0x01, 0x00, 0x00, 0x00, 0x02, 0x00, 0x00, 0x00, 0x02, 0x00, 0x00, 0x00,
  0x20, 0x00, 0x00, 0x00, 0xf2, 0xef, 0xff, 0xff, 0x00, 0x00, 0x00, 0x01,
  0x18, 0x00, 0x00, 0x00, 0x28, 0x00, 0x00, 0x00, 0x44, 0x00, 0x00, 0x00,
  0x11, 0x00, 0x00, 0x00, 0x00, 0x00, 0x00, 0x09, 0xb8, 0x00, 0x00, 0x00,
  0x04, 0x00, 0x00, 0x00, 0xff, 0xff, 0xff, 0xff, 0x04, 0x00, 0x00, 0x00,
  0x04, 0x00, 0x00, 0x00, 0x20, 0x00, 0x00, 0x00, 0xdc, 0xef, 0xff, 0xff,
  0x08, 0x00, 0x00, 0x00, 0x10, 0x00, 0x00, 0x00, 0x01, 0x00, 0x00, 0x00,
  0x80, 0xff, 0xff, 0xff, 0xff, 0xff, 0xff, 0xff, 0x01, 0x00, 0x00, 0x00,
  0x71, 0x7e, 0xfa, 0x3b, 0x7a, 0x00, 0x00, 0x00, 0x73, 0x65, 0x71, 0x75,
  0x65, 0x6e, 0x74, 0x69, 0x61, 0x6c, 0x2f, 0x63, 0x6f, 0x6e, 0x76, 0x32,
  0x64, 0x5f, 0x32, 0x2f, 0x52, 0x65, 0x6c, 0x75, 0x3b, 0x73, 0x65, 0x71,
  0x75, 0x65, 0x6e, 0x74, 0x69, 0x61, 0x6c, 0x2f, 0x63, 0x6f, 0x6e, 0x76,
  0x32, 0x64, 0x5f, 0x32, 0x2f, 0x42, 0x69, 0x61, 0x73, 0x41, 0x64, 0x64,
  0x3b, 0x73, 0x65, 0x71, 0x75, 0x65, 0x6e, 0x74, 0x69, 0x61, 0x6c, 0x2f,
  0x63, 0x6f, 0x6e, 0x76, 0x32, 0x64, 0x5f, 0x32, 0x2f, 0x43, 0x6f, 0x6e,
  0x76, 0x32, 0x44, 0x3b, 0x73, 0x65, 0x71, 0x75, 0x65, 0x6e, 0x74, 0x69,
  0x61, 0x6c, 0x2f, 0x63, 0x6f, 0x6e, 0x76, 0x32, 0x64, 0x5f, 0x32, 0x2f,
  0x42, 0x69, 0x61, 0x73, 0x41, 0x64, 0x64, 0x2f, 0x52, 0x65, 0x61, 0x64,
  0x56, 0x61, 0x72, 0x69, 0x61, 0x62, 0x6c, 0x65, 0x4f, 0x70, 0x00, 0x00,
  0x04, 0x00, 0x00, 0x00, 0x01, 0x00, 0x00, 0x00, 0x04, 0x00, 0x00, 0x00,
  0x04, 0x00, 0x00, 0x00, 0x20, 0x00, 0x00, 0x00, 0xda, 0xf0, 0xff, 0xff,
  0x00, 0x00, 0x00, 0x01, 0x18, 0x00, 0x00, 0x00, 0x28, 0x00, 0x00, 0x00,
  0x44, 0x00, 0x00, 0x00, 0x10, 0x00, 0x00, 0x00, 0x00, 0x00, 0x00, 0x09,
  0x60, 0x00, 0x00, 0x00, 0x04, 0x00, 0x00, 0x00, 0xff, 0xff, 0xff, 0xff,
  0x06, 0x00, 0x00, 0x00, 0x06, 0x00, 0x00, 0x00, 0x10, 0x00, 0x00, 0x00,
  0xc4, 0xf0, 0xff, 0xff, 0x08, 0x00, 0x00, 0x00, 0x10, 0x00, 0x00, 0x00,
  0x01, 0x00, 0x00, 0x00, 0x80, 0xff, 0xff, 0xff, 0xff, 0xff, 0xff, 0xff,
  0x01, 0x00, 0x00, 0x00, 0xe8, 0x6e, 0x80, 0x3b, 0x22, 0x00, 0x00, 0x00,
  0x73, 0x65, 0x71, 0x75, 0x65, 0x6e, 0x74, 0x69, 0x61, 0x6c, 0x2f, 0x6d,
  0x61, 0x78, 0x5f, 0x70, 0x6f, 0x6f, 0x6c, 0x69, 0x6e, 0x67, 0x32, 0x64,
  0x5f, 0x31, 0x2f, 0x4d, 0x61, 0x78, 0x50, 0x6f, 0x6f, 0x6c, 0x00, 0x00,
  0x04, 0x00, 0x00, 0x00, 0x01, 0x00, 0x00, 0x00, 0x06, 0x00, 0x00, 0x00,
  0x06, 0x00, 0x00, 0x00, 0x10, 0x00, 0x00, 0x00, 0x6a, 0xf1, 0xff, 0xff,
  0x00, 0x00, 0x00, 0x01, 0x18, 0x00, 0x00, 0x00, 0x28, 0x00, 0x00, 0x00,
  0x44, 0x00, 0x00, 0x00, 0x0f, 0x00, 0x00, 0x00, 0x00, 0x00, 0x00, 0x09,
  0xb8, 0x00, 0x00, 0x00, 0x04, 0x00, 0x00, 0x00, 0xff, 0xff, 0xff, 0xff,
  0x0d, 0x00, 0x00, 0x00, 0x0d, 0x00, 0x00, 0x00, 0x10, 0x00, 0x00, 0x00,
  0x54, 0xf1, 0xff, 0xff, 0x08, 0x00, 0x00, 0x00, 0x10, 0x00, 0x00, 0x00,
  0x01, 0x00, 0x00, 0x00, 0x80, 0xff, 0xff, 0xff, 0xff, 0xff, 0xff, 0xff,
  0x01, 0x00, 0x00, 0x00, 0xe8, 0x6e, 0x80, 0x3b, 0x7a, 0x00, 0x00, 0x00,
  0x73, 0x65, 0x71, 0x75, 0x65, 0x6e, 0x74, 0x69, 0x61, 0x6c, 0x2f, 0x63,
  0x6f, 0x6e, 0x76, 0x32, 0x64, 0x5f, 0x31, 0x2f, 0x52, 0x65, 0x6c, 0x75,
  0x3b, 0x73, 0x65, 0x71, 0x75, 0x65, 0x6e, 0x74, 0x69, 0x61, 0x6c, 0x2f,
  0x63, 0x6f, 0x6e, 0x76, 0x32, 0x64, 0x5f, 0x31, 0x2f, 0x42, 0x69, 0x61,
  0x73, 0x41, 0x64, 0x64, 0x3b, 0x73, 0x65, 0x71, 0x75, 0x65, 0x6e, 0x74,
  0x69, 0x61, 0x6c, 0x2f, 0x63, 0x6f, 0x6e, 0x76, 0x32, 0x64, 0x5f, 0x31,
  0x2f, 0x43, 0x6f, 0x6e, 0x76, 0x32, 0x44, 0x3b, 0x73, 0x65, 0x71, 0x75,
  0x65, 0x6e, 0x74, 0x69, 0x61, 0x6c, 0x2f, 0x63, 0x6f, 0x6e, 0x76, 0x32,
  0x64, 0x5f, 0x31, 0x2f, 0x42, 0x69, 0x61, 0x73, 0x41, 0x64, 0x64, 0x2f,
  0x52, 0x65, 0x61, 0x64, 0x56, 0x61, 0x72, 0x69, 0x61, 0x62, 0x6c, 0x65,
  0x4f, 0x70, 0x00, 0x00, 0x04, 0x00, 0x00, 0x00, 0x01, 0x00, 0x00, 0x00,
  0x0d, 0x00, 0x00, 0x00, 0x0d, 0x00, 0x00, 0x00, 0x10, 0x00, 0x00, 0x00,
  0x52, 0xf2, 0xff, 0xff, 0x00, 0x00, 0x00, 0x01, 0x18, 0x00, 0x00, 0x00,
  0x28, 0x00, 0x00, 0x00, 0x44, 0x00, 0x00, 0x00, 0x0e, 0x00, 0x00, 0x00,
  0x00, 0x00, 0x00, 0x09, 0x60, 0x00, 0x00, 0x00, 0x04, 0x00, 0x00, 0x00,
  0xff, 0xff, 0xff, 0xff, 0x0f, 0x00, 0x00, 0x00, 0x0f, 0x00, 0x00, 0x00,
  0x08, 0x00, 0x00, 0x00, 0x3c, 0xf2, 0xff, 0xff, 0x08, 0x00, 0x00, 0x00,
  0x10, 0x00, 0x00, 0x00, 0x01, 0x00, 0x00, 0x00, 0x80, 0xff, 0xff, 0xff,
  0xff, 0xff, 0xff, 0xff, 0x01, 0x00, 0x00, 0x00, 0xfa, 0x8d, 0x34, 0x3b,
  0x20, 0x00, 0x00, 0x00, 0x73, 0x65, 0x71, 0x75, 0x65, 0x6e, 0x74, 0x69,
  0x61, 0x6c, 0x2f, 0x6d, 0x61, 0x78, 0x5f, 0x70, 0x6f, 0x6f, 0x6c, 0x69,
  0x6e, 0x67, 0x32, 0x64, 0x2f, 0x4d, 0x61, 0x78, 0x50, 0x6f, 0x6f, 0x6c,
  0x00, 0x00, 0x00, 0x00, 0x04, 0x00, 0x00, 0x00, 0x01, 0x00, 0x00, 0x00,
  0x0f, 0x00, 0x00, 0x00, 0x0f, 0x00, 0x00, 0x00, 0x08, 0x00, 0x00, 0x00,
  0xe2, 0xf2, 0xff, 0xff, 0x00, 0x00, 0x00, 0x01, 0x18, 0x00, 0x00, 0x00,
  0x28, 0x00, 0x00, 0x00, 0x44, 0x00, 0x00, 0x00, 0x0d, 0x00, 0x00, 0x00,
  0x00, 0x00, 0x00, 0x09, 0xb0, 0x00, 0x00, 0x00, 0x04, 0x00, 0x00, 0x00,
  0xff, 0xff, 0xff, 0xff, 0x1e, 0x00, 0x00, 0x00, 0x1e, 0x00, 0x00, 0x00,
  0x08, 0x00, 0x00, 0x00, 0xcc, 0xf2, 0xff, 0xff, 0x08, 0x00, 0x00, 0x00,
  0x10, 0x00, 0x00, 0x00, 0x01, 0x00, 0x00, 0x00, 0x80, 0xff, 0xff, 0xff,
  0xff, 0xff, 0xff, 0xff, 0x01, 0x00, 0x00, 0x00, 0xfa, 0x8d, 0x34, 0x3b,
  0x73, 0x00, 0x00, 0x00, 0x73, 0x65, 0x71, 0x75, 0x65, 0x6e, 0x74, 0x69,
  0x61, 0x6c, 0x2f, 0x63, 0x6f, 0x6e, 0x76, 0x32, 0x64, 0x2f, 0x52, 0x65,
  0x6c, 0x75, 0x3b, 0x73, 0x65, 0x71, 0x75, 0x65, 0x6e, 0x74, 0x69, 0x61,
  0x6c, 0x2f, 0x63, 0x6f, 0x6e, 0x76, 0x32, 0x64, 0x2f, 0x42, 0x69, 0x61,
  0x73, 0x41, 0x64, 0x64, 0x3b, 0x73, 0x65, 0x71, 0x75, 0x65, 0x6e, 0x74,
  0x69, 0x61, 0x6c, 0x2f, 0x63, 0x6f, 0x6e, 0x76, 0x32, 0x64, 0x2f, 0x43,
  0x6f, 0x6e, 0x76, 0x32, 0x44, 0x3b, 0x73, 0x65, 0x71, 0x75, 0x65, 0x6e,
  0x74, 0x69, 0x61, 0x6c, 0x2f, 0x63, 0x6f, 0x6e, 0x76, 0x32, 0x64, 0x2f,
  0x42, 0x69, 0x61, 0x73, 0x41, 0x64, 0x64, 0x2f, 0x52, 0x65, 0x61, 0x64,
  0x56, 0x61, 0x72, 0x69, 0x61, 0x62, 0x6c, 0x65, 0x4f, 0x70, 0x31, 0x00,
  0x04, 0x00, 0x00, 0x00, 0x01, 0x00, 0x00, 0x00, 0x1e, 0x00, 0x00, 0x00,
  0x1e, 0x00, 0x00, 0x00, 0x08, 0x00, 0x00, 0x00, 0x1a, 0xf4, 0xff, 0xff,
  0x00, 0x00, 0x00, 0x01, 0x14, 0x00, 0x00, 0x00, 0x88, 0x00, 0x00, 0x00,
  0x0c, 0x00, 0x00, 0x00, 0x00, 0x00, 0x00, 0x09, 0x94, 0x00, 0x00, 0x00,
  0x94, 0xf3, 0xff, 0xff, 0x08, 0x00, 0x00, 0x00, 0x4c, 0x00, 0x00, 0x00,
  0x08, 0x00, 0x00, 0x00, 0x00, 0x00, 0x00, 0x00, 0x00, 0x00, 0x00, 0x00,
  0x00, 0x00, 0x00, 0x00, 0x00, 0x00, 0x00, 0x00, 0x00, 0x00, 0x00, 0x00,
  0x00, 0x00, 0x00, 0x00, 0x00, 0x00, 0x00, 0x00, 0x00, 0x00, 0x00, 0x00,
  0x00, 0x00, 0x00, 0x00, 0x00, 0x00, 0x00, 0x00, 0x00, 0x00, 0x00, 0x00,
  0x00, 0x00, 0x00, 0x00, 0x00, 0x00, 0x00, 0x00, 0x00, 0x00, 0x00, 0x00,
  0x00, 0x00, 0x00, 0x00, 0x00, 0x00, 0x00, 0x00, 0x00, 0x00, 0x00, 0x00,
  0x08, 0x00, 0x00, 0x00, 0xfa, 0x8a, 0x1a, 0x3b, 0xb4, 0x95, 0x01, 0x3b,
  0xf4, 0x6d, 0x09, 0x3b, 0xb1, 0xff, 0x10, 0x3b, 0xee, 0x21, 0x0a, 0x3b,
  0xa9, 0xb2, 0x38, 0x3b, 0x84, 0x8c, 0x2d, 0x3b, 0x0d, 0x61, 0x0f, 0x3b,
  0x12, 0x00, 0x00, 0x00, 0x74, 0x66, 0x6c, 0x2e, 0x70, 0x73, 0x65, 0x75,
  0x64, 0x6f, 0x5f, 0x71, 0x63, 0x6f, 0x6e, 0x73, 0x74, 0x39, 0x00, 0x00,
  0x04, 0x00, 0x00, 0x00, 0x08, 0x00, 0x00, 0x00, 0x03, 0x00, 0x00, 0x00,
  0x03, 0x00, 0x00, 0x00, 0x01, 0x00, 0x00, 0x00, 0xda, 0xf4, 0xff, 0xff,
  0x00, 0x00, 0x00, 0x01, 0x14, 0x00, 0x00, 0x00, 0x84, 0x00, 0x00, 0x00,
  0x0b, 0x00, 0x00, 0x00, 0x00, 0x00, 0x00, 0x02, 0x90, 0x00, 0x00, 0x00,
  0x54, 0xf4, 0xff, 0xff, 0x08, 0x00, 0x00, 0x00, 0x48, 0x00, 0x00, 0x00,
  0x08, 0x00, 0x00, 0x00, 0x00, 0x00, 0x00, 0x00, 0x00, 0x00, 0x00, 0x00,
  0x00, 0x00, 0x00, 0x00, 0x00, 0x00, 0x00, 0x00, 0x00, 0x00, 0x00, 0x00,
  0x00, 0x00, 0x00, 0x00, 0x00, 0x00, 0x00, 0x00, 0x00, 0x00, 0x00, 0x00,
  0x00, 0x00, 0x00, 0x00, 0x00, 0x00, 0x00, 0x00, 0x00, 0x00, 0x00, 0x00,
  0x00, 0x00, 0x00, 0x00, 0x00, 0x00, 0x00, 0x00, 0x00, 0x00, 0x00, 0x00,
  0x00, 0x00, 0x00, 0x00, 0x00, 0x00, 0x00, 0x00, 0x08, 0x00, 0x00, 0x00,
  0x28, 0x22, 0x1b, 0x37, 0x78, 0x14, 0x02, 0x37, 0x64, 0xf4, 0x09, 0x37,
  0x89, 0x8d, 0x11, 0x37, 0x0e, 0xa9, 0x0a, 0x37, 0x57, 0x67, 0x39, 0x37,
  0x4a, 0x36, 0x2e, 0x37, 0x4f, 0xed, 0x0f, 0x37, 0x12, 0x00, 0x00, 0x00,
  0x74, 0x66, 0x6c, 0x2e, 0x70, 0x73, 0x65, 0x75, 0x64, 0x6f, 0x5f, 0x71,
  0x63, 0x6f, 0x6e, 0x73, 0x74, 0x38, 0x00, 0x00, 0x01, 0x00, 0x00, 0x00,
  0x08, 0x00, 0x00, 0x00, 0x8a, 0xf5, 0xff, 0xff, 0x00, 0x00, 0x00, 0x01,
  0x14, 0x00, 0x00, 0x00, 0xe8, 0x00, 0x00, 0x00, 0x0a, 0x00, 0x00, 0x00,
  0x00, 0x00, 0x00, 0x09, 0xf4, 0x00, 0x00, 0x00, 0x04, 0xf5, 0xff, 0xff,
  0x08, 0x00, 0x00, 0x00, 0x8c, 0x00, 0x00, 0x00, 0x10, 0x00, 0x00, 0x00,
  0x00, 0x00, 0x00, 0x00, 0x00, 0x00, 0x00, 0x00, 0x00, 0x00, 0x00, 0x00,
  0x00, 0x00, 0x00, 0x00, 0x00, 0x00, 0x00, 0x00, 0x00, 0x00, 0x00, 0x00,
  0x00, 0x00, 0x00, 0x00, 0x00, 0x00, 0x00, 0x00, 0x00, 0x00, 0x00, 0x00,
  0x00, 0x00, 0x00, 0x00, 0x00, 0x00, 0x00, 0x00, 0x00, 0x00, 0x00, 0x00,
  0x00, 0x00, 0x00, 0x00, 0x00, 0x00, 0x00, 0x00, 0x00, 0x00, 0x00, 0x00,
  0x00, 0x00, 0x00, 0x00, 0x00, 0x00, 0x00, 0x00, 0x00, 0x00, 0x00, 0x00,
  0x00, 0x00, 0x00, 0x00, 0x00, 0x00, 0x00, 0x00, 0x00, 0x00, 0x00, 0x00,
  0x00, 0x00, 0x00, 0x00, 0x00, 0x00, 0x00, 0x00, 0x00, 0x00, 0x00, 0x00,
  0x00, 0x00, 0x00, 0x00, 0x00, 0x00, 0x00, 0x00, 0x00, 0x00, 0x00, 0x00,
  0x00, 0x00, 0x00, 0x00, 0x00, 0x00, 0x00, 0x00, 0x00, 0x00, 0x00, 0x00,
  0x00, 0x00, 0x00, 0x00, 0x00, 0x00, 0x00, 0x00, 0x00, 0x00, 0x00, 0x00,
  0x10, 0x00, 0x00, 0x00, 0x48, 0xf6, 0x36, 0x3b, 0x0c, 0xb9, 0x30, 0x3b,
  0x9e, 0xee, 0x1d, 0x3b, 0xc2, 0x28, 0x25, 0x3b, 0x4d, 0xae, 0x0d, 0x3b,
  0xa6, 0x08, 0x0a, 0x3b, 0x30, 0xc9, 0x21, 0x3b, 0x9f, 0x55, 0x22, 0x3b,
  0x7b, 0xbb, 0xf0, 0x3a, 0xd8, 0x6f, 0x0c, 0x3b, 0x9e, 0x78, 0x1a, 0x3b,
  0xd4, 0x48, 0x4b, 0x3b, 0x56, 0x7d, 0x1c, 0x3b, 0x26, 0x06, 0x25, 0x3b,
  0x18, 0x66, 0x0b, 0x3b, 0xbf, 0x95, 0xff, 0x3a, 0x12, 0x00, 0x00, 0x00,
  0x74, 0x66, 0x6c, 0x2e, 0x70, 0x73, 0x65, 0x75, 0x64, 0x6f, 0x5f, 0x71,
  0x63, 0x6f, 0x6e, 0x73, 0x74, 0x37, 0x00, 0x00, 0x04, 0x00, 0x00, 0x00,
  0x10, 0x00, 0x00, 0x00, 0x03, 0x00, 0x00, 0x00, 0x03, 0x00, 0x00, 0x00,
  0x08, 0x00, 0x00, 0x00, 0xaa, 0xf6, 0xff, 0xff, 0x00, 0x00, 0x00, 0x01,
  0x14, 0x00, 0x00, 0x00, 0xe4, 0x00, 0x00, 0x00, 0x09, 0x00, 0x00, 0x00,
  0x00, 0x00, 0x00, 0x02, 0xf0, 0x00, 0x00, 0x00, 0x24, 0xf6, 0xff, 0xff,
  0x08, 0x00, 0x00, 0x00, 0x88, 0x00, 0x00, 0x00, 0x10, 0x00, 0x00, 0x00,
  0x00, 0x00, 0x00, 0x00, 0x00, 0x00, 0x00, 0x00, 0x00, 0x00, 0x00, 0x00,
  0x00, 0x00, 0x00, 0x00, 0x00, 0x00, 0x00, 0x00, 0x00, 0x00, 0x00, 0x00,
  0x00, 0x00, 0x00, 0x00, 0x00, 0x00, 0x00, 0x00, 0x00, 0x00, 0x00, 0x00,
  0x00, 0x00, 0x00, 0x00, 0x00, 0x00, 0x00, 0x00, 0x00, 0x00, 0x00, 0x00,
  0x00, 0x00, 0x00, 0x00, 0x00, 0x00, 0x00, 0x00, 0x00, 0x00, 0x00, 0x00,
  0x00, 0x00, 0x00, 0x00, 0x00, 0x00, 0x00, 0x00, 0x00, 0x00, 0x00, 0x00,
  0x00, 0x00, 0x00, 0x00, 0x00, 0x00, 0x00, 0x00, 0x00, 0x00, 0x00, 0x00,
  0x00, 0x00, 0x00, 0x00, 0x00, 0x00, 0x00, 0x00, 0x00, 0x00, 0x00, 0x00,
  0x00, 0x00, 0x00, 0x00, 0x00, 0x00, 0x00, 0x00, 0x00, 0x00, 0x00, 0x00,
  0x00, 0x00, 0x00, 0x00, 0x00, 0x00, 0x00, 0x00, 0x00, 0x00, 0x00, 0x00,
  0x00, 0x00, 0x00, 0x00, 0x00, 0x00, 0x00, 0x00, 0x10, 0x00, 0x00, 0x00,
  0xa3, 0x0a, 0x01, 0x37, 0x3e, 0x48, 0xf9, 0x36, 0xbc, 0xc6, 0xde, 0x36,
  0x82, 0xf8, 0xe8, 0x36, 0x43, 0xda, 0xc7, 0x36, 0x45, 0xb5, 0xc2, 0x36,
  0x5f, 0x36, 0xe4, 0x36, 0x77, 0xfc, 0xe4, 0x36, 0x55, 0xc9, 0xa9, 0x36,
  0x0d, 0x19, 0xc6, 0x36, 0xf5, 0xe4, 0xd9, 0x36, 0xf3, 0x5f, 0x0f, 0x37,
  0xd5, 0xbd, 0xdc, 0x36, 0xb1, 0xc7, 0xe8, 0x36, 0x30, 0xa2, 0xc4, 0x36,
  0x09, 0x43, 0xb4, 0x36, 0x12, 0x00, 0x00, 0x00, 0x74, 0x66, 0x6c, 0x2e,
  0x70, 0x73, 0x65, 0x75, 0x64, 0x6f, 0x5f, 0x71, 0x63, 0x6f, 0x6e, 0x73,
  0x74, 0x36, 0x00, 0x00, 0x01, 0x00, 0x00, 0x00, 0x10, 0x00, 0x00, 0x00,
  0xba, 0xf7, 0xff, 0xff, 0x00, 0x00, 0x00, 0x01, 0x14, 0x00, 0x00, 0x00,
  0xa8, 0x01, 0x00, 0x00, 0x08, 0x00, 0x00, 0x00, 0x00, 0x00, 0x00, 0x09,
  0xb4, 0x01, 0x00, 0x00, 0x34, 0xf7, 0xff, 0xff, 0x08, 0x00, 0x00, 0x00,
  0x0c, 0x01, 0x00, 0x00, 0x20, 0x00, 0x00, 0x00, 0x00, 0x00, 0x00, 0x00,
  0x00, 0x00, 0x00, 0x00, 0x00, 0x00, 0x00, 0x00, 0x00, 0x00, 0x00, 0x00,
  0x00, 0x00, 0x00, 0x00, 0x00, 0x00, 0x00, 0x00, 0x00, 0x00, 0x00, 0x00,
  0x00, 0x00, 0x00, 0x00, 0x00, 0x00, 0x00, 0x00, 0x00, 0x00, 0x00, 0x00,
  0x00, 0x00, 0x00, 0x00, 0x00, 0x00, 0x00, 0x00, 0x00, 0x00, 0x00, 0x00,
  0x00, 0x00, 0x00, 0x00, 0x00, 0x00, 0x00, 0x00, 0x00, 0x00, 0x00, 0x00,
  0x00, 0x00, 0x00, 0x00, 0x00, 0x00, 0x00, 0x00, 0x00, 0x00, 0x00, 0x00,
  0x00, 0x00, 0x00, 0x00, 0x00, 0x00, 0x00, 0x00, 0x00, 0x00, 0x00, 0x00,
  0x00, 0x00, 0x00, 0x00, 0x00, 0x00, 0x00, 0x00, 0x00, 0x00, 0x00, 0x00,
  0x00, 0x00, 0x00, 0x00, 0x00, 0x00, 0x00, 0x00, 0x00, 0x00, 0x00, 0x00,
  0x00, 0x00, 0x00, 0x00, 0x00, 0x00, 0x00, 0x00, 0x00, 0x00, 0x00, 0x00,
  0x00, 0x00, 0x00, 0x00, 0x00, 0x00, 0x00, 0x00, 0x00, 0x00, 0x00, 0x00,
  0x00, 0x00, 0x00, 0x00, 0x00, 0x00, 0x00, 0x00, 0x00, 0x00, 0x00, 0x00,
  0x00, 0x00, 0x00, 0x00, 0x00, 0x00, 0x00, 0x00, 0x00, 0x00, 0x00, 0x00,
  0x00, 0x00, 0x00, 0x00, 0x00, 0x00, 0x00, 0x00, 0x00, 0x00, 0x00, 0x00,
  0x00, 0x00, 0x00, 0x00, 0x00, 0x00, 0x00, 0x00, 0x00, 0x00, 0x00, 0x00,
  0x00, 0x00, 0x00, 0x00, 0x00, 0x00, 0x00, 0x00, 0x00, 0x00, 0x00, 0x00,
  0x00, 0x00, 0x00, 0x00, 0x00, 0x00, 0x00, 0x00, 0x00, 0x00, 0x00, 0x00,
  0x00, 0x00, 0x00, 0x00, 0x00, 0x00, 0x00, 0x00, 0x00, 0x00, 0x00, 0x00,
  0x00, 0x00, 0x00, 0x00, 0x00, 0x00, 0x00, 0x00, 0x00, 0x00, 0x00, 0x00,
  0x00, 0x00, 0x00, 0x00, 0x00, 0x00, 0x00, 0x00, 0x00, 0x00, 0x00, 0x00,
  0x00, 0x00, 0x00, 0x00, 0x00, 0x00, 0x00, 0x00, 0x00, 0x00, 0x00, 0x00,
  0x00, 0x00, 0x00, 0x00, 0x20, 0x00, 0x00, 0x00, 0xc2, 0x51, 0x18, 0x3b,
  0xe0, 0xfe, 0xee, 0x3a, 0x10, 0xe6, 0x06, 0x3b, 0x72, 0x35, 0xf6, 0x3a,
  0xbb, 0xb8, 0x1c, 0x3b, 0x16, 0xd5, 0x12, 0x3b, 0x22, 0x43, 0x0b, 0x3b,
  0x83, 0x50, 0xab, 0x3a, 0x09, 0x88, 0x0a, 0x3b, 0x45, 0x36, 0xc3, 0x3a,
  0xf1, 0x17, 0xe0, 0x3a, 0x06, 0x04, 0xf3, 0x3a, 0x1a, 0xf8, 0x1d, 0x3b,
  0xd9, 0xd8, 0x14, 0x3b, 0xf5, 0x21, 0x16, 0x3b, 0x65, 0xb4, 0x84, 0x3a,
  0x32, 0x08, 0xc4, 0x3a, 0x1c, 0x0a, 0x82, 0x3a, 0x4b, 0xa1, 0x80, 0x3a,
  0xad, 0x6f, 0x03, 0x3b, 0xc1, 0x2b, 0xfb, 0x3a, 0x9c, 0x92, 0xed, 0x3a,
  0x7c, 0x2d, 0x0a, 0x3b, 0xe9, 0x86, 0xe4, 0x3a, 0xf1, 0xde, 0x0e, 0x3b,
  0xdb, 0xe7, 0x17, 0x3b, 0x5e, 0x37, 0x19, 0x3b, 0xa2, 0xb2, 0x7b, 0x3a,
  0x93, 0x88, 0x1e, 0x3b, 0x42, 0x69, 0x23, 0x3b, 0xf9, 0x5c, 0xc7, 0x3a,
  0x35, 0x46, 0x20, 0x3b, 0x12, 0x00, 0x00, 0x00, 0x74, 0x66, 0x6c, 0x2e,
  0x70, 0x73, 0x65, 0x75, 0x64, 0x6f, 0x5f, 0x71, 0x63, 0x6f, 0x6e, 0x73,
  0x74, 0x35, 0x00, 0x00, 0x04, 0x00, 0x00, 0x00, 0x20, 0x00, 0x00, 0x00,
  0x03, 0x00, 0x00, 0x00, 0x03, 0x00, 0x00, 0x00, 0x10, 0x00, 0x00, 0x00,
  0x9a, 0xf9, 0xff, 0xff, 0x00, 0x00, 0x00, 0x01, 0x14, 0x00, 0x00, 0x00,
  0xa4, 0x01, 0x00, 0x00, 0x07, 0x00, 0x00, 0x00, 0x00, 0x00, 0x00, 0x02,
  0xb0, 0x01, 0x00, 0x00, 0x14, 0xf9, 0xff, 0xff, 0x08, 0x00, 0x00, 0x00,
  0x08, 0x01, 0x00, 0x00, 0x20, 0x00, 0x00, 0x00, 0x00, 0x00, 0x00, 0x00,
  0x00, 0x00, 0x00, 0x00, 0x00, 0x00, 0x00, 0x00, 0x00, 0x00, 0x00, 0x00,
  0x00, 0x00, 0x00, 0x00, 0x00, 0x00, 0x00, 0x00, 0x00, 0x00, 0x00, 0x00,
  0x00, 0x00, 0x00, 0x00, 0x00, 0x00, 0x00, 0x00, 0x00, 0x00, 0x00, 0x00,
  0x00, 0x00, 0x00, 0x00, 0x00, 0x00, 0x00, 0x00, 0x00, 0x00, 0x00, 0x00,
  0x00, 0x00, 0x00, 0x00, 0x00, 0x00, 0x00, 0x00, 0x00, 0x00, 0x00, 0x00,
  0x00, 0x00, 0x00, 0x00, 0x00, 0x00, 0x00, 0x00, 0x00, 0x00, 0x00, 0x00,
  0x00, 0x00, 0x00, 0x00, 0x00, 0x00, 0x00, 0x00, 0x00, 0x00, 0x00, 0x00,
  0x00, 0x00, 0x00, 0x00, 0x00, 0x00, 0x00, 0x00, 0x00, 0x00, 0x00, 0x00,
  0x00, 0x00, 0x00, 0x00, 0x00, 0x00, 0x00, 0x00, 0x00, 0x00, 0x00, 0x00,
  0x00, 0x00, 0x00, 0x00, 0x00, 0x00, 0x00, 0x00, 0x00, 0x00, 0x00, 0x00,
  0x00, 0x00, 0x00, 0x00, 0x00, 0x00, 0x00, 0x00, 0x00, 0x00, 0x00, 0x00,
  0x00, 0x00, 0x00, 0x00, 0x00, 0x00, 0x00, 0x00, 0x00, 0x00, 0x00, 0x00,
  0x00, 0x00, 0x00, 0x00, 0x00, 0x00, 0x00, 0x00, 0x00, 0x00, 0x00, 0x00,
  0x00, 0x00, 0x00, 0x00, 0x00, 0x00, 0x00, 0x00, 0x00, 0x00, 0x00, 0x00,
  0x00, 0x00, 0x00, 0x00, 0x00, 0x00, 0x00, 0x00, 0x00, 0x00, 0x00, 0x00,
  0x00, 0x00, 0x00, 0x00, 0x00, 0x00, 0x00, 0x00, 0x00, 0x00, 0x00, 0x00,
  0x00, 0x00, 0x00, 0x00, 0x00, 0x00, 0x00, 0x00, 0x00, 0x00, 0x00, 0x00,
  0x00, 0x00, 0x00, 0x00, 0x00, 0x00, 0x00, 0x00, 0x00, 0x00, 0x00, 0x00,
  0x00, 0x00, 0x00, 0x00, 0x00, 0x00, 0x00, 0x00, 0x00, 0x00, 0x00, 0x00,
  0x00, 0x00, 0x00, 0x00, 0x00, 0x00, 0x00, 0x00, 0x00, 0x00, 0x00, 0x00,
  0x00, 0x00, 0x00, 0x00, 0x00, 0x00, 0x00, 0x00, 0x00, 0x00, 0x00, 0x00,
  0x20, 0x00, 0x00, 0x00, 0xbc, 0xd5, 0x18, 0x37, 0xf4, 0xcd, 0xef, 0x36,
  0xf2, 0x5a, 0x07, 0x37, 0xc6, 0x0a, 0xf7, 0x36, 0x86, 0x40, 0x1d, 0x37,
  0x4f, 0x54, 0x13, 0x37, 0xcc, 0xbb, 0x0b, 0x37, 0xf3, 0xe4, 0xab, 0x36,
  0x11, 0x00, 0x0b, 0x37, 0x69, 0xdf, 0xc3, 0x36, 0x1c, 0xda, 0xe0, 0x36,
  0x96, 0xd6, 0xf3, 0x36, 0xfa, 0x80, 0x1e, 0x37, 0xd1, 0x59, 0x15, 0x37,
  0x0a, 0xa4, 0x16, 0x37, 0x61, 0x27, 0x85, 0x36, 0x0c, 0xb2, 0xc4, 0x36,
  0xc8, 0x7a, 0x82, 0x36, 0xbf, 0x10, 0x81, 0x36, 0x8f, 0xe1, 0x03, 0x37,
  0x62, 0x05, 0xfc, 0x36, 0x75, 0x60, 0xee, 0x36, 0x36, 0xa5, 0x0a, 0x37,
  0xeb, 0x4c, 0xe5, 0x36, 0xbc, 0x5a, 0x0f, 0x37, 0x7a, 0x6b, 0x18, 0x37,
  0x1f, 0xbc, 0x19, 0x37, 0xb8, 0x8c, 0x7c, 0x36, 0xf0, 0x11, 0x1f, 0x37,
  0xd9, 0xf6, 0x23, 0x37, 0xb6, 0x09, 0xc8, 0x36, 0x14, 0xd1, 0x20, 0x37,
  0x12, 0x00, 0x00, 0x00, 0x74, 0x66, 0x6c, 0x2e, 0x70, 0x73, 0x65, 0x75,
  0x64, 0x6f, 0x5f, 0x71, 0x63, 0x6f, 0x6e, 0x73, 0x74, 0x34, 0x00, 0x00,
  0x01, 0x00, 0x00, 0x00, 0x20, 0x00, 0x00, 0x00, 0x6a, 0xfb, 0xff, 0xff,
  0x00, 0x00, 0x00, 0x01, 0x14, 0x00, 0x00, 0x00, 0xa8, 0x01, 0x00, 0x00,
  0x06, 0x00, 0x00, 0x00, 0x00, 0x00, 0x00, 0x09, 0xb4, 0x01, 0x00, 0x00,
  0xe4, 0xfa, 0xff, 0xff, 0x08, 0x00, 0x00, 0x00, 0x0c, 0x01, 0x00, 0x00,
  0x20, 0x00, 0x00, 0x00, 0x00, 0x00, 0x00, 0x00, 0x00, 0x00, 0x00, 0x00,
  0x00, 0x00, 0x00, 0x00, 0x00, 0x00, 0x00, 0x00, 0x00, 0x00, 0x00, 0x00,
  0x00, 0x00, 0x00, 0x00, 0x00, 0x00, 0x00, 0x00, 0x00, 0x00, 0x00, 0x00,
  0x00, 0x00, 0x00, 0x00, 0x00, 0x00, 0x00, 0x00, 0x00, 0x00, 0x00, 0x00,
  0x00, 0x00, 0x00, 0x00, 0x00, 0x00, 0x00, 0x00, 0x00, 0x00, 0x00, 0x00,
  0x00, 0x00, 0x00, 0x00, 0x00, 0x00, 0x00, 0x00, 0x00, 0x00, 0x00, 0x00,
  0x00, 0x00, 0x00, 0x00, 0x00, 0x00, 0x00, 0x00, 0x00, 0x00, 0x00, 0x00,
  0x00, 0x00, 0x00, 0x00, 0x00, 0x00, 0x00, 0x00, 0x00, 0x00, 0x00, 0x00,
  0x00, 0x00, 0x00, 0x00, 0x00, 0x00, 0x00, 0x00, 0x00, 0x00, 0x00, 0x00,
  0x00, 0x00, 0x00, 0x00, 0x00, 0x00, 0x00, 0x00, 0x00, 0x00, 0x00, 0x00,
  0x00, 0x00, 0x00, 0x00, 0x00, 0x00, 0x00, 0x00, 0x00, 0x00, 0x00, 0x00,
  0x00, 0x00, 0x00, 0x00, 0x00, 0x00, 0x00, 0x00, 0x00, 0x00, 0x00, 0x00,
  0x00, 0x00, 0x00, 0x00, 0x00, 0x00, 0x00, 0x00, 0x00, 0x00, 0x00, 0x00,
  0x00, 0x00, 0x00, 0x00, 0x00, 0x00, 0x00, 0x00, 0x00, 0x00, 0x00, 0x00,
  0x00, 0x00, 0x00, 0x00, 0x00, 0x00, 0x00, 0x00, 0x00, 0x00, 0x00, 0x00,
  0x00, 0x00, 0x00, 0x00, 0x00, 0x00, 0x00, 0x00, 0x00, 0x00, 0x00, 0x00,
  0x00, 0x00, 0x00, 0x00, 0x00, 0x00, 0x00, 0x00, 0x00, 0x00, 0x00, 0x00,
  0x00, 0x00, 0x00, 0x00, 0x00, 0x00, 0x00, 0x00, 0x00, 0x00, 0x00, 0x00,
  0x00, 0x00, 0x00, 0x00, 0x00, 0x00, 0x00, 0x00, 0x00, 0x00, 0x00, 0x00,
  0x00, 0x00, 0x00, 0x00, 0x00, 0x00, 0x00, 0x00, 0x00, 0x00, 0x00, 0x00,
  0x00, 0x00, 0x00, 0x00, 0x00, 0x00, 0x00, 0x00, 0x00, 0x00, 0x00, 0x00,
  0x00, 0x00, 0x00, 0x00, 0x00, 0x00, 0x00, 0x00, 0x00, 0x00, 0x00, 0x00,
  0x20, 0x00, 0x00, 0x00, 0xc2, 0xbf, 0xcf, 0x3a, 0xd8, 0x01, 0x34, 0x3b,
  0x4f, 0x4b, 0x15, 0x3b, 0xd6, 0x4c, 0x2f, 0x3b, 0x3b, 0x3a, 0xcd, 0x3a,
  0x91, 0xfc, 0x39, 0x3b, 0xa6, 0xe6, 0x3a, 0x3b, 0x78, 0x3f, 0xc3, 0x3a,
  0x24, 0xc3, 0x35, 0x3b, 0xa7, 0xe7, 0x3d, 0x3b, 0xf8, 0x0f, 0x44, 0x3b,
  0xda, 0x13, 0x23, 0x3b, 0xe7, 0x56, 0x3a, 0x3b, 0x2f, 0x62, 0x49, 0x3b,
  0x1b, 0xb2, 0x3c, 0x3b, 0x24, 0xba, 0xcd, 0x3a, 0x88, 0x5b, 0xe1, 0x3a,
  0x63, 0xe7, 0x2f, 0x3b, 0x18, 0x77, 0x3f, 0x3b, 0x4c, 0x09, 0xd9, 0x3a,
  0x4b, 0x22, 0x23, 0x3b, 0x3d, 0xf0, 0x56, 0x3b, 0xbf, 0x3b, 0x57, 0x3b,
  0x30, 0xa4, 0x42, 0x3b, 0x11, 0x28, 0xd2, 0x3a, 0x81, 0x7d, 0x5e, 0x3b,
  0x87, 0x6a, 0x3d, 0x3b, 0x18, 0x01, 0x43, 0x3b, 0x1c, 0xc9, 0x43, 0x3b,
  0xef, 0x22, 0x1c, 0x3b, 0x0d, 0x6d, 0x47, 0x3b, 0xae, 0x8a, 0x2e, 0x3b,
  0x12, 0x00, 0x00, 0x00, 0x74, 0x66, 0x6c, 0x2e, 0x70, 0x73, 0x65, 0x75,
  0x64, 0x6f, 0x5f, 0x71, 0x63, 0x6f, 0x6e, 0x73, 0x74, 0x33, 0x00, 0x00,
  0x02, 0x00, 0x00, 0x00, 0x20, 0x00, 0x00, 0x00, 0x80, 0x00, 0x00, 0x00,
  0x42, 0xfd, 0xff, 0xff, 0x00, 0x00, 0x00, 0x01, 0x14, 0x00, 0x00, 0x00,
  0xa4, 0x01, 0x00, 0x00, 0x05, 0x00, 0x00, 0x00, 0x00, 0x00, 0x00, 0x02,
  0xb0, 0x01, 0x00, 0x00, 0xbc, 0xfc, 0xff, 0xff, 0x08, 0x00, 0x00, 0x00,
  0x08, 0x01, 0x00, 0x00, 0x20, 0x00, 0x00, 0x00, 0x00, 0x00, 0x00, 0x00,
  0x00, 0x00, 0x00, 0x00, 0x00, 0x00, 0x00, 0x00, 0x00, 0x00, 0x00, 0x00,
  0x00, 0x00, 0x00, 0x00, 0x00, 0x00, 0x00, 0x00, 0x00, 0x00, 0x00, 0x00,
  0x00, 0x00, 0x00, 0x00, 0x00, 0x00, 0x00, 0x00, 0x00, 0x00, 0x00, 0x00,
  0x00, 0x00, 0x00, 0x00, 0x00, 0x00, 0x00, 0x00, 0x00, 0x00, 0x00, 0x00,
  0x00, 0x00, 0x00, 0x00, 0x00, 0x00, 0x00, 0x00, 0x00, 0x00, 0x00, 0x00,
  0x00, 0x00, 0x00, 0x00, 0x00, 0x00, 0x00, 0x00, 0x00, 0x00, 0x00, 0x00,
  0x00, 0x00, 0x00, 0x00, 0x00, 0x00, 0x00, 0x00, 0x00, 0x00, 0x00, 0x00,
  0x00, 0x00, 0x00, 0x00, 0x00, 0x00, 0x00, 0x00, 0x00, 0x00, 0x00, 0x00,
  0x00, 0x00, 0x00, 0x00, 0x00, 0x00, 0x00, 0x00, 0x00, 0x00, 0x00, 0x00,
  0x00, 0x00, 0x00, 0x00, 0x00, 0x00, 0x00, 0x00, 0x00, 0x00, 0x00, 0x00,
  0x00, 0x00, 0x00, 0x00, 0x00, 0x00, 0x00, 0x00, 0x00, 0x00, 0x00, 0x00,
