const unsigned char model[] = {
  0x20, 0x00, 0x00, 0x00, 0x54, 0x46, 0x4c, 0x33, 0x00, 0x00, 0x00, 0x00,
  0x14, 0x00, 0x20, 0x00, 0x1c, 0x00, 0x18, 0x00, 0x14, 0x00, 0x10, 0x00,
  0x0c, 0x00, 0x00, 0x00, 0x08, 0x00, 0x04, 0x00, 0x14, 0x00, 0x00, 0x00,
  0x1c, 0x00, 0x00, 0x00, 0x88, 0x00, 0x00, 0x00, 0x08, 0x01, 0x00, 0x00,
  0x64, 0x2b, 0x00, 0x00, 0x74, 0x2b, 0x00, 0x00, 0x64, 0x42, 0x00, 0x00,
  0x03, 0x00, 0x00, 0x00, 0x01, 0x00, 0x00, 0x00, 0x04, 0x00, 0x00, 0x00,
  0x8a, 0xd3, 0xff, 0xff, 0x0c, 0x00, 0x00, 0x00, 0x1c, 0x00, 0x00, 0x00,
  0x38, 0x00, 0x00, 0x00, 0x0f, 0x00, 0x00, 0x00, 0x73, 0x65, 0x72, 0x76,
  0x69, 0x6e, 0x67, 0x5f, 0x64, 0x65, 0x66, 0x61, 0x75, 0x6c, 0x74, 0x00,
  0x01, 0x00, 0x00, 0x00, 0x04, 0x00, 0x00, 0x00, 0x6c, 0xff, 0xff, 0xff,
  0x15, 0x00, 0x00, 0x00, 0x04, 0x00, 0x00, 0x00, 0x07, 0x00, 0x00, 0x00,
  0x64, 0x65, 0x6e, 0x73, 0x65, 0x5f, 0x33, 0x00, 0x01, 0x00, 0x00, 0x00,
  0x04, 0x00, 0x00, 0x00, 0x6a, 0xd4, 0xff, 0xff, 0x04, 0x00, 0x00, 0x00,
  0x0e, 0x00, 0x00, 0x00, 0x63, 0x6f, 0x6e, 0x76, 0x32, 0x64, 0x5f, 0x33,
  0x5f, 0x69, 0x6e, 0x70, 0x75, 0x74, 0x00, 0x00, 0x03, 0x00, 0x00, 0x00,
  0x5c, 0x00, 0x00, 0x00, 0x2c, 0x00, 0x00, 0x00, 0x04, 0x00, 0x00, 0x00,
  0xb8, 0xff, 0xff, 0xff, 0x19, 0x00, 0x00, 0x00, 0x04, 0x00, 0x00, 0x00,
  0x13, 0x00, 0x00, 0x00, 0x43, 0x4f, 0x4e, 0x56, 0x45, 0x52, 0x53, 0x49,
  0x4f, 0x4e, 0x5f, 0x4d, 0x45, 0x54, 0x41, 0x44, 0x41, 0x54, 0x41, 0x00,
  0xdc, 0xff, 0xff, 0xff, 0x18, 0x00, 0x00, 0x00, 0x04, 0x00, 0x00, 0x00,
  0x13, 0x00, 0x00, 0x00, 0x6d, 0x69, 0x6e, 0x5f, 0x72, 0x75, 0x6e, 0x74,
  0x69, 0x6d, 0x65, 0x5f, 0x76, 0x65, 0x72, 0x73, 0x69, 0x6f, 0x6e, 0x00,
  0x08, 0x00, 0x0c, 0x00, 0x08, 0x00, 0x04, 0x00, 0x08, 0x00, 0x00, 0x00,
  0x17, 0x00, 0x00, 0x00, 0x04, 0x00, 0x00, 0x00, 0x13, 0x00, 0x00, 0x00,
  0x6d, 0x69, 0x6e, 0x5f, 0x72, 0x75, 0x6e, 0x74, 0x69, 0x6d, 0x65, 0x5f,
  0x76, 0x65, 0x72, 0x73, 0x69, 0x6f, 0x6e, 0x00, 0x1a, 0x00, 0x00, 0x00,
  0x58, 0x2a, 0x00, 0x00, 0x50, 0x2a, 0x00, 0x00, 0x38, 0x2a, 0x00, 0x00,
  0x1c, 0x2a, 0x00, 0x00, 0xac, 0x29, 0x00, 0x00, 0x1c, 0x29, 0x00, 0x00,
  0x0c, 0x19, 0x00, 0x00, 0x7c, 0x18, 0x00, 0x00, 0x6c, 0x06, 0x00, 0x00,
  0x1c, 0x06, 0x00, 0x00, 0x8c, 0x01, 0x00, 0x00, 0x5c, 0x01, 0x00, 0x00,
  0x04, 0x01, 0x00, 0x00, 0xfc, 0x00, 0x00, 0x00, 0xf4, 0x00, 0x00, 0x00,
  0xec, 0x00, 0x00, 0x00, 0xe4, 0x00, 0x00, 0x00, 0xdc, 0x00, 0x00, 0x00,
  0xd4, 0x00, 0x00, 0x00, 0xcc, 0x00, 0x00, 0x00, 0xc4, 0x00, 0x00, 0x00,
  0xbc, 0x00, 0x00, 0x00, 0xb4, 0x00, 0x00, 0x00, 0x94, 0x00, 0x00, 0x00,
  0x74, 0x00, 0x00, 0x00, 0x04, 0x00, 0x00, 0x00, 0x76, 0xd5, 0xff, 0xff,
  0x04, 0x00, 0x00, 0x00, 0x60, 0x00, 0x00, 0x00, 0x0c, 0x00, 0x00, 0x00,
  0x08, 0x00, 0x0e, 0x00, 0x08, 0x00, 0x04, 0x00, 0x08, 0x00, 0x00, 0x00,
  0x10, 0x00, 0x00, 0x00, 0x28, 0x00, 0x00, 0x00, 0x00, 0x00, 0x06, 0x00,
  0x08, 0x00, 0x04, 0x00, 0x06, 0x00, 0x00, 0x00, 0x04, 0x00, 0x00, 0x00,
  0x01, 0x00, 0x00, 0x00, 0xeb, 0x03, 0x00, 0x00, 0x0c, 0x00, 0x18, 0x00,
  0x14, 0x00, 0x10, 0x00, 0x0c, 0x00, 0x04, 0x00, 0x0c, 0x00, 0x00, 0x00,
  0xcc, 0xc8, 0x99, 0x98, 0xcf, 0xcc, 0xbd, 0x79, 0x02, 0x00, 0x00, 0x00,
  0x02, 0x00, 0x00, 0x00, 0x04, 0x00, 0x00, 0x00, 0x06, 0x00, 0x00, 0x00,
  0x32, 0x2e, 0x31, 0x39, 0x2e, 0x30, 0x00, 0x00, 0xe2, 0xd5, 0xff, 0xff,
  0x04, 0x00, 0x00, 0x00, 0x10, 0x00, 0x00, 0x00, 0x00, 0x00, 0x00, 0x00,
  0x00, 0x00, 0x00, 0x00, 0x00, 0x00, 0x00, 0x00, 0x00, 0x00, 0x00, 0x00,
  0xfe, 0xd5, 0xff, 0xff, 0x04, 0x00, 0x00, 0x00, 0x10, 0x00, 0x00, 0x00,
  0x31, 0x2e, 0x31, 0x34, 0x2e, 0x30, 0x00, 0x00, 0x00, 0x00, 0x00, 0x00,
  0x00, 0x00, 0x00, 0x00, 0x80, 0xc0, 0xff, 0xff, 0x84, 0xc0, 0xff, 0xff,
  0x88, 0xc0, 0xff, 0xff, 0x8c, 0xc0, 0xff, 0xff, 0x90, 0xc0, 0xff, 0xff,
  0x94, 0xc0, 0xff, 0xff, 0x98, 0xc0, 0xff, 0xff, 0x9c, 0xc0, 0xff, 0xff,
  0xa0, 0xc0, 0xff, 0xff, 0xa4, 0xc0, 0xff, 0xff, 0x42, 0xd6, 0xff, 0xff,
  0x04, 0x00, 0x00, 0x00, 0x48, 0x00, 0x00, 0x00, 0x7f, 0x55, 0x00, 0x00,
  0x7a, 0x00, 0x00, 0x00, 0x00, 0x00, 0x00, 0x00, 0x00, 0x00, 0x00, 0x00,
  0x00, 0x00, 0x8c, 0x00, 0x00, 0x00, 0x00, 0x00, 0x00, 0x00, 0x81, 0x00,
  0x6f, 0x6b, 0x00, 0x7f, 0x00, 0x4b, 0x47, 0x00, 0x00, 0x73, 0x00, 0x00,
  0x7f, 0x00, 0x84, 0x7e, 0x00, 0x6a, 0x6d, 0x00, 0x7f, 0x5f, 0x00, 0x00,
  0x00, 0x00, 0x56, 0x67, 0x58, 0x7b, 0x7f, 0x45, 0x77, 0x56, 0x76, 0x00,
  0x00, 0x00, 0x9e, 0x00, 0x00, 0x00, 0x00, 0x7f, 0x96, 0xd6, 0xff, 0xff,
  0x04, 0x00, 0x00, 0x00, 0x20, 0x00, 0x00, 0x00, 0x70, 0xb6, 0xea, 0xff,
  0x00, 0x00, 0x00, 0x40, 0x51, 0x77, 0xef, 0xff, 0x67, 0x7f, 0xe2, 0xff,
  0xf7, 0x74, 0xf0, 0xff, 0x6d, 0x61, 0xee, 0xff, 0xe9, 0x80, 0xdd, 0xff,
  0xd2, 0xcc, 0x1b, 0x00, 0xc2, 0xd6, 0xff, 0xff, 0x04, 0x00, 0x00, 0x00,
  0x80, 0x04, 0x00, 0x00, 0x5d, 0xae, 0x54, 0x00, 0xb8, 0x54, 0x00, 0x00,
  0xb3, 0x00, 0x00, 0xab, 0x00, 0x00, 0x00, 0x4d, 0x00, 0x00, 0x00, 0x57,
  0x61, 0x00, 0xaa, 0x62, 0x00, 0x00, 0x00, 0xaa, 0xb6, 0x56, 0x00, 0x00,
  0x00, 0x49, 0x00, 0x00, 0x81, 0x00, 0x00, 0x00, 0x00, 0xba, 0x00, 0x00,
  0x00, 0x00, 0x00, 0x50, 0x59, 0x00, 0x00, 0x00, 0x00, 0xaa, 0x00, 0x00,
  0x00, 0x6a, 0x58, 0x00, 0x00, 0x00, 0x00, 0x00, 0x45, 0x00, 0x00, 0x00,
  0x7d, 0x46, 0x00, 0x00, 0x49, 0x00, 0x00, 0x6a, 0x47, 0x00, 0x00, 0x68,
  0x64, 0x00, 0x65, 0x60, 0x00, 0x00, 0x4e, 0x00, 0xb9, 0xb8, 0x66, 0x00,
  0x00, 0xbb, 0xb7, 0x00, 0x00, 0x00, 0x00, 0x00, 0x00, 0x00, 0x00, 0x00,
  0x00, 0x00, 0x00, 0x4d, 0x00, 0x4a, 0x00, 0x00, 0x00, 0x00, 0xb1, 0x00,
  0x87, 0x00, 0x5b, 0x00, 0x8d, 0x00, 0x00, 0x00, 0x00, 0x00, 0x81, 0x63,
  0x00, 0x6f, 0x00, 0x00, 0x00, 0x00, 0x00, 0x00, 0x00, 0x59, 0xa4, 0x00,
  0x00, 0x00, 0xb2, 0x5d, 0x5d, 0xba, 0x00, 0x00, 0xb1, 0x4e, 0x52, 0xca,
  0x46, 0x81, 0x37, 0x00, 0x00, 0x00, 0x00, 0xa8, 0x00, 0x00, 0x4e, 0x00,
  0xca, 0x55, 0x00, 0x00, 0xcd, 0x00, 0x00, 0x00, 0xbd, 0x00, 0x40, 0x96,
  0x4c, 0xc2, 0x00, 0x00, 0x00, 0xca, 0xc1, 0xac, 0x00, 0x00, 0x00, 0x00,
  0x00, 0x00, 0x00, 0xc9, 0xac, 0x42, 0xbf, 0x00, 0x00, 0x00, 0x00, 0x00,
  0x00, 0xcc, 0x00, 0xcd, 0xac, 0x00, 0x00, 0x00, 0x00, 0x00, 0x00, 0xcb,
  0x00, 0x00, 0xb9, 0x00, 0x6a, 0x00, 0x00, 0x00, 0x00, 0x4b, 0x00, 0x00,
  0x00, 0x00, 0xc8, 0x53, 0x5f, 0x64, 0x73, 0x00, 0x00, 0x00, 0x00, 0x00,
  0x00, 0x5e, 0x3b, 0xb5, 0x37, 0xc0, 0x00, 0xc3, 0xbb, 0xae, 0xc5, 0x00,
  0xa7, 0x00, 0xb6, 0x00, 0x00, 0x3e, 0x00, 0x00, 0x00, 0x00, 0x00, 0x00,
  0x00, 0x00, 0x00, 0x42, 0x00, 0x00, 0x00, 0xaf, 0xc7, 0x00, 0x00, 0x00,
  0x81, 0x00, 0x00, 0x00, 0x00, 0x00, 0x00, 0x00, 0x00, 0x00, 0x00, 0x00,
  0x00, 0x92, 0x00, 0x64, 0x00, 0x00, 0x00, 0x00, 0x00, 0x88, 0x94, 0x00,
  0x00, 0x7f, 0x9a, 0x00, 0xa0, 0x00, 0x6c, 0x00, 0x00, 0x58, 0x00, 0x00,
  0x00, 0x00, 0xa2, 0x00, 0xa9, 0x7a, 0x8d, 0x00, 0x00, 0x00, 0x00, 0x9c,
  0x00, 0x00, 0x00, 0x98, 0x00, 0x00, 0x00, 0x00, 0x62, 0x00, 0x00, 0x00,
  0xa5, 0x00, 0x00, 0x5e, 0x75, 0xa8, 0x00, 0x00, 0x64, 0x00, 0x00, 0x00,
  0x6a, 0x70, 0x00, 0x51, 0xa7, 0x00, 0x9c, 0xae, 0x83, 0x00, 0x00, 0x88,
  0x00, 0x53, 0x00, 0x00, 0x00, 0x48, 0xcc, 0x00, 0x00, 0x3e, 0xcf, 0x4a,
  0xbe, 0x7f, 0x00, 0x00, 0x5c, 0x00, 0xc2, 0x00, 0x00, 0x00, 0x00, 0x00,
  0x00, 0x00, 0x00, 0x38, 0x00, 0x00, 0x00, 0x00, 0x6c, 0xc2, 0x00, 0x65,
  0x2e, 0x00, 0x46, 0xbc, 0x00, 0x00, 0x00, 0x00, 0x00, 0x00, 0x00, 0x3c,
  0x33, 0x51, 0x00, 0x55, 0xd0, 0x38, 0x00, 0x00, 0x77, 0x00, 0x00, 0x52,
  0xcc, 0x30, 0x00, 0xc9, 0x6c, 0x00, 0x35, 0x00, 0x00, 0x00, 0x00, 0x00,
  0x00, 0x00, 0x00, 0x4e, 0x00, 0x00, 0x00, 0xc5, 0x00, 0x00, 0x4a, 0x00,
  0x00, 0x43, 0x00, 0x00, 0x00, 0xaa, 0xa3, 0x00, 0xc7, 0x00, 0x00, 0xbd,
  0x00, 0xb3, 0x00, 0x00, 0x00, 0x00, 0x00, 0x00, 0x00, 0x32, 0x00, 0x81,
  0x00, 0x00, 0x00, 0xcc, 0x00, 0x00, 0x00, 0x00, 0x00, 0x32, 0x00, 0xb4,
  0x00, 0x00, 0x00, 0x00, 0x00, 0x00, 0x3a, 0x3d, 0xcc, 0x00, 0x3c, 0x00,
  0x00, 0x00, 0x00, 0x57, 0x00, 0x41, 0x00, 0x00, 0x5f, 0x3c, 0x00, 0x5e,
  0x7e, 0x00, 0x00, 0x45, 0x3d, 0x00, 0xd6, 0x00, 0x00, 0x00, 0x3a, 0x31,
  0x00, 0x46, 0x00, 0x00, 0xdb, 0xd5, 0xcd, 0x7f, 0x00, 0x00, 0xd8, 0x00,
  0x27, 0x00, 0xd9, 0x4d, 0x2d, 0x2d, 0x00, 0x00, 0x5d, 0xd7, 0x26, 0x53,
  0x00, 0x00, 0x00, 0xca, 0xd1, 0x26, 0x00, 0x3f, 0xd6, 0x00, 0x00, 0x00,
  0x00, 0x2a, 0x00, 0x00, 0x00, 0x50, 0x2d, 0x26, 0x00, 0x00, 0x00, 0x00,
  0xdc, 0x00, 0x00, 0xce, 0x2a, 0x30, 0xd8, 0x00, 0x00, 0x00, 0x00, 0x00,
  0x00, 0x00, 0x00, 0x00, 0x00, 0x00, 0x00, 0x3b, 0x00, 0x00, 0x3d, 0x00,
  0x00, 0x97, 0x30, 0x00, 0x00, 0x00, 0x00, 0xc7, 0x00, 0x9c, 0x00, 0x00,
  0x00, 0x39, 0x00, 0x81, 0x00, 0x00, 0xc4, 0x62, 0x5a, 0x56, 0x00, 0x00,
  0x00, 0x00, 0x00, 0x00, 0x00, 0x00, 0x3b, 0x9e, 0x00, 0x00, 0x00, 0xca,
  0xd4, 0x00, 0x00, 0xd3, 0x00, 0x75, 0x00, 0x33, 0x52, 0x00, 0x00, 0x4d,
  0xa3, 0xb8, 0x00, 0x00, 0xae, 0xc1, 0xc9, 0x40, 0x00, 0x00, 0x00, 0xc2,
  0x00, 0xd2, 0xb1, 0x00, 0x00, 0x00, 0x00, 0xd2, 0x00, 0x00, 0x00, 0x00,
  0x00, 0x00, 0xca, 0x00, 0x36, 0x30, 0x00, 0x9f, 0x00, 0xbc, 0x00, 0x00,
  0x00, 0x31, 0x00, 0x00, 0x00, 0x00, 0x00, 0x00, 0x50, 0xc3, 0x00, 0x33,
  0x4f, 0x00, 0xca, 0x00, 0x00, 0x50, 0x3e, 0x00, 0x00, 0x00, 0x2d, 0x34,
  0x00, 0x3c, 0x00, 0xab, 0xb7, 0x00, 0x00, 0xa9, 0x00, 0xad, 0xb3, 0x00,
  0x00, 0x00, 0x00, 0x00, 0x32, 0x00, 0x00, 0x7f, 0x41, 0x00, 0x00, 0x00,
  0x00, 0x00, 0x00, 0xc9, 0x00, 0xc9, 0x47, 0x00, 0x4c, 0x00, 0x00, 0x49,
  0xbe, 0x00, 0x00, 0x00, 0x00, 0xb4, 0x4e, 0x00, 0x00, 0xbb, 0x00, 0xbc,
  0x99, 0x39, 0x44, 0xaf, 0x58, 0x3a, 0x00, 0x43, 0x00, 0x00, 0x00, 0x4e,
  0x49, 0x00, 0x00, 0x00, 0x00, 0x00, 0x00, 0x00, 0x00, 0x93, 0xad, 0xc7,
  0x00, 0x00, 0x00, 0x81, 0x34, 0x00, 0x00, 0x00, 0x00, 0x4d, 0x00, 0x00,
  0x40, 0xa6, 0x00, 0x3f, 0x8c, 0xc1, 0x00, 0x00, 0x00, 0x92, 0x00, 0x42,
  0x00, 0x00, 0x00, 0x00, 0x00, 0xc4, 0x00, 0x00, 0xba, 0x47, 0x00, 0x81,
  0x00, 0x8d, 0x00, 0x3f, 0xa6, 0x37, 0x41, 0xd3, 0x00, 0xa6, 0x00, 0x48,
  0xc4, 0x2f, 0x00, 0xcc, 0x00, 0xd7, 0x00, 0x4b, 0x00, 0x00, 0x00, 0xd5,
  0x00, 0xb5, 0x00, 0x00, 0x00, 0x00, 0x00, 0x93, 0x00, 0x00, 0x3e, 0x00,
  0x00, 0x00, 0xd4, 0xd7, 0x00, 0x00, 0xce, 0x00, 0x00, 0x36, 0x00, 0xba,
  0x00, 0x00, 0x00, 0xc3, 0xae, 0x00, 0xc5, 0x00, 0x00, 0xb3, 0x00, 0x00,
  0xbd, 0xc5, 0x00, 0x00, 0x00, 0x7f, 0x00, 0x00, 0x60, 0x00, 0x00, 0x52,
  0x00, 0x4b, 0x00, 0x00, 0x48, 0x00, 0x00, 0x5b, 0x00, 0x3c, 0x00, 0x00,
  0x57, 0x00, 0x00, 0x65, 0x00, 0x47, 0x00, 0x00, 0x32, 0xcd, 0x00, 0x00,
  0xc3, 0x47, 0x00, 0xd5, 0x4b, 0x00, 0xca, 0x00, 0x00, 0x00, 0x00, 0x2e,
  0x3c, 0x00, 0x23, 0x4c, 0x00, 0x61, 0xd9, 0x00, 0x2d, 0x00, 0x00, 0x00,
  0x00, 0x47, 0x00, 0x00, 0x4a, 0x00, 0x00, 0x00, 0x31, 0x00, 0x31, 0x00,
  0x39, 0x00, 0x00, 0x00, 0x00, 0x00, 0x00, 0x00, 0x00, 0x00, 0x51, 0xd0,
  0x4c, 0x00, 0x00, 0x33, 0xc3, 0x00, 0x38, 0x81, 0x00, 0x00, 0x00, 0x2c,
  0xb8, 0x00, 0xd1, 0x85, 0x2b, 0x00, 0x00, 0x00, 0x00, 0x00, 0x00, 0x00,
  0x00, 0x00, 0x34, 0x00, 0x00, 0x2b, 0x00, 0xd1, 0xd6, 0x00, 0x00, 0x00,
  0xcb, 0x00, 0x00, 0xac, 0x00, 0x00, 0x00, 0xbd, 0x00, 0x00, 0x00, 0x00,
  0xd1, 0x00, 0x00, 0x2e, 0x37, 0x00, 0x00, 0x2f, 0x00, 0x2d, 0x00, 0xcb,
  0x00, 0xcd, 0x00, 0xce, 0x00, 0x7f, 0x00, 0x00, 0x37, 0x00, 0x00, 0x49,
  0x00, 0x3e, 0x00, 0x00, 0x2d, 0x00, 0xd8, 0x62, 0x00, 0xd0, 0x00, 0xda,
  0x00, 0x00, 0x00, 0x56, 0x00, 0x5f, 0x00, 0x00, 0x48, 0xd9, 0x00, 0x38,
  0xc7, 0x4e, 0x00, 0x00, 0x00, 0x00, 0xcf, 0x6c, 0x23, 0xd0, 0x25, 0x00,
  0x3d, 0x00, 0x27, 0x2f, 0x00, 0x00, 0x29, 0xd8, 0x54, 0x2a, 0x00, 0x36,
  0xca, 0x00, 0x32, 0x00, 0x00, 0x2a, 0xd7, 0x3c, 0x00, 0x49, 0x00, 0x00,
  0x00, 0x2e, 0x28, 0x00, 0x00, 0x00, 0x3a, 0xb9, 0x00, 0xa8, 0x00, 0x00,
  0x00, 0x00, 0x39, 0x00, 0xc5, 0x54, 0x00, 0x00, 0x00, 0x00, 0x00, 0x68,
  0xb0, 0x00, 0x00, 0x00, 0x00, 0x00, 0xb5, 0x00, 0x00, 0x4a, 0x00, 0x00,
  0x00, 0xa6, 0x00, 0x00, 0x81, 0xbd, 0x00, 0x00, 0x00, 0x00, 0x00, 0x00,
  0xa2, 0xb6, 0x00, 0xa9, 0x5b, 0x00, 0x00, 0x78, 0x00, 0x00, 0x5d, 0x55,
  0x00, 0xc5, 0x00, 0x00, 0xb7, 0x00, 0x00, 0xb5, 0x9c, 0xba, 0x00, 0x40,
  0xb4, 0x00, 0x00, 0x00, 0x4e, 0xdb, 0xff, 0xff, 0x04, 0x00, 0x00, 0x00,
  0x40, 0x00, 0x00, 0x00, 0xd5, 0xd3, 0x00, 0x00, 0xc1, 0xd7, 0xfe, 0xff,
  0xb4, 0xc4, 0x00, 0x00, 0xb9, 0xb4, 0xff, 0xff, 0x8f, 0xe8, 0xff, 0xff,
  0xb1, 0x9f, 0x00, 0x00, 0x76, 0x14, 0x01, 0x00, 0xbc, 0x12, 0x00, 0x00,
  0x15, 0xe2, 0xff, 0xff, 0xbb, 0xa8, 0xff, 0xff, 0x92, 0x29, 0xfe, 0xff,
  0x1d, 0xa4, 0x00, 0x00, 0x7f, 0x6c, 0x00, 0x00, 0x97, 0x9f, 0x00, 0x00,
  0x1b, 0x16, 0x00, 0x00, 0x8a, 0x3f, 0x00, 0x00, 0x9a, 0xdb, 0xff, 0xff,
  0x04, 0x00, 0x00, 0x00, 0x00, 0x12, 0x00, 0x00, 0x00, 0xbd, 0xc7, 0x00,
  0x00, 0x00, 0x00, 0xb1, 0x00, 0x2d, 0x00, 0xcc, 0x00, 0xcb, 0x00, 0xd5,
  0x00, 0x00, 0xad, 0x00, 0x00, 0x00, 0xda, 0x40, 0x00, 0x4b, 0x00, 0xbf,
  0x59, 0x00, 0x53, 0x00, 0x00, 0x00, 0xb8, 0xd8, 0x00, 0x00, 0x00, 0x00,
  0x00, 0x3c, 0x00, 0x00, 0x3e, 0x00, 0x4e, 0x2b, 0x00, 0x00, 0xd1, 0x00,
  0x36, 0x00, 0x00, 0x00, 0x00, 0x00, 0x00, 0xc0, 0x00, 0x34, 0x00, 0x00,
  0x3c, 0x00, 0x00, 0x62, 0xcf, 0x2e, 0xb9, 0x27, 0x00, 0x00, 0x00, 0xbe,
  0x32, 0x00, 0x7f, 0x00, 0x00, 0x00, 0x00, 0x00, 0x00, 0x27, 0xbd, 0x00,
  0x2b, 0x41, 0x00, 0x00, 0x00, 0x00, 0x00, 0x3f, 0x00, 0x00, 0x00, 0x00,
  0x00, 0x00, 0x00, 0x00, 0x00, 0x00, 0x41, 0x00, 0xca, 0x6e, 0x00, 0x2e,
  0x00, 0x00, 0x00, 0x00, 0x00, 0xd1, 0x00, 0x00, 0x00, 0x00, 0x00, 0x4b,
  0x4f, 0x46, 0x00, 0x00, 0xba, 0x4e, 0x00, 0x54, 0xcf, 0x00, 0x00, 0x00,
  0x00, 0x48, 0x29, 0x00, 0x00, 0x00, 0x00, 0x00, 0x9b, 0x00, 0x7a, 0x9f,
  0x00, 0x00, 0x78, 0x00, 0x00, 0x00, 0x00, 0x65, 0x5f, 0x00, 0x60, 0x00,
  0x9d, 0x94, 0x9c, 0x7a, 0x00, 0x00, 0x00, 0x00, 0x00, 0x00, 0x00, 0x00,
  0x00, 0x6f, 0xa5, 0x00, 0x00, 0xa8, 0x00, 0x00, 0x91, 0x00, 0x00, 0x90,
  0x00, 0x00, 0xad, 0x89, 0x56, 0x00, 0x59, 0x00, 0x00, 0x00, 0x93, 0x00,
  0x00, 0x00, 0x00, 0x00, 0x00, 0x90, 0x83, 0x00, 0x00, 0x00, 0x8f, 0x65,
  0x00, 0x00, 0x00, 0x00, 0x65, 0x00, 0xa8, 0x00, 0x00, 0x00, 0x00, 0x63,
  0x67, 0x98, 0x00, 0x00, 0x00, 0x00, 0x00, 0x00, 0x00, 0x00, 0x76, 0x00,
  0x00, 0x00, 0x00, 0x00, 0x00, 0x00, 0x00, 0x00, 0xa1, 0x00, 0x00, 0x00,
  0x00, 0x00, 0x00, 0x00, 0x00, 0x00, 0xa6, 0x00, 0x00, 0x00, 0x00, 0xac,
  0x00, 0x00, 0x00, 0x00, 0x60, 0x00, 0x00, 0x00, 0x66, 0x9b, 0x9c, 0x00,
  0x00, 0x8d, 0x00, 0x00, 0x00, 0x00, 0x00, 0x00, 0x6e, 0x5e, 0x00, 0x96,
  0x75, 0x81, 0x00, 0x00, 0x00, 0x91, 0x00, 0x8c, 0x00, 0x48, 0xd1, 0x00,
  0x00, 0x5d, 0x63, 0x7f, 0x00, 0x00, 0xcc, 0x00, 0x54, 0x31, 0x4f, 0x00,
  0x00, 0x3e, 0x9b, 0x00, 0x00, 0x00, 0x00, 0x00, 0x00, 0x00, 0x00, 0x00,
  0x00, 0x00, 0x00, 0x39, 0x00, 0xb4, 0x00, 0xaf, 0x00, 0xc2, 0x00, 0x00,
  0x00, 0xb5, 0x00, 0x00, 0xd6, 0x00, 0x00, 0x2d, 0x00, 0x00, 0xd2, 0x00,
  0xd1, 0x2f, 0x00, 0x47, 0xc1, 0x28, 0x00, 0xae, 0x00, 0x00, 0x58, 0x00,
  0x00, 0x49, 0x00, 0x00, 0x00, 0x00, 0x00, 0x00, 0x00, 0x00, 0x2d, 0x4a,
  0x00, 0x2a, 0x00, 0x3d, 0x00, 0x00, 0x4f, 0x00, 0x00, 0x36, 0x2e, 0x00,
  0x46, 0x00, 0x00, 0x4d, 0x00, 0x00, 0xcd, 0x00, 0xd3, 0x00, 0x00, 0x00,
  0x00, 0xd3, 0x00, 0x00, 0x57, 0x00, 0x00, 0x00, 0x00, 0x39, 0x36, 0x00,
  0x00, 0x00, 0x2a, 0x2f, 0x00, 0x00, 0x00, 0x00, 0x00, 0x56, 0x00, 0x00,
  0x00, 0x00, 0x00, 0x00, 0x00, 0x00, 0x4d, 0xd2, 0x00, 0xda, 0x00, 0x49,
  0x66, 0xd9, 0x00, 0x5c, 0x2e, 0x58, 0x2a, 0x00, 0x3e, 0x00, 0xa8, 0xdc,
  0x00, 0x50, 0xde, 0x64, 0x27, 0x22, 0x00, 0xda, 0x22, 0xd2, 0x7f, 0x00,
  0x22, 0xe3, 0x00, 0x00, 0x00, 0x00, 0x00, 0xc5, 0x00, 0x2c, 0x1c, 0x34,
  0x00, 0x00, 0xcc, 0x30, 0x00, 0x00, 0x00, 0x00, 0x00, 0x00, 0x00, 0x24,
  0x00, 0x00, 0x00, 0x1e, 0xbc, 0xc6, 0x00, 0xde, 0x2f, 0x1e, 0x00, 0xd7,
  0x00, 0x00, 0xcf, 0x00, 0x00, 0x00, 0x00, 0x00, 0x2d, 0x00, 0x1c, 0x00,
  0xd1, 0x3e, 0x33, 0x00, 0x00, 0x00, 0xcf, 0xdb, 0x31, 0x00, 0x00, 0x1d,
  0x00, 0x00, 0xda, 0x00, 0x2a, 0x00, 0x2e, 0x00, 0xdd, 0x00, 0x2e, 0x00,
  0x2c, 0x00, 0xd9, 0x00, 0x00, 0xdc, 0xe2, 0x00, 0x00, 0x20, 0x20, 0x2d,
  0xd9, 0x00, 0xb1, 0x00, 0x1b, 0x25, 0x00, 0x00, 0x00, 0x4b, 0x1f, 0x00,
  0x00, 0x00, 0x00, 0x1a, 0x00, 0x00, 0xdd, 0x00, 0x20, 0x22, 0x00, 0x00,
  0x00, 0x21, 0x20, 0xd2, 0x00, 0xc9, 0x00, 0x00, 0x00, 0x00, 0x00, 0x00,
  0x00, 0x00, 0x00, 0x00, 0x00, 0x00, 0x00, 0xcc, 0x00, 0x00, 0xa6, 0x00,
  0xb1, 0x81, 0x00, 0x00, 0x00, 0x00, 0x00, 0xb4, 0x57, 0x00, 0x00, 0x00,
  0x00, 0x49, 0x4c, 0x56, 0x00, 0xab, 0xa7, 0xae, 0x00, 0x00, 0x00, 0x00,
  0x00, 0x00, 0x00, 0x00, 0x00, 0xb5, 0x54, 0x00, 0x00, 0x00, 0x00, 0x00,
  0xa1, 0x00, 0x9e, 0x00, 0x00, 0x00, 0x00, 0x5b, 0x00, 0x9e, 0x00, 0x00,
  0x00, 0x4e, 0x9b, 0x00, 0x00, 0x5e, 0xa1, 0x00, 0x9e, 0x00, 0x00, 0x51,
  0x00, 0x00, 0x00, 0x54, 0xb3, 0x00, 0x53, 0x00, 0xb4, 0xa1, 0xb2, 0xa0,
  0x4d, 0x00, 0x00, 0x56, 0x00, 0x00, 0xba, 0x00, 0x00, 0xb8, 0x00, 0xae,
  0x00, 0x55, 0xb9, 0xad, 0x00, 0x00, 0x00, 0xbb, 0x00, 0xb8, 0xa9, 0x97,
  0xa5, 0xaa, 0xad, 0x00, 0xa4, 0x00, 0x00, 0x00, 0x00, 0x00, 0x00, 0x49,
  0xb5, 0x00, 0x00, 0x00, 0x00, 0x00, 0x00, 0x00, 0x00, 0x00, 0x5a, 0x56,
  0x00, 0x5c, 0x00, 0x51, 0x00, 0x00, 0x00, 0x00, 0x00, 0x00, 0x00, 0x00,
  0x00, 0xa8, 0x00, 0x00, 0x00, 0x00, 0xb3, 0x00, 0x00, 0x00, 0x00, 0x00,
  0x00, 0x00, 0x61, 0x00, 0x00, 0xc6, 0x00, 0x4b, 0x53, 0x00, 0x00, 0x54,
  0x00, 0x47, 0xc7, 0x4b, 0xc5, 0x00, 0x00, 0x4d, 0x00, 0x00, 0x00, 0x00,
  0x49, 0x00, 0xb1, 0x00, 0x00, 0x00, 0x42, 0xb4, 0x00, 0x65, 0xba, 0x00,
  0x00, 0xb4, 0x00, 0x00, 0x00, 0x00, 0x00, 0xb7, 0x00, 0x00, 0x00, 0x00,
  0xc1, 0x68, 0x00, 0x41, 0x00, 0x00, 0xb0, 0x53, 0x00, 0x00, 0x00, 0x00,
  0x00, 0x00, 0xa5, 0x00, 0x3a, 0x00, 0x00, 0x00, 0x3b, 0xb4, 0x00, 0x00,
  0x00, 0x00, 0x00, 0x00, 0x5b, 0x00, 0xb9, 0x00, 0x00, 0x50, 0x00, 0x00,
  0x00, 0x00, 0x00, 0x8b, 0x00, 0x91, 0x00, 0x4c, 0x4d, 0xb9, 0x00, 0x00,
  0x00, 0x48, 0x53, 0x42, 0x48, 0x00, 0x00, 0x00, 0x40, 0x00, 0x4f, 0x00,
  0x81, 0xb3, 0x00, 0x00, 0x00, 0xaf, 0x00, 0x00, 0xb6, 0x00, 0x00, 0x00,
  0x00, 0xbe, 0xb9, 0xb3, 0x00, 0x00, 0x00, 0xa2, 0xac, 0x00, 0x00, 0x00,
  0xa0, 0x00, 0xb3, 0x00, 0x00, 0xa9, 0x50, 0xb2, 0x00, 0x00, 0x38, 0x52,
  0x00, 0x00, 0x00, 0x00, 0x47, 0x00, 0x43, 0x42, 0xcb, 0x00, 0x81, 0x00,
  0x00, 0x00, 0x5b, 0x35, 0x00, 0xad, 0x00, 0x92, 0x3a, 0x00, 0xcb, 0x59,
  0xb4, 0x4e, 0xb3, 0x00, 0xc1, 0x2d, 0x33, 0x00, 0x00, 0x00, 0x00, 0xc4,
  0x00, 0x3d, 0x00, 0x4a, 0x00, 0x61, 0x9c, 0xd0, 0x00, 0xcf, 0x41, 0x00,
  0x00, 0xc6, 0x00, 0x2d, 0x00, 0xb8, 0x00, 0x65, 0x00, 0x3a, 0x00, 0x41,
  0x00, 0xb7, 0x3f, 0x32, 0x00, 0xce, 0x00, 0x00, 0xbd, 0x00, 0x00, 0x00,
  0x00, 0x00, 0x00, 0x31, 0xca, 0x00, 0x40, 0x67, 0x00, 0xcb, 0xd2, 0x00,
  0xce, 0x00, 0xd4, 0x50, 0x00, 0x00, 0xb6, 0x00, 0x45, 0x00, 0x2e, 0xca,
  0xc7, 0x00, 0x00, 0x00, 0x40, 0x00, 0x39, 0x00, 0x00, 0xce, 0x00, 0x00,
  0x00, 0xb8, 0x9c, 0xa9, 0xcc, 0x40, 0x2c, 0xd4, 0xae, 0x00, 0x00, 0xc9,
  0x00, 0x00, 0xca, 0xc9, 0x00, 0x00, 0x00, 0xcc, 0x00, 0xd0, 0x41, 0x00,
  0x00, 0xae, 0x2c, 0xc3, 0x00, 0x34, 0x00, 0x00, 0x00, 0x36, 0x00, 0x52,
  0xd1, 0x00, 0x00, 0xd2, 0x00, 0x00, 0x33, 0x45, 0x00, 0x00, 0xc9, 0x00,
  0xb8, 0x55, 0x79, 0x00, 0x00, 0xbf, 0x00, 0xc0, 0x5b, 0x00, 0xd0, 0x00,
  0xca, 0x00, 0x9d, 0x00, 0x87, 0x00, 0x69, 0xd4, 0x00, 0xae, 0x00, 0x00,
  0x00, 0x37, 0x00, 0x00, 0x00, 0x3c, 0xb8, 0x00, 0x2b, 0xcd, 0x54, 0x3e,
  0x00, 0x00, 0xce, 0x34, 0x36, 0x00, 0x00, 0x00, 0xd0, 0x00, 0x00, 0x00,
  0x00, 0x44, 0x7e, 0x70, 0x32, 0x00, 0x00, 0xc4, 0x40, 0xc5, 0x00, 0x72,
  0x00, 0x00, 0x00, 0x70, 0x00, 0x00, 0x49, 0x34, 0x00, 0x00, 0xcd, 0x00,
  0x2f, 0x4e, 0x00, 0x36, 0x00, 0x7f, 0xd2, 0x4b, 0x63, 0x00, 0xcc, 0x00,
  0x00, 0x00, 0x34, 0x3d, 0x00, 0x00, 0x00, 0x00, 0x00, 0xb4, 0x36, 0x3d,
  0x00, 0x00, 0x00, 0x00, 0x00, 0x00, 0x00, 0xcc, 0x00, 0x00, 0x00, 0xcd,
  0x00, 0xb7, 0x33, 0x00, 0x3a, 0x00, 0x00, 0x00, 0x00, 0x00, 0x70, 0x49,
  0xc0, 0x00, 0xbe, 0xa8, 0x00, 0x9d, 0x00, 0x00, 0x4b, 0x00, 0x00, 0x00,
  0x00, 0x00, 0x00, 0x00, 0x51, 0x00, 0x00, 0x00, 0x81, 0x00, 0x48, 0x9e,
  0x00, 0xa2, 0x00, 0x00, 0x5e, 0x00, 0x00, 0x00, 0x00, 0x00, 0x00, 0x00,
  0x00, 0x00, 0x00, 0x90, 0x00, 0x99, 0x63, 0x00, 0xb5, 0x00, 0x00, 0x00,
  0x76, 0x00, 0x00, 0x00, 0x00, 0x4b, 0x00, 0x00, 0x00, 0x57, 0x72, 0x00,
  0x58, 0x00, 0x00, 0x60, 0x5c, 0x00, 0x00, 0x00, 0x00, 0x00, 0xa2, 0x00,
  0x00, 0x00, 0x00, 0x00, 0x00, 0x00, 0x00, 0x00, 0x00, 0x45, 0xb8, 0x00,
  0x00, 0x67, 0xb4, 0x00, 0x00, 0x49, 0x00, 0x00, 0x48, 0x00, 0x00, 0x00,
  0xb2, 0x4b, 0x00, 0x00, 0xb2, 0x00, 0xb0, 0x00, 0x00, 0x00, 0x00, 0x00,
  0xa0, 0x55, 0x00, 0x00, 0x00, 0x00, 0x00, 0x50, 0x00, 0x00, 0x00, 0x9a,
  0x4d, 0x00, 0x00, 0x00, 0x46, 0x00, 0x00, 0x00, 0xb1, 0x00, 0x9b, 0xbb,
  0x00, 0x00, 0x00, 0x00, 0x00, 0x00, 0x60, 0x5f, 0x5f, 0x00, 0x00, 0x66,
  0x00, 0x00, 0x00, 0x00, 0x00, 0x00, 0x00, 0x00, 0x00, 0x31, 0x4b, 0x00,
  0x2f, 0x00, 0x4f, 0x38, 0x76, 0x00, 0x00, 0x3c, 0x00, 0x00, 0x00, 0x00,
  0x00, 0x00, 0xad, 0x00, 0xc7, 0x3d, 0x00, 0x00, 0x00, 0xd0, 0x00, 0x98,
  0x46, 0x00, 0x36, 0x00, 0x00, 0x34, 0xd2, 0x00, 0x00, 0x00, 0x00, 0x00,
  0x00, 0xca, 0x00, 0xb9, 0x3b, 0x3d, 0x51, 0x00, 0x00, 0x2a, 0x60, 0x3e,
  0x00, 0x00, 0x4d, 0x44, 0x00, 0x00, 0x31, 0x2f, 0x4e, 0x00, 0x00, 0x4e,
  0x00, 0x30, 0xbb, 0x00, 0x2d, 0x51, 0x00, 0x35, 0xc1, 0xc5, 0x00, 0x00,
  0x00, 0x00, 0xcf, 0xc3, 0xad, 0xb6, 0x81, 0x00, 0x00, 0x00, 0xb5, 0x00,
  0x00, 0x00, 0x00, 0x84, 0xc1, 0xa6, 0x00, 0x00, 0x00, 0x00, 0x3a, 0xb0,
  0xc5, 0x2c, 0x00, 0x00, 0x3f, 0x00, 0x00, 0x00, 0x00, 0x00, 0x00, 0x00,
  0xcf, 0x2e, 0x00, 0xd0, 0xc4, 0x00, 0x36, 0x00, 0x00, 0x39, 0xc5, 0xc1,
  0x00, 0x00, 0x2a, 0xc3, 0x00, 0x00, 0x00, 0xcf, 0x00, 0x00, 0x00, 0x37,
  0xbd, 0x00, 0xd0, 0x00, 0x00, 0xcc, 0x2e, 0xa9, 0x00, 0x00, 0x00, 0xd6,
  0x00, 0x00, 0x00, 0x00, 0x00, 0x00, 0x00, 0x38, 0x00, 0x28, 0x40, 0x3a,
  0x00, 0x00, 0x00, 0x00, 0x00, 0xc0, 0xb4, 0xd4, 0x4f, 0x00, 0x00, 0x6c,
  0x00, 0x00, 0x00, 0x00, 0xcc, 0x00, 0x7f, 0x4e, 0x26, 0xcd, 0x39, 0xc6,
  0x42, 0x00, 0x00, 0x5b, 0xc5, 0x00, 0x9e, 0x00, 0x00, 0x00, 0x00, 0x3c,
  0x37, 0xab, 0x00, 0x35, 0xce, 0x00, 0x33, 0x00, 0x00, 0x42, 0x00, 0x00,
  0x00, 0x00, 0x00, 0x00, 0x00, 0x00, 0x28, 0x00, 0x00, 0xd4, 0x00, 0x00,
  0xd0, 0x00, 0x00, 0x00, 0x00, 0x00, 0x2e, 0x00, 0xd1, 0x00, 0x00, 0x00,
  0xbe, 0x00, 0x00, 0xd1, 0x00, 0x00, 0x00, 0x00, 0xd4, 0x4f, 0x00, 0x00,
  0x00, 0xd4, 0x00, 0x00, 0x00, 0x00, 0x00, 0x2a, 0x00, 0x00, 0xb2, 0x00,
  0x44, 0x00, 0x00, 0x00, 0x00, 0x3b, 0xd5, 0x00, 0x00, 0x00, 0x2b, 0x32,
  0x3a, 0xd5, 0x00, 0x00, 0xcd, 0x00, 0xb8, 0xb6, 0x00, 0x00, 0x00, 0xb6,
  0xc5, 0x00, 0xd5, 0x00, 0x00, 0x00, 0x00, 0xca, 0x00, 0x32, 0x79, 0x00,
  0x37, 0x00, 0x9b, 0xd4, 0x32, 0x00, 0x00, 0x7f, 0x00, 0x00, 0x00, 0x28,
  0x00, 0x00, 0x7d, 0x2e, 0x00, 0x00, 0x3b, 0x00, 0x00, 0x00, 0x00, 0x00,
  0x00, 0x47, 0x94, 0x00, 0xab, 0x00, 0x38, 0xc5, 0x00, 0xad, 0x55, 0xc0,
  0x00, 0x33, 0x00, 0x00, 0xaf, 0x3c, 0x00, 0xd1, 0x37, 0x29, 0xc0, 0x00,
  0x00, 0x60, 0x00, 0x61, 0x4e, 0x00, 0x00, 0x00, 0x00, 0x00, 0x57, 0x00,
  0x00, 0x00, 0x00, 0x31, 0x33, 0x00, 0x00, 0x00, 0x00, 0x00, 0xbf, 0x00,
  0x00, 0x00, 0x00, 0x00, 0xaa, 0xc3, 0x00, 0x58, 0x00, 0xc1, 0x31, 0x00,
  0x00, 0x00, 0x00, 0x00, 0x3e, 0x00, 0x00, 0x00, 0x34, 0x44, 0x58, 0x32,
  0x00, 0x00, 0x9c, 0x00, 0x69, 0x2f, 0x00, 0x00, 0x00, 0x00, 0x00, 0x00,
  0x00, 0x00, 0x00, 0xc9, 0x00, 0x00, 0x00, 0x2a, 0x00, 0xd4, 0x00, 0x00,
  0x00, 0x00, 0x00, 0xd6, 0x00, 0x00, 0xb6, 0xcb, 0x00, 0x35, 0x00, 0x2d,
  0x00, 0x00, 0x00, 0xbb, 0x00, 0x00, 0x3b, 0x00, 0x00, 0x3d, 0x00, 0x2c,
  0x2b, 0x00, 0x00, 0x00, 0x00, 0x00, 0x00, 0x00, 0x00, 0x00, 0x00, 0x34,
  0x00, 0xd0, 0x7f, 0x00, 0x00, 0xa0, 0xce, 0x00, 0x00, 0x00, 0x2c, 0x72,
  0xa8, 0x00, 0xa6, 0x38, 0x4b, 0xd0, 0x00, 0x00, 0x28, 0x00, 0x44, 0x00,
  0x00, 0xc2, 0x00, 0x5f, 0x00, 0x00, 0x00, 0x00, 0x00, 0x00, 0x00, 0x00,
  0xca, 0x00, 0x00, 0x00, 0x00, 0x00, 0x00, 0x00, 0x00, 0x00, 0xce, 0x35,
  0x00, 0xc7, 0x3e, 0x00, 0x00, 0x3c, 0x00, 0x2b, 0x35, 0xba, 0x00, 0x00,
  0x00, 0x00, 0x2d, 0xd4, 0x00, 0x00, 0x43, 0x00, 0x00, 0x00, 0x45, 0xc8,
  0xc7, 0x00, 0x30, 0xd6, 0x00, 0x00, 0x00, 0xd1, 0x00, 0x00, 0x00, 0x42,
  0x2c, 0x34, 0x00, 0xc9, 0x00, 0x4b, 0x00, 0x00, 0x00, 0x33, 0x00, 0x00,
  0x00, 0x00, 0x00, 0x00, 0xd0, 0x00, 0x00, 0x00, 0x00, 0x00, 0x29, 0x00,
  0xd3, 0x41, 0x00, 0xa6, 0xd6, 0xc8, 0xca, 0x00, 0x00, 0x00, 0x00, 0x00,
  0xcf, 0x00, 0xcf, 0x82, 0x00, 0x00, 0xc3, 0x00, 0x00, 0x00, 0x00, 0x74,
  0x00, 0x00, 0x00, 0x00, 0x56, 0x52, 0x00, 0xaa, 0x00, 0x00, 0x55, 0x00,
  0x57, 0x00, 0x60, 0x00, 0x00, 0x00, 0x53, 0x00, 0x00, 0x58, 0x00, 0x00,
  0x00, 0x6e, 0x96, 0xa0, 0x00, 0x00, 0x64, 0x00, 0x00, 0xa5, 0x00, 0x00,
  0xa3, 0x56, 0x93, 0x00, 0x00, 0x75, 0x92, 0x00, 0x00, 0x92, 0x00, 0x00,
  0x00, 0x00, 0x00, 0x00, 0x00, 0x81, 0x00, 0x9c, 0xa4, 0x94, 0xa8, 0xaf,
  0x00, 0x97, 0x4e, 0x00, 0xa6, 0x00, 0x5e, 0x00, 0x00, 0x00, 0x00, 0x00,
  0x00, 0x6a, 0xae, 0x94, 0x00, 0x00, 0x57, 0x00, 0x8e, 0x00, 0x63, 0x53,
  0x00, 0x00, 0x00, 0xac, 0x98, 0x00, 0x5e, 0x61, 0xae, 0x79, 0x52, 0x00,
  0xa2, 0x73, 0xae, 0x00, 0x00, 0x9c, 0xaa, 0x00, 0x65, 0x5d, 0x00, 0x00,
  0x00, 0x00, 0x6b, 0x00, 0x00, 0x00, 0xb2, 0x5f, 0x00, 0x00, 0x00, 0x00,
  0x94, 0x00, 0xaa, 0x00, 0x00, 0x9d, 0x00, 0x53, 0x00, 0x00, 0x00, 0x9d,
  0x00, 0x00, 0x00, 0x00, 0x4f, 0x00, 0x67, 0x00, 0x3d, 0x00, 0x43, 0x2a,
  0x00, 0x00, 0x2b, 0x00, 0x00, 0xd3, 0x00, 0x00, 0x00, 0x2d, 0x45, 0x00,
  0x00, 0x00, 0x00, 0x6d, 0x28, 0x00, 0x00, 0xc6, 0xc7, 0x00, 0x00, 0x3d,
  0x4a, 0x00, 0x00, 0x7e, 0xca, 0x00, 0x7f, 0x6c, 0x3d, 0xc7, 0x00, 0x00,
  0x00, 0x00, 0x00, 0x00, 0x00, 0x31, 0x00, 0x2a, 0x3c, 0x00, 0xc5, 0xad,
  0x00, 0x36, 0x00, 0x00, 0x00, 0x00, 0x00, 0x00, 0xd0, 0xb8, 0x00, 0x00,
  0x00, 0x00, 0x00, 0xae, 0x00, 0x00, 0x00, 0x00, 0xac, 0xc0, 0x00, 0x00,
  0x00, 0x00, 0x00, 0x00, 0x00, 0x00, 0x00, 0x00, 0x2d, 0xd5, 0x3f, 0x00,
  0xc2, 0x00, 0x00, 0x00, 0x2e, 0x00, 0x00, 0x00, 0x3c, 0xc2, 0xb7, 0x9c,
  0x00, 0x42, 0x00, 0x00, 0x00, 0xb6, 0x38, 0x2a, 0x00, 0xd5, 0x00, 0x00,
  0xa9, 0x2d, 0xc4, 0xc2, 0xcd, 0xaf, 0x00, 0x00, 0x00, 0x00, 0x00, 0x00,
  0xcc, 0x00, 0xd5, 0x00, 0x00, 0xcb, 0x00, 0x00, 0x2f, 0x30, 0x62, 0xcf,
  0xb3, 0x00, 0x00, 0x00, 0xc1, 0x00, 0x00, 0x90, 0x00, 0x2b, 0xb8, 0x00,
  0x00, 0x00, 0x3d, 0x68, 0x00, 0x00, 0x00, 0xc4, 0x34, 0x42, 0x00, 0x00,
  0x00, 0x00, 0x00, 0x00, 0x00, 0x39, 0x00, 0x31, 0x00, 0x00, 0x00, 0x00,
  0x42, 0x00, 0x45, 0xba, 0x2f, 0x00, 0x00, 0x00, 0xca, 0x00, 0x00, 0x00,
  0x00, 0x00, 0x00, 0x00, 0x00, 0x00, 0x46, 0x28, 0xd5, 0x3a, 0x00, 0x00,
  0x00, 0x35, 0xd1, 0x31, 0x00, 0x3c, 0xd6, 0x00, 0x3a, 0x00, 0x00, 0x00,
  0x00, 0x00, 0xc4, 0x00, 0x00, 0x38, 0xaa, 0x00, 0x00, 0x00, 0x00, 0xc7,
  0x00, 0x00, 0x2f, 0x00, 0x00, 0xd7, 0x00, 0xcc, 0x00, 0x00, 0x00, 0x39,
  0x00, 0x00, 0x3a, 0x96, 0x00, 0x00, 0x3e, 0x37, 0x00, 0x00, 0x00, 0x00,
  0x00, 0x00, 0x00, 0x00, 0x00, 0x00, 0x00, 0x00, 0x00, 0x00, 0x3f, 0x39,
  0x00, 0x00, 0xd9, 0x00, 0xd9, 0x47, 0x29, 0x00, 0xc8, 0x00, 0xc3, 0x29,
  0x3b, 0x00, 0x00, 0x00, 0x00, 0x00, 0xd4, 0x34, 0x00, 0x33, 0x81, 0xb1,
  0xc9, 0x00, 0x00, 0x00, 0x00, 0x00, 0xd9, 0x00, 0x00, 0x9e, 0xb6, 0x81,
  0xcb, 0xdb, 0x00, 0xb2, 0x9d, 0x00, 0xd3, 0xa7, 0x9a, 0x92, 0xca, 0x00,
  0xcc, 0x00, 0x00, 0xc4, 0x00, 0x00, 0x00, 0xdb, 0x00, 0x00, 0x00, 0xca,
  0x00, 0xbf, 0xd2, 0x00, 0x41, 0x2e, 0x00, 0x00, 0x00, 0x3b, 0xcf, 0xce,
  0xca, 0x00, 0x00, 0x00, 0x49, 0xc7, 0x3a, 0x00, 0x00, 0x00, 0x00, 0x00,
  0x00, 0x00, 0x00, 0xcb, 0x00, 0x00, 0x00, 0x2f, 0xcd, 0x00, 0xc2, 0x00,
  0x2d, 0x2a, 0x2d, 0x00, 0x00, 0x00, 0x00, 0x00, 0x00, 0x35, 0x00, 0x00,
  0xdb, 0x00, 0xc8, 0xd7, 0x00, 0x33, 0x00, 0x44, 0x00, 0x00, 0x00, 0x00,
  0xdb, 0x27, 0x00, 0xaf, 0x26, 0x00, 0x00, 0x00, 0x00, 0x00, 0x00, 0xd8,
  0x00, 0x42, 0x00, 0x2f, 0x00, 0x00, 0x00, 0x00, 0x00, 0xd7, 0x51, 0x31,
  0x00, 0x00, 0x2c, 0x00, 0x00, 0xd1, 0x24, 0x00, 0x47, 0x00, 0x2c, 0x00,
  0x28, 0x00, 0x00, 0x32, 0x4d, 0x36, 0x00, 0x41, 0x00, 0x24, 0xcc, 0x00,
  0x00, 0x50, 0x26, 0x00, 0x27, 0x43, 0x4a, 0x00, 0x31, 0x00, 0x00, 0x00,
  0x00, 0x00, 0x46, 0x6a, 0x56, 0x00, 0x00, 0xd5, 0x39, 0xd8, 0x00, 0x00,
  0x2c, 0x00, 0x81, 0x00, 0x00, 0x57, 0x3d, 0x00, 0x00, 0xc6, 0xca, 0xb1,
  0x00, 0xd2, 0x00, 0xb6, 0x00, 0x00, 0x00, 0x31, 0xca, 0x00, 0xd0, 0x65,
  0x00, 0x4a, 0x00, 0x00, 0x00, 0x00, 0x61, 0x35, 0x00, 0xcc, 0x00, 0x00,
  0x00, 0x00, 0x00, 0x00, 0xc0, 0x00, 0x00, 0xa4, 0x37, 0xad, 0x2b, 0xd5,
  0x00, 0x00, 0xa5, 0x00, 0x00, 0x00, 0x93, 0x00, 0x00, 0x00, 0xcf, 0xa0,
  0x00, 0x00, 0x00, 0xd0, 0x30, 0x2e, 0xa4, 0x00, 0xd8, 0x00, 0xb2, 0x00,
  0xa7, 0x00, 0x41, 0xd4, 0x00, 0x9c, 0x59, 0x00, 0x00, 0x00, 0x36, 0xc7,
  0x00, 0x00, 0x00, 0x00, 0xcb, 0x00, 0xd4, 0x00, 0x00, 0x00, 0xca, 0x00,
  0x00, 0xcf, 0xb5, 0x00, 0x00, 0x2a, 0xc1, 0x00, 0x00, 0x00, 0x00, 0xcf,
  0x48, 0x00, 0x3f, 0xd1, 0xc7, 0x3f, 0xb6, 0x00, 0xd5, 0x00, 0x00, 0x00,
  0x00, 0x00, 0x3b, 0xcf, 0x49, 0x00, 0x00, 0x00, 0x00, 0x00, 0xaf, 0x00,
  0x00, 0x00, 0x00, 0x00, 0x00, 0x00, 0x00, 0x91, 0x81, 0x9b, 0x00, 0x00,
  0x00, 0x8c, 0x00, 0x00, 0x50, 0x00, 0x00, 0x00, 0x00, 0xb2, 0x89, 0x4f,
  0x00, 0x00, 0x8c, 0x00, 0xa9, 0x00, 0x00, 0x58, 0x00, 0x00, 0x00, 0x00,
  0x8e, 0x00, 0x00, 0xa5, 0x00, 0x00, 0x00, 0x93, 0x60, 0x96, 0x00, 0x00,
  0x00, 0x00, 0x94, 0x00, 0x00, 0x8b, 0x00, 0x00, 0x00, 0x00, 0x00, 0xa1,
  0x4f, 0x00, 0x00, 0x00, 0x00, 0x00, 0x00, 0x00, 0x4d, 0x00, 0x00, 0x00,
  0x00, 0x92, 0x00, 0x00, 0x00, 0x9f, 0xa9, 0x00, 0x00, 0x99, 0x00, 0x00,
  0x00, 0x00, 0xb2, 0x00, 0x00, 0x86, 0x00, 0x00, 0x00, 0x00, 0x00, 0x90,
  0x51, 0x50, 0x00, 0x00, 0x00, 0x00, 0x00, 0x00, 0x00, 0x00, 0x00, 0x83,
  0x00, 0xb2, 0x00, 0x88, 0x00, 0x6b, 0x00, 0x00, 0x00, 0x00, 0x00, 0x00,
  0x00, 0x00, 0x00, 0x00, 0x00, 0x00, 0x65, 0x91, 0x00, 0x00, 0x00, 0x00,
  0x59, 0x51, 0x9c, 0x5a, 0x90, 0x5a, 0x00, 0x59, 0xd2, 0x00, 0x00, 0xac,
  0x00, 0xc8, 0x00, 0xaf, 0x00, 0xcf, 0xcf, 0x00, 0xc9, 0x00, 0xa4, 0x98,
  0x00, 0xae, 0x3e, 0x00, 0x00, 0x00, 0x5a, 0xaf, 0xbf, 0x36, 0x00, 0x4e,
  0x00, 0x43, 0xbb, 0x48, 0x00, 0x50, 0xd4, 0x35, 0xc6, 0x00, 0x00, 0xa4,
  0xd8, 0x00, 0x37, 0x00, 0x7f, 0x2c, 0x4f, 0x00, 0x00, 0x00, 0x00, 0x00,
  0xcc, 0x00, 0x00, 0x00, 0xc9, 0xaf, 0x00, 0x00, 0x3d, 0xc4, 0x00, 0x00,
  0x00, 0x00, 0x36, 0x3b, 0x00, 0xc8, 0x00, 0x00, 0x00, 0x00, 0x00, 0xc4,
  0x00, 0x00, 0x00, 0x00, 0x00, 0x63, 0x00, 0x00, 0x00, 0x45, 0x00, 0x2e,
  0x00, 0x37, 0x00, 0x00, 0x71, 0x00, 0x68, 0xcb, 0x00, 0xd8, 0xcf, 0xbf,
  0x00, 0x00, 0xc6, 0x00, 0x00, 0x00, 0x00, 0xb3, 0x00, 0x00, 0x00, 0x9c,
  0x00, 0x00, 0x00, 0xa1, 0x2e, 0x00, 0x00, 0xcf, 0x00, 0x00, 0x00, 0xcb,
  0x00, 0xcb, 0x00, 0x00, 0x00, 0x4f, 0xcc, 0x4a, 0x00, 0x00, 0xac, 0x30,
  0x00, 0x00, 0x00, 0x45, 0x00, 0x00, 0x00, 0xd6, 0x39, 0x00, 0x00, 0x00,
  0x00, 0x92, 0x00, 0x34, 0xbe, 0x00, 0x00, 0x33, 0x88, 0xbf, 0x92, 0x00,
  0xcb, 0x00, 0xb5, 0x3c, 0x34, 0x00, 0x00, 0x00, 0x00, 0xa9, 0xbd, 0xc7,
  0x00, 0x00, 0x00, 0x4f, 0x00, 0x58, 0x00, 0x4e, 0x00, 0x54, 0x9d, 0x49,
  0xc0, 0x00, 0x00, 0xb8, 0x00, 0x00, 0x00, 0xb8, 0x00, 0x00, 0x00, 0x7f,
  0xc7, 0x00, 0x00, 0x96, 0x00, 0x00, 0x3e, 0x41, 0x00, 0x00, 0xc6, 0x3c,
  0x00, 0x4d, 0xcc, 0xc4, 0x4b, 0x00, 0x00, 0x36, 0x00, 0x00, 0x00, 0x00,
  0xb5, 0x00, 0x91, 0x00, 0x00, 0x60, 0x00, 0x00, 0x00, 0x00, 0xa6, 0x00,
  0x00, 0x00, 0x00, 0xb4, 0x50, 0x00, 0x45, 0x00, 0x00, 0x00, 0x00, 0x00,
  0xca, 0x00, 0x76, 0x00, 0x40, 0xc9, 0x00, 0x00, 0x42, 0x00, 0x00, 0x4c,
  0xcb, 0x00, 0x00, 0x37, 0x00, 0x00, 0x00, 0x00, 0xc0, 0x58, 0x00, 0x00,
  0x00, 0x3d, 0x54, 0x00, 0x8b, 0x00, 0x00, 0x00, 0x00, 0x95, 0x00, 0x00,
  0x52, 0x00, 0x00, 0x4e, 0x00, 0x00, 0x00, 0x00, 0x00, 0x42, 0x2b, 0x00,
  0x00, 0x00, 0x00, 0x00, 0xd3, 0x50, 0x30, 0x00, 0xd4, 0x46, 0x00, 0x00,
  0x00, 0xd2, 0x38, 0x78, 0x00, 0x00, 0x00, 0x00, 0x00, 0x00, 0x00, 0x39,
  0x27, 0xd4, 0x00, 0x4e, 0xd7, 0xcf, 0x29, 0x00, 0x00, 0xc6, 0x00, 0x00,
  0x33, 0x30, 0x00, 0xd7, 0x00, 0x00, 0x95, 0xb6, 0x00, 0x00, 0x2d, 0x4b,
  0xd7, 0xad, 0x8b, 0x00, 0x00, 0x00, 0x00, 0x50, 0x00, 0x75, 0xba, 0x7f,
  0x34, 0x00, 0x00, 0x00, 0x00, 0x00, 0x00, 0x00, 0x46, 0x00, 0x00, 0x00,
  0x28, 0x00, 0x00, 0x00, 0x00, 0x00, 0xd2, 0x48, 0x00, 0x00, 0x2a, 0x00,
  0xa8, 0x2d, 0x00, 0x00, 0xcf, 0xcb, 0x00, 0x00, 0x00, 0x3c, 0x00, 0x29,
  0x00, 0x00, 0x00, 0x4a, 0x00, 0x00, 0x00, 0x4e, 0xb0, 0x3f, 0x00, 0x64,
  0x00, 0xae, 0x00, 0xd0, 0x28, 0x00, 0xc5, 0xc7, 0x00, 0xc4, 0x00, 0x00,
  0x44, 0x00, 0x00, 0x00, 0xcc, 0x00, 0xd2, 0xd6, 0x00, 0xac, 0xd1, 0xc0,
  0xc0, 0x00, 0x00, 0x99, 0xce, 0xcb, 0xa6, 0x00, 0x00, 0x00, 0x00, 0x5d,
  0x00, 0x79, 0x00, 0x00, 0x00, 0x00, 0x00, 0x00, 0x00, 0x65, 0x61, 0x00,
  0xa3, 0x9d, 0xa0, 0x00, 0x00, 0x00, 0x00, 0x00, 0x00, 0x00, 0x00, 0x00,
  0x00, 0x91, 0xaa, 0x00, 0x00, 0x00, 0x00, 0x5a, 0x00, 0xad, 0x00, 0x00,
  0x72, 0x00, 0xa6, 0x00, 0x00, 0x00, 0x00, 0x00, 0x4f, 0x00, 0x00, 0x00,
  0x00, 0x00, 0x9b, 0x00, 0x00, 0x00, 0x00, 0x00, 0x6e, 0x00, 0x00, 0x58,
  0xa2, 0x00, 0x00, 0xac, 0x00, 0x00, 0x00, 0x00, 0x95, 0x00, 0x00, 0x00,
  0x4f, 0x00, 0x00, 0x66, 0x8a, 0x00, 0xae, 0x00, 0x00, 0x00, 0x00, 0x00,
  0x00, 0x00, 0x00, 0x00, 0x88, 0x00, 0x91, 0x00, 0x00, 0x00, 0x8b, 0x00,
  0x00, 0x99, 0x64, 0x00, 0x81, 0x00, 0x00, 0x00, 0x00, 0x00, 0x00, 0x00,
  0x00, 0xab, 0x00, 0x00, 0x00, 0x51, 0x62, 0x00, 0x00, 0x00, 0xa6, 0x00,
  0xaf, 0x00, 0xa0, 0x00, 0x00, 0x00, 0x00, 0xb0, 0x00, 0x76, 0x00, 0x00,
  0x00, 0x8a, 0x88, 0x00, 0x55, 0x00, 0x00, 0x9c, 0x00, 0xd0, 0x52, 0x4a,
  0x00, 0x00, 0xb6, 0x2d, 0x30, 0x00, 0x35, 0x4f, 0xcb, 0x00, 0x00, 0x40,
  0x00, 0xd0, 0x70, 0x2f, 0x00, 0x00, 0x00, 0xa5, 0x00, 0x00, 0xd1, 0x00,
  0xc3, 0x2f, 0x81, 0x00, 0x00, 0x00, 0x00, 0x32, 0x00, 0x00, 0x00, 0x00,
  0x00, 0x00, 0x00, 0x00, 0x00, 0x45, 0x00, 0x00, 0x00, 0x00, 0x00, 0x42,
  0x00, 0x29, 0x62, 0x54, 0x00, 0xa2, 0x00, 0x2c, 0x00, 0x39, 0x3a, 0x00,
  0x00, 0x00, 0x45, 0x00, 0x00, 0x00, 0x32, 0xcf, 0xc4, 0x00, 0xb5, 0x00,
  0x00, 0x00, 0x00, 0x00, 0x00, 0x00, 0x00, 0x00, 0xcf, 0x00, 0x00, 0x00,
  0x00, 0x2c, 0xd2, 0xc9, 0x00, 0x00, 0x00, 0x4f, 0x30, 0x00, 0xd4, 0xd0,
  0xd3, 0x4f, 0x00, 0x00, 0x42, 0x00, 0x36, 0x00, 0x00, 0x00, 0x00, 0xb8,
  0xc8, 0x00, 0x00, 0x00, 0x00, 0xd5, 0x00, 0x00, 0xce, 0xad, 0x00, 0x90,
  0x00, 0xa7, 0x00, 0xc6, 0x42, 0x00, 0x9f, 0x00, 0x00, 0x00, 0x42, 0x00,
  0xb7, 0x3c, 0x00, 0xd6, 0x00, 0xaf, 0x48, 0xc0, 0x00, 0x00, 0xd1, 0x00,
  0x33, 0x00, 0x00, 0xb8, 0x00, 0x00, 0x00, 0x97, 0x3e, 0xc6, 0x00, 0x00,
  0x00, 0x00, 0x94, 0xce, 0x34, 0x00, 0x00, 0xbd, 0xb2, 0x00, 0xb3, 0xaa,
  0x00, 0x00, 0x3f, 0x00, 0x00, 0x00, 0x00, 0xd0, 0x00, 0x00, 0x00, 0x00,
  0x68, 0x00, 0x39, 0x50, 0x00, 0x00, 0x00, 0x00, 0x00, 0xc0, 0xc2, 0x00,
  0x00, 0x00, 0x00, 0x00, 0x00, 0x00, 0x00, 0x89, 0x00, 0xa8, 0xc1, 0x00,
  0x00, 0x00, 0xb3, 0x00, 0x42, 0x00, 0x00, 0xc9, 0x00, 0x38, 0x00, 0x00,
  0x00, 0xc1, 0x00, 0x3a, 0x00, 0x00, 0xc1, 0x3b, 0x00, 0x00, 0x00, 0x52,
  0x33, 0xce, 0x33, 0x3a, 0x00, 0x00, 0x00, 0x3f, 0x00, 0x00, 0xb7, 0xb6,
  0x00, 0x00, 0x00, 0x00, 0x9b, 0x00, 0x3d, 0x00, 0x00, 0x00, 0x00, 0x00,
  0x00, 0x00, 0x96, 0x00, 0x00, 0x00, 0x00, 0x00, 0x00, 0x00, 0x00, 0xc6,
  0x46, 0x00, 0x38, 0x30, 0xaf, 0x37, 0x81, 0x00, 0xcf, 0x32, 0x00, 0x00,
  0x00, 0x2f, 0x00, 0xba, 0x43, 0x00, 0x00, 0x00, 0x00, 0x00, 0x64, 0x00,
  0x3e, 0xcb, 0x00, 0x00, 0x00, 0x00, 0x00, 0x00, 0x00, 0x00, 0x00, 0x00,
  0x30, 0x4a, 0x3d, 0x70, 0x00, 0x00, 0xb9, 0x00, 0x68, 0xc2, 0x00, 0x00,
  0xc3, 0x4e, 0x00, 0xc7, 0x2f, 0x00, 0x00, 0x00, 0x00, 0x00, 0x00, 0x00,
  0x00, 0x2f, 0x00, 0x00, 0xc4, 0x00, 0x97, 0xd2, 0xc6, 0x00, 0x35, 0x7f,
  0x00, 0x00, 0x00, 0xcd, 0x32, 0x00, 0x00, 0x00, 0x00, 0x00, 0xb9, 0x6d,
  0x2e, 0xc0, 0x56, 0x2f, 0xd2, 0x00, 0x00, 0x00, 0x00, 0xd3, 0xbe, 0x00,
  0x00, 0x00, 0x00, 0x00, 0x00, 0x35, 0x3b, 0x00, 0x00, 0x00, 0x53, 0x00,
  0x00, 0x00, 0x3e, 0x00, 0x00, 0x00, 0x00, 0x00, 0x00, 0x3a, 0x00, 0x00,
  0x00, 0x00, 0x6f, 0x00, 0x00, 0xd2, 0x00, 0x3a, 0x99, 0x00, 0x00, 0x4c,
  0x00, 0xa2, 0xc5, 0x00, 0x00, 0x40, 0x34, 0x9e, 0x00, 0x00, 0x00, 0x2f,
  0x00, 0x00, 0xca, 0xcb, 0x00, 0x00, 0xc6, 0xcc, 0x00, 0xb6, 0x00, 0x00,
  0x00, 0x00, 0x00, 0x00, 0xcd, 0xd1, 0xaa, 0x36, 0x00, 0xd7, 0x7f, 0x35,
  0x23, 0x00, 0x00, 0x00, 0x00, 0x00, 0x00, 0x5d, 0x00, 0x2b, 0x00, 0xca,
  0x00, 0x00, 0x2e, 0x00, 0x00, 0x00, 0x00, 0x97, 0x00, 0xcf, 0xda, 0x49,
  0x00, 0x24, 0xca, 0xd1, 0xd3, 0x3f, 0x00, 0x41, 0x00, 0x00, 0xa9, 0xd6,
  0x34, 0x00, 0x2c, 0x00, 0x00, 0x00, 0x00, 0x2a, 0x00, 0xd4, 0xce, 0x2c,
  0x00, 0x25, 0x55, 0x2f, 0x00, 0x00, 0x00, 0x00, 0x00, 0xd8, 0x44, 0x68,
  0x00, 0x00, 0x00, 0x00, 0x00, 0x00, 0x00, 0x00, 0xc3, 0x00, 0x00, 0x27,
  0x25, 0xcd, 0x25, 0x2b, 0xd9, 0x34, 0x00, 0x00, 0x00, 0x00, 0x00, 0x34,
  0x38, 0x00, 0x00, 0x00, 0x28, 0x28, 0xcd, 0x00, 0x00, 0x00, 0x00, 0xd2,
  0x00, 0xda, 0x00, 0x4d, 0x00, 0x2f, 0x00, 0x26, 0xb3, 0x33, 0x30, 0x00,
  0x00, 0x00, 0xc7, 0xcd, 0x00, 0x00, 0xbd, 0x00, 0xc0, 0x00, 0x00, 0x00,
  0xcc, 0x00, 0x00, 0xca, 0x00, 0x00, 0xbc, 0xc7, 0x00, 0x00, 0x00, 0x47,
  0xc2, 0x00, 0x00, 0x00, 0x00, 0xba, 0x33, 0x00, 0x00, 0xc4, 0x00, 0x9c,
  0x00, 0x7f, 0x00, 0x00, 0xb7, 0x00, 0x00, 0xae, 0x00, 0x00, 0x69, 0xaa,
  0x00, 0xcc, 0xad, 0x2f, 0x00, 0x71, 0x00, 0x4f, 0x00, 0xc9, 0x00, 0xc4,
  0x00, 0xcf, 0x4a, 0xd3, 0x00, 0x44, 0xd3, 0xb9, 0x00, 0x59, 0xc2, 0x57,
  0x00, 0x00, 0x3a, 0x00, 0x4d, 0x00, 0x7b, 0x2c, 0x2e, 0x00, 0x32, 0x00,
  0x00, 0x00, 0x00, 0x00, 0x00, 0xc0, 0x00, 0xad, 0x00, 0xc0, 0x00, 0x00,
  0x00, 0x00, 0x00, 0x38, 0x39, 0x47, 0x00, 0x2d, 0xb6, 0x00, 0xc9, 0x00,
  0x00, 0xd3, 0x00, 0x00, 0xc6, 0x39, 0xc5, 0x2b, 0x00, 0x38, 0x9e, 0x00,
  0x00, 0x45, 0x2e, 0x00, 0x5c, 0x3f, 0x70, 0x00, 0x00, 0x00, 0x00, 0x00,
  0x00, 0xcb, 0x00, 0x00, 0x00, 0x00, 0x00, 0x00, 0x00, 0x00, 0x00, 0x00,
  0x3d, 0x00, 0x2b, 0x00, 0x2a, 0x00, 0x00, 0x00, 0x34, 0x4b, 0x00, 0xbe,
  0x00, 0x00, 0x3f, 0x00, 0x00, 0x00, 0x00, 0x00, 0x00, 0x00, 0xb8, 0x00,
  0x00, 0x00, 0x00, 0x00, 0x00, 0x00, 0x00, 0x6a, 0xc5, 0x40, 0x34, 0x00,
  0xdd, 0xc1, 0x89, 0x00, 0x35, 0x36, 0x00, 0x70, 0x00, 0x53, 0xc3, 0x00,
  0x00, 0x36, 0x45, 0x44, 0x00, 0xa7, 0x00, 0xdf, 0x5f, 0x32, 0x00, 0x72,
  0xab, 0x00, 0x94, 0x00, 0xde, 0x38, 0x64, 0x3f, 0x00, 0xdc, 0x27, 0x00,
  0x00, 0x2c, 0x00, 0x73, 0x00, 0x3e, 0xa2, 0x00, 0x2f, 0x00, 0x00, 0x00,
  0x20, 0xd8, 0x38, 0x4d, 0x00, 0xd2, 0x22, 0x00, 0x00, 0x00, 0x00, 0x54,
  0x00, 0x00, 0x00, 0x59, 0x00, 0x00, 0x36, 0xde, 0xd2, 0x00, 0x00, 0x00,
  0x00, 0x00, 0xda, 0x3c, 0x00, 0x00, 0x00, 0x45, 0x00, 0x00, 0x43, 0xd6,
  0x00, 0x00, 0xcd, 0x00, 0x21, 0xde, 0x00, 0x45, 0xda, 0x50, 0x00, 0x00,
  0x00, 0x00, 0x00, 0x3a, 0x00, 0x00, 0x00, 0x00, 0xb6, 0x2d, 0x00, 0xd7,
  0x00, 0xdd, 0x00, 0xa5, 0x00, 0x28, 0xdc, 0x00, 0xe0, 0x00, 0x00, 0x00,
  0x00, 0xc4, 0x00, 0xa9, 0x00, 0xcc, 0x00, 0x00, 0x00, 0x00, 0x34, 0x00,
  0xc8, 0x00, 0xd2, 0x81, 0x00, 0x00, 0x00, 0x9c, 0x00, 0x00, 0x47, 0x00,
  0x00, 0x00, 0x00, 0xbd, 0x32, 0x2d, 0x00, 0x7f, 0x00, 0x3f, 0x00, 0x00,
  0x00, 0x54, 0x00, 0x00, 0xbe, 0x00, 0x43, 0x4e, 0x00, 0x31, 0x00, 0x00,
  0x00, 0x00, 0x00, 0x00, 0xd1, 0x00, 0x00, 0x00, 0x00, 0x52, 0x00, 0x00,
  0x00, 0x00, 0x38, 0x00, 0x66, 0x00, 0x00, 0x00, 0x00, 0x00, 0x5c, 0x49,
  0xd1, 0x00, 0x5a, 0x43, 0x3f, 0x00, 0x00, 0x40, 0x00, 0x00, 0x00, 0x00,
  0x00, 0x00, 0x00, 0x4e, 0x00, 0xcf, 0x45, 0x00, 0xc3, 0x00, 0x00, 0x00,
  0x00, 0x00, 0x00, 0xcd, 0xce, 0x00, 0xc2, 0x30, 0xc4, 0x00, 0xc3, 0x45,
  0x00, 0xb5, 0xc5, 0xcc, 0x00, 0x00, 0x4a, 0x00, 0x00, 0xd2, 0x00, 0x00,
  0x00, 0xbb, 0x00, 0x3b, 0xbc, 0x34, 0x00, 0x00, 0x2e, 0x00, 0x00, 0x00,
  0x00, 0x4a, 0xd0, 0x30, 0x00, 0x00, 0x4c, 0x3e, 0xca, 0x00, 0x2e, 0x00,
  0x00, 0x00, 0x00, 0x00, 0xca, 0x00, 0x40, 0x00, 0x00, 0x2f, 0xcc, 0x00,
  0x46, 0xc8, 0xc1, 0x00, 0x3d, 0x00, 0x00, 0x00, 0x7c, 0x00, 0x00, 0x31,
  0x00, 0x7f, 0x5d, 0x34, 0x00, 0xc2, 0x00, 0x00, 0x46, 0xc9, 0x44, 0x00,
  0xc6, 0x4d, 0x00, 0x00, 0x00, 0x48, 0x00, 0x33, 0x00, 0x00, 0x00, 0x00,
  0x00, 0x54, 0x3f, 0x00, 0x36, 0x00, 0xb4, 0x00, 0x3b, 0x4b, 0x00, 0x3f,
  0x3d, 0x00, 0xc9, 0x00, 0x6b, 0xae, 0x00, 0x3e, 0x00, 0x00, 0xc0, 0x00,
  0x00, 0xce, 0xcd, 0x00, 0x00, 0x00, 0x00, 0x00, 0x34, 0xbc, 0x00, 0x00,
  0x00, 0x4a, 0x00, 0x00, 0x00, 0x00, 0x00, 0x00, 0x00, 0x00, 0xce, 0x00,
  0x00, 0x48, 0x00, 0x00, 0x00, 0x00, 0x3a, 0xc0, 0x00, 0x00, 0x00, 0x00,
  0x00, 0x00, 0x00, 0x30, 0x00, 0x00, 0x00, 0xa8, 0x00, 0x00, 0x00, 0x00,
  0x00, 0x00, 0x5c, 0x00, 0x00, 0x00, 0x00, 0x3b, 0x33, 0x00, 0x00, 0x00,
  0x31, 0x00, 0x00, 0x67, 0x00, 0x40, 0xcf, 0x00, 0x00, 0x00, 0x00, 0x53,
  0x00, 0x36, 0xc5, 0x00, 0x44, 0x00, 0x00, 0x00, 0xd0, 0x00, 0x00, 0x43,
  0x00, 0x00, 0x00, 0xcb, 0xcd, 0x00, 0x00, 0xc9, 0x00, 0x00, 0x00, 0x00,
  0x00, 0x00, 0x00, 0x5c, 0x00, 0x00, 0x00, 0x00, 0x72, 0x00, 0x6b, 0x00,
  0x00, 0x00, 0x00, 0xb9, 0x00, 0x6e, 0x00, 0x00, 0x75, 0x00, 0x00, 0x00,
  0x00, 0x00, 0x00, 0xaa, 0x00, 0x4b, 0x00, 0x3d, 0xb4, 0x9f, 0x00, 0x00,
  0x00, 0x45, 0x44, 0x00, 0x00, 0x00, 0x82, 0x58, 0x00, 0x5d, 0x00, 0xc5,
  0x00, 0x00, 0x00, 0x00, 0x00, 0x00, 0x00, 0xb2, 0x3d, 0x00, 0x66, 0x00,
  0x00, 0x00, 0x00, 0x00, 0x00, 0x7b, 0xaa, 0x00, 0xa8, 0x42, 0xb3, 0x46,
  0x71, 0x98, 0x00, 0x00, 0x00, 0x00, 0x70, 0x38, 0x00, 0x00, 0x49, 0x00,
  0x00, 0x00, 0x00, 0x00, 0x00, 0x00, 0x00, 0x00, 0x00, 0x00, 0x00, 0x6a,
  0x00, 0x81, 0xc8, 0x00, 0x00, 0x00, 0x00, 0x00, 0x00, 0x00, 0x00, 0x40,
  0x00, 0x58, 0x00, 0x00, 0x00, 0x00, 0x3a, 0x8e, 0x00, 0x00, 0x00, 0x00,
  0x65, 0x00, 0x00, 0xc3, 0x00, 0x00, 0x00, 0x00, 0x3a, 0x00, 0x00, 0x00,
  0x00, 0x00, 0x00, 0xb9, 0xaa, 0x00, 0x00, 0x00, 0xa6, 0xed, 0xff, 0xff,
  0x04, 0x00, 0x00, 0x00, 0x80, 0x00, 0x00, 0x00, 0x64, 0xf3, 0xff, 0xff,
  0x28, 0xe4, 0xff, 0xff, 0x1d, 0x33, 0x00, 0x00, 0xd3, 0x0f, 0x00, 0x00,
  0xa8, 0xe8, 0xff, 0xff, 0x00, 0x07, 0x00, 0x00, 0x5e, 0x1a, 0x00, 0x00,
  0xe7, 0xed, 0xff, 0xff, 0x62, 0xd1, 0xff, 0xff, 0x21, 0x01, 0x00, 0x00,
  0x13, 0xf8, 0xff, 0xff, 0xb5, 0x15, 0x00, 0x00, 0x2a, 0x14, 0x00, 0x00,
  0x58, 0x18, 0x00, 0x00, 0x39, 0x3e, 0x00, 0x00, 0x98, 0x0e, 0x00, 0x00,
  0x68, 0x36, 0x00, 0x00, 0x2c, 0x3c, 0x00, 0x00, 0x45, 0x95, 0xff, 0xff,
  0x1a, 0xf6, 0xff, 0xff, 0x1f, 0xf6, 0xff, 0xff, 0xd3, 0xfe, 0xff, 0xff,
  0xa9, 0xc6, 0xff, 0xff, 0x4f, 0x0b, 0x00, 0x00, 0x40, 0xea, 0xff, 0xff,
  0x27, 0x0b, 0x00, 0x00, 0xa9, 0x37, 0x00, 0x00, 0xd4, 0xe1, 0xff, 0xff,
  0x0f, 0xf2, 0xff, 0xff, 0x32, 0x03, 0x00, 0x00, 0x27, 0x3b, 0x00, 0x00,
  0xcf, 0xff, 0xff, 0xff, 0x32, 0xee, 0xff, 0xff, 0x04, 0x00, 0x00, 0x00,
  0x00, 0x10, 0x00, 0x00, 0x00, 0x46, 0xc3, 0x94, 0xb3, 0x00, 0x00, 0x00,
  0x00, 0xa8, 0x00, 0xc3, 0xa5, 0x00, 0x00, 0x00, 0x57, 0x00, 0xc5, 0x00,
  0x75, 0xa1, 0x00, 0xc1, 0x00, 0x00, 0x00, 0x67, 0x8e, 0x00, 0x5e, 0xb7,
  0x74, 0x3f, 0x00, 0x52, 0x00, 0xaa, 0x00, 0xb0, 0xb6, 0x00, 0x00, 0xb4,
  0x00, 0x00, 0x00, 0x00, 0x00, 0xaf, 0x00, 0x00, 0x00, 0x00, 0x00, 0xa7,
  0x00, 0x6c, 0x00, 0x3a, 0x00, 0x00, 0x00, 0x53, 0x00, 0x00, 0x00, 0x00,
  0x00, 0x3e, 0x5c, 0x00, 0x00, 0x65, 0x00, 0x00, 0xb1, 0x00, 0x00, 0x00,
  0x00, 0x00, 0x00, 0x00, 0x00, 0x81, 0x00, 0x00, 0x00, 0x00, 0x48, 0x00,
  0x00, 0x49, 0x00, 0x00, 0x00, 0xaa, 0x00, 0x00, 0x3c, 0x00, 0x3b, 0x00,
  0xb2, 0x00, 0x6a, 0x00, 0x00, 0x00, 0x53, 0xc1, 0xb1, 0x00, 0x00, 0xc6,
  0x00, 0x00, 0x3c, 0x00, 0x00, 0x00, 0x61, 0xa0, 0x7e, 0x00, 0x00, 0x00,
  0x00, 0x00, 0x00, 0x75, 0x5e, 0x7f, 0x00, 0x5a, 0xa2, 0x00, 0x87, 0x00,
  0xa8, 0x00, 0x67, 0x00, 0x00, 0x6f, 0x00, 0x00, 0x00, 0xa2, 0x00, 0x00,
  0x00, 0x00, 0x97, 0x00, 0x00, 0x00, 0x78, 0x00, 0x00, 0x8e, 0x93, 0x00,
  0x56, 0x00, 0x00, 0x00, 0x62, 0x7b, 0x00, 0x00, 0x00, 0x00, 0x00, 0x60,
  0x00, 0x00, 0x00, 0x00, 0x85, 0x9c, 0x00, 0x8a, 0xa9, 0x00, 0x00, 0x00,
  0x6e, 0x95, 0xaa, 0x00, 0x00, 0x00, 0x00, 0x52, 0x00, 0x84, 0x55, 0x00,
  0x00, 0x00, 0x84, 0x76, 0x00, 0x00, 0x00, 0x00, 0x8a, 0x99, 0x00, 0x00,
  0x00, 0x96, 0x5b, 0x00, 0x00, 0x00, 0x5e, 0xaa, 0x9c, 0x00, 0x00, 0x00,
  0x00, 0x63, 0x00, 0xad, 0x00, 0x00, 0x00, 0x00, 0x00, 0x00, 0x00, 0x00,
  0x5b, 0x00, 0x8f, 0x00, 0xa5, 0x00, 0x00, 0x57, 0x00, 0x8c, 0x00, 0x00,
  0x6e, 0x00, 0x00, 0x00, 0x00, 0x5f, 0xaf, 0x00, 0xc0, 0xbb, 0x00, 0x00,
  0x00, 0x34, 0xce, 0x3e, 0x00, 0x00, 0x4e, 0x5a, 0x7f, 0x00, 0x00, 0x00,
  0x00, 0x43, 0x00, 0x00, 0x00, 0x00, 0x3a, 0x00, 0x41, 0x4d, 0x6c, 0x2f,
  0x00, 0x3f, 0x00, 0x00, 0x00, 0x00, 0xb5, 0xbd, 0xcc, 0x00, 0x7f, 0x00,
  0x3b, 0x50, 0xbc, 0x4c, 0x4b, 0x00, 0x5e, 0x00, 0x00, 0x00, 0x00, 0x40,
  0x00, 0xc3, 0x00, 0x55, 0xc8, 0x00, 0x74, 0x00, 0x00, 0x00, 0xce, 0xbb,
  0x4d, 0x00, 0x00, 0x00, 0x00, 0x00, 0xc6, 0x00, 0x00, 0x00, 0x00, 0x00,
  0x00, 0xcb, 0x00, 0x46, 0x00, 0x00, 0x00, 0x00, 0x00, 0x00, 0x00, 0x4d,
  0x5a, 0x00, 0x00, 0x00, 0x00, 0x00, 0x00, 0x00, 0x00, 0x37, 0x00, 0x00,
  0x00, 0x5e, 0x00, 0x00, 0x00, 0x00, 0xc7, 0x00, 0x90, 0x00, 0xce, 0x00,
  0x00, 0x00, 0x00, 0x33, 0x00, 0x00, 0xcc, 0x00, 0xcf, 0x00, 0x00, 0x42,
  0xab, 0x00, 0x00, 0x00, 0x4b, 0xa8, 0x39, 0x5b, 0x00, 0x00, 0xa0, 0x00,
  0x50, 0x00, 0x5a, 0x00, 0xba, 0x00, 0x99, 0x00, 0xa5, 0x00, 0x00, 0x00,
  0x00, 0x00, 0x00, 0x00, 0x00, 0x39, 0x00, 0xab, 0x3f, 0x4c, 0x00, 0x3e,
  0x00, 0x00, 0xb9, 0xc2, 0x47, 0x7d, 0x81, 0x96, 0x00, 0x50, 0x00, 0x00,
  0xb5, 0x00, 0x85, 0x00, 0x00, 0x39, 0x00, 0x00, 0x00, 0xb8, 0xb2, 0x3d,
  0x65, 0xc0, 0x42, 0x00, 0x00, 0x64, 0x00, 0x4e, 0xc4, 0xbd, 0xb4, 0x38,
  0x00, 0x00, 0xbe, 0x69, 0x00, 0x00, 0x00, 0x00, 0x00, 0x42, 0x00, 0x00,
  0x00, 0x00, 0x00, 0x00, 0x61, 0x00, 0x00, 0x51, 0x00, 0x00, 0x00, 0x00,
  0xc5, 0x00, 0x00, 0xc1, 0x5e, 0x00, 0x00, 0x00, 0x00, 0x4e, 0xa1, 0xbe,
  0x00, 0xc1, 0xa1, 0x00, 0x00, 0x4d, 0x00, 0xb5, 0x00, 0x6a, 0x00, 0x00,
  0x00, 0x00, 0x00, 0x00, 0x00, 0x00, 0x00, 0x6d, 0x87, 0x00, 0x00, 0x00,
  0x95, 0x00, 0x00, 0x81, 0x96, 0x00, 0x61, 0x00, 0x9d, 0x00, 0x00, 0x00,
  0xa7, 0x53, 0x00, 0x00, 0x00, 0x00, 0x00, 0x00, 0x00, 0x50, 0x00, 0x00,
  0x00, 0x00, 0x00, 0x65, 0x00, 0x00, 0x6c, 0xa6, 0xab, 0x00, 0x00, 0x00,
  0x5d, 0x00, 0x00, 0x00, 0x58, 0x00, 0x8a, 0x00, 0x00, 0xac, 0x63, 0xa5,
  0x00, 0x9b, 0x00, 0xa8, 0x00, 0x00, 0x00, 0x5b, 0x00, 0x5c, 0x88, 0x5a,
  0x00, 0x00, 0xaf, 0x00, 0x00, 0x00, 0x00, 0x7c, 0x00, 0x71, 0x00, 0x00,
  0x86, 0x00, 0x71, 0x00, 0x8f, 0xa5, 0x00, 0x91, 0x00, 0x00, 0x00, 0x00,
  0x6a, 0x00, 0x00, 0x9a, 0x97, 0x00, 0x00, 0x8d, 0x59, 0x8b, 0x58, 0xac,
  0x55, 0x00, 0xad, 0x71, 0x00, 0x00, 0xaa, 0x7e, 0x00, 0x00, 0x00, 0x00,
  0x51, 0x6f, 0x00, 0x00, 0x00, 0x75, 0x00, 0x00, 0x00, 0x00, 0x5c, 0x00,
  0x00, 0x92, 0x00, 0x00, 0xa0, 0x62, 0x00, 0x61, 0x63, 0x00, 0x3c, 0x00,
  0x00, 0x00, 0x00, 0xc1, 0x00, 0x00, 0x9a, 0x85, 0xa6, 0x00, 0x9b, 0x9e,
  0x00, 0x00, 0x00, 0x00, 0x7f, 0x00, 0xb3, 0xbc, 0x4c, 0x00, 0x00, 0x00,
  0x00, 0x00, 0x00, 0x00, 0x45, 0x00, 0x77, 0x00, 0x56, 0xc8, 0xc5, 0x00,
  0x00, 0xac, 0x00, 0xca, 0x00, 0x00, 0x00, 0x00, 0x00, 0x00, 0x00, 0xa2,
  0x00, 0x00, 0xac, 0x00, 0x00, 0x00, 0x00, 0x37, 0x00, 0xa1, 0x00, 0x00,
  0x00, 0x00, 0x00, 0x00, 0x00, 0x00, 0x00, 0xb4, 0xad, 0x60, 0x00, 0xc9,
  0x00, 0x00, 0x00, 0x00, 0xb2, 0xc8, 0x00, 0x57, 0xbd, 0xc9, 0x00, 0x00,
  0x00, 0xc5, 0x00, 0x00, 0x00, 0x56, 0x4e, 0x00, 0x00, 0xc4, 0xb0, 0x00,
  0xb1, 0x00, 0x00, 0x00, 0x5c, 0x00, 0x6f, 0x7d, 0x00, 0x00, 0x6d, 0x00,
  0xc5, 0xa5, 0x46, 0x00, 0x00, 0x7b, 0x4b, 0x00, 0xb5, 0x00, 0x4c, 0x00,
  0x3f, 0x00, 0xc0, 0xbd, 0xbe, 0x00, 0x4b, 0x59, 0xbe, 0x00, 0x00, 0x00,
  0x00, 0x51, 0x54, 0x7f, 0x00, 0xc8, 0x00, 0x36, 0x00, 0x50, 0x00, 0xbc,
  0x00, 0x49, 0x00, 0x39, 0x00, 0x00, 0x42, 0x00, 0x66, 0xbe, 0x00, 0x00,
  0xc2, 0x00, 0x9f, 0xc2, 0x00, 0x00, 0x3d, 0x3e, 0x00, 0x55, 0x00, 0x3d,
  0x00, 0x00, 0x00, 0x00, 0x74, 0x5a, 0xc7, 0x00, 0x00, 0x00, 0x00, 0x5c,
  0x00, 0xb8, 0x66, 0x00, 0x50, 0x53, 0x00, 0x00, 0x00, 0x00, 0xbb, 0x00,
  0x00, 0x00, 0x3c, 0x00, 0x00, 0x00, 0xb9, 0x39, 0x00, 0x49, 0x00, 0x52,
  0x00, 0x00, 0xca, 0x00, 0x40, 0x00, 0xbd, 0x39, 0x55, 0x00, 0xc3, 0x00,
  0xba, 0x36, 0x00, 0x00, 0x4d, 0xb6, 0x49, 0x00, 0xbb, 0x00, 0x38, 0x00,
  0x38, 0x00, 0xa4, 0x00, 0xaa, 0x00, 0x00, 0x00, 0x7d, 0x00, 0x00, 0x00,
  0x00, 0xb0, 0x00, 0xba, 0x00, 0xcc, 0xc1, 0xcb, 0xc1, 0x00, 0x00, 0xaf,
  0xbd, 0x00, 0xcb, 0x00, 0xca, 0x00, 0x6b, 0x3e, 0x00, 0xa6, 0x00, 0x00,
  0xb8, 0x33, 0x63, 0x00, 0x7f, 0x00, 0x45, 0x00, 0x4c, 0x00, 0x00, 0x68,
  0x00, 0x00, 0x00, 0x00, 0x00, 0x00, 0x00, 0xc0, 0x3d, 0xb5, 0x5f, 0x00,
  0x00, 0xbc, 0x78, 0x00, 0xc1, 0xb3, 0x00, 0x37, 0x00, 0x00, 0x36, 0xc1,
  0x3e, 0x00, 0x3d, 0x00, 0x00, 0x00, 0x00, 0x00, 0x00, 0x00, 0x00, 0x00,
  0x00, 0x00, 0x00, 0xbf, 0x00, 0xb4, 0x00, 0x00, 0xb8, 0x00, 0x00, 0xc0,
  0x00, 0x36, 0x36, 0x00, 0xbc, 0x00, 0x00, 0x35, 0x52, 0x00, 0x00, 0x70,
  0xc9, 0x00, 0x00, 0x00, 0x00, 0xb1, 0x47, 0x00, 0x00, 0xc5, 0xbf, 0x00,
  0xcb, 0x00, 0x00, 0x3c, 0x44, 0x35, 0x00, 0x00, 0x00, 0x3c, 0x00, 0x61,
  0x00, 0x00, 0x3e, 0x00, 0x00, 0x00, 0xb6, 0xb3, 0x45, 0x5d, 0x00, 0x00,
  0xc5, 0x00, 0x00, 0x38, 0x00, 0x42, 0x00, 0x4f, 0x00, 0x00, 0x00, 0x00,
  0x00, 0x40, 0x00, 0x00, 0x00, 0xcc, 0x5c, 0x00, 0x00, 0x00, 0x00, 0x00,
  0x00, 0x37, 0xc6, 0xb7, 0x00, 0x00, 0x00, 0x00, 0x4e, 0xc8, 0x47, 0x00,
  0x73, 0x00, 0xc9, 0x00, 0x00, 0x48, 0x00, 0x00, 0x00, 0x00, 0x33, 0x7f,
  0x00, 0xc0, 0x00, 0x39, 0x5c, 0x00, 0x00, 0x90, 0x4d, 0x00, 0x4b, 0x00,
  0xca, 0x00, 0x00, 0x61, 0xc4, 0x33, 0x35, 0xb4, 0x00, 0x00, 0x00, 0x00,
  0x00, 0x49, 0x4a, 0x42, 0x00, 0xc0, 0x00, 0x00, 0x32, 0x39, 0x00, 0xbc,
  0x00, 0x00, 0xba, 0x00, 0x4c, 0x00, 0x00, 0x00, 0x00, 0xbe, 0x00, 0x00,
  0x00, 0xbf, 0x00, 0xce, 0xaf, 0xb1, 0x00, 0x53, 0x00, 0x47, 0x00, 0x00,
  0x00, 0xcc, 0x60, 0x00, 0x3f, 0x00, 0x00, 0x32, 0xbf, 0x00, 0x00, 0x00,
  0x00, 0x00, 0xc8, 0x00, 0x00, 0x00, 0x61, 0x37, 0x00, 0x00, 0x00, 0x00,
  0x00, 0x00, 0x00, 0x00, 0x00, 0x00, 0x96, 0x57, 0x00, 0x00, 0x00, 0x57,
  0x00, 0x8e, 0x00, 0xaf, 0x00, 0x00, 0x00, 0x00, 0x00, 0x00, 0x00, 0x00,
  0x94, 0x00, 0x00, 0x00, 0x00, 0x8a, 0x00, 0x00, 0x00, 0x97, 0x00, 0x00,
  0x00, 0x00, 0x00, 0xad, 0x6c, 0x74, 0x67, 0x00, 0x00, 0x00, 0x00, 0x66,
  0x00, 0x64, 0x66, 0x5f, 0x4d, 0x54, 0x00, 0x81, 0x00, 0x00, 0x74, 0xad,
  0x00, 0x00, 0x00, 0x00, 0x86, 0x00, 0x56, 0x5c, 0x00, 0x00, 0x94, 0x00,
  0x63, 0x00, 0x00, 0x00, 0x00, 0x00, 0x00, 0x00, 0x00, 0xb0, 0x00, 0x4e,
  0x94, 0x00, 0x00, 0x94, 0xa6, 0x00, 0x00, 0x00, 0x00, 0x00, 0x00, 0xad,
  0x00, 0x00, 0x00, 0x00, 0x9e, 0x00, 0x00, 0x00, 0x00, 0x00, 0x00, 0x87,
  0x00, 0xa9, 0x00, 0x00, 0x00, 0x00, 0x00, 0x00, 0x00, 0x00, 0x00, 0x5c,
  0x64, 0x00, 0x93, 0x00, 0x6a, 0x00, 0x8c, 0x00, 0x9e, 0x5e, 0x8f, 0x00,
  0x00, 0x00, 0x54, 0x00, 0x00, 0x7f, 0x00, 0x44, 0xb4, 0x3e, 0x65, 0x00,
  0x63, 0xbe, 0x5c, 0xbe, 0x56, 0x00, 0x00, 0x00, 0x00, 0x00, 0x41, 0x4f,
  0x5d, 0x00, 0x00, 0x00, 0x5c, 0xae, 0x00, 0x00, 0x00, 0x00, 0x00, 0x00,
  0x00, 0x00, 0x75, 0x00, 0x00, 0x43, 0x44, 0x58, 0x00, 0x00, 0x6a, 0xaf,
  0x00, 0x00, 0x59, 0x00, 0x4f, 0x00, 0x00, 0x00, 0x87, 0x58, 0x00, 0xaf,
  0x00, 0x00, 0x00, 0x00, 0xba, 0x00, 0x00, 0x00, 0x57, 0x00, 0x00, 0x45,
  0x42, 0x00, 0xb7, 0x00, 0xb0, 0x00, 0x00, 0x50, 0x00, 0x00, 0xb0, 0x00,
  0x00, 0xb1, 0x00, 0x00, 0x00, 0x00, 0x00, 0xb0, 0x00, 0x00, 0x41, 0x48,
  0xc0, 0x00, 0x00, 0xaf, 0x00, 0x00, 0x00, 0x60, 0x3d, 0x41, 0x00, 0x50,
  0x00, 0x00, 0xc0, 0xad, 0x62, 0xa4, 0x54, 0x00, 0x4f, 0x00, 0x00, 0x00,
  0x00, 0x00, 0xbf, 0x00, 0xb8, 0x00, 0x00, 0xb7, 0x00, 0xcb, 0x00, 0x00,
  0x37, 0x00, 0x5f, 0x00, 0xc3, 0xc8, 0x44, 0x00, 0x00, 0x4a, 0x00, 0x00,
  0x49, 0x00, 0x3d, 0x00, 0x00, 0xa2, 0x00, 0x3d, 0x00, 0x00, 0x00, 0x00,
  0x00, 0x00, 0x35, 0x00, 0x00, 0x33, 0x00, 0x42, 0x00, 0x00, 0x00, 0x39,
  0x38, 0xa8, 0x4c, 0xbd, 0x00, 0x5b, 0x00, 0x00, 0x00, 0x81, 0x00, 0x00,
  0x00, 0x00, 0x63, 0xab, 0xb5, 0x00, 0xae, 0xb6, 0x00, 0x00, 0x00, 0x00,
  0x00, 0x00, 0x46, 0xbd, 0x00, 0x00, 0x00, 0x00, 0xca, 0x00, 0x42, 0x00,
  0x00, 0x00, 0xae, 0x00, 0xb9, 0x54, 0x00, 0x33, 0x00, 0xa6, 0x3e, 0x00,
  0x00, 0xc0, 0x00, 0x00, 0x39, 0x00, 0x00, 0x00, 0x00, 0xc1, 0x00, 0x72,
  0x00, 0x00, 0x5a, 0xba, 0x00, 0x36, 0x00, 0x3a, 0x4a, 0x00, 0x3d, 0x00,
  0xca, 0x00, 0x46, 0x41, 0x00, 0x00, 0x00, 0x00, 0x00, 0x44, 0x00, 0x00,
  0x4e, 0x00, 0x4f, 0x00, 0x4d, 0x00, 0xb7, 0xc6, 0x00, 0x00, 0x00, 0x00,
  0xae, 0xbb, 0x00, 0x8f, 0x00, 0x00, 0x31, 0x00, 0x00, 0xca, 0x00, 0x00,
  0x33, 0x00, 0x00, 0x00, 0x00, 0x00, 0x00, 0x36, 0xc5, 0x00, 0x00, 0xb5,
  0x4b, 0x00, 0x31, 0x63, 0x00, 0x00, 0xc2, 0x00, 0x41, 0xb3, 0x3b, 0x00,
  0x00, 0x00, 0x00, 0x00, 0x00, 0x81, 0x00, 0x00, 0x00, 0x00, 0x00, 0x8a,
  0x00, 0x00, 0xcf, 0xbd, 0xb6, 0x00, 0x00, 0x00, 0x00, 0x44, 0x34, 0x00,
  0x00, 0x38, 0x00, 0xab, 0x35, 0x00, 0xc5, 0x38, 0x00, 0xb1, 0x00, 0x00,
  0xcd, 0xa8, 0x00, 0x41, 0x00, 0xae, 0x00, 0x00, 0x00, 0x00, 0x00, 0x00,
  0x00, 0x43, 0x32, 0x00, 0x00, 0x00, 0x00, 0x00, 0x00, 0x00, 0x42, 0x00,
  0x37, 0x00, 0x00, 0x3d, 0x6a, 0xb7, 0x4f, 0x00, 0x95, 0x34, 0x34, 0x00,
  0x38, 0x3d, 0x00, 0x00, 0x00, 0x00, 0x44, 0xac, 0x34, 0x00, 0x00, 0x00,
  0x00, 0x00, 0x00, 0x00, 0x00, 0x00, 0x00, 0x42, 0x00, 0x3e, 0x00, 0x00,
  0x50, 0x48, 0x00, 0xbc, 0x00, 0x4b, 0x00, 0x00, 0x00, 0x42, 0x00, 0x7f,
  0x00, 0x3f, 0x50, 0x00, 0x59, 0x00, 0x00, 0x2c, 0x00, 0x00, 0xc0, 0x00,
  0x00, 0x00, 0x60, 0x3f, 0xd3, 0x00, 0x3b, 0x00, 0x00, 0x4e, 0x4f, 0x00,
  0x00, 0x00, 0x00, 0xd4, 0x00, 0x00, 0x00, 0x00, 0x00, 0x00, 0x00, 0xba,
  0x00, 0x00, 0x00, 0x00, 0x00, 0xd5, 0x3d, 0x00, 0x00, 0x00, 0xa9, 0xc8,
  0x00, 0xbb, 0xc3, 0x00, 0xc0, 0x00, 0x00, 0x00, 0x39, 0x31, 0xce, 0x00,
  0x00, 0x36, 0x00, 0xbf, 0x46, 0xc8, 0xcf, 0xcf, 0x00, 0x00, 0xc8, 0x36,
  0x00, 0xbb, 0x00, 0x40, 0xcd, 0x00, 0x00, 0x00, 0x00, 0x2b, 0xd4, 0x00,
  0x00, 0xd5, 0x31, 0x3c, 0x4b, 0xcd, 0x30, 0xcd, 0xc7, 0xb1, 0x00, 0x00,
  0x00, 0x34, 0xb9, 0x00, 0xd4, 0xbd, 0x00, 0x00, 0x55, 0x00, 0xae, 0x00,
  0x00, 0x39, 0x00, 0xad, 0x00, 0x4e, 0xb9, 0x00, 0xcb, 0x00, 0x9c, 0xc8,
  0x00, 0xc8, 0x00, 0x5e, 0x3a, 0x00, 0x00, 0x8e, 0x00, 0x00, 0x00, 0x3d,
  0x00, 0x00, 0x00, 0x00, 0x3a, 0x00, 0x47, 0x60, 0x00, 0x00, 0x83, 0x00,
  0x00, 0x00, 0x00, 0x00, 0x9a, 0x00, 0x00, 0x00, 0x81, 0x52, 0x00, 0x00,
  0x00, 0x4a, 0x4a, 0x89, 0x00, 0x00, 0x00, 0x00, 0xb2, 0x00, 0x37, 0x3c,
  0x00, 0x00, 0x40, 0x00, 0x00, 0x3a, 0x00, 0x45, 0xb4, 0x50, 0x00, 0x00,
  0x00, 0x00, 0x71, 0x00, 0x00, 0xb2, 0x00, 0x3a, 0x00, 0xc9, 0x00, 0x5f,
  0xc3, 0x00, 0x00, 0x00, 0x00, 0x00, 0x00, 0x52, 0x00, 0x00, 0x00, 0x00,
  0x48, 0x00, 0x00, 0x96, 0x00, 0x00, 0xb7, 0x00, 0x62, 0xc7, 0x00, 0x00,
  0xb1, 0x00, 0x3f, 0x00, 0x36, 0x41, 0xc2, 0x00, 0x00, 0x00, 0x52, 0x00,
  0x00, 0x36, 0xb7, 0x4c, 0x00, 0x00, 0x59, 0x65, 0x00, 0x00, 0x50, 0x6a,
  0x00, 0x00, 0x4c, 0x00, 0x86, 0x00, 0x00, 0x9a, 0x98, 0x00, 0x00, 0x91,
  0xa1, 0x5b, 0x00, 0x00, 0x00, 0x67, 0x00, 0x00, 0x81, 0x00, 0x00, 0x00,
  0x00, 0x00, 0x00, 0x00, 0x00, 0x00, 0x97, 0x00, 0x97, 0x00, 0x8a, 0x00,
  0x00, 0x55, 0xaa, 0x00, 0x5c, 0x00, 0x92, 0x00, 0x00, 0x00, 0x64, 0x00,
  0x00, 0x00, 0x00, 0x00, 0x00, 0xa2, 0x6b, 0x00, 0x4d, 0x6f, 0x00, 0x62,
  0x73, 0x00, 0x00, 0x52, 0x51, 0xb3, 0x00, 0x00, 0x00, 0x68, 0x00, 0x00,
  0x69, 0x00, 0x00, 0x00, 0x90, 0x00, 0x00, 0xad, 0x00, 0x00, 0x5e, 0x00,
  0x00, 0x00, 0x98, 0x00, 0x00, 0x00, 0x00, 0x00, 0x00, 0x00, 0x00, 0x00,
  0x00, 0x00, 0x00, 0x00, 0x00, 0x00, 0xab, 0x61, 0x00, 0x00, 0xb4, 0x94,
  0xa3, 0x00, 0xac, 0xa3, 0x00, 0x00, 0x00, 0xa2, 0x00, 0x00, 0x68, 0x00,
  0x00, 0x51, 0x00, 0x00, 0x00, 0x00, 0x89, 0x6b, 0x00, 0x00, 0x00, 0x00,
  0x00, 0x00, 0x65, 0x00, 0x56, 0x5a, 0x00, 0x8b, 0xa1, 0x8b, 0x00, 0x50,
  0x00, 0x8f, 0x64, 0x00, 0x00, 0x00, 0x98, 0x9f, 0x00, 0x00, 0x00, 0x00,
  0x00, 0x00, 0x00, 0x00, 0x00, 0x00, 0x00, 0x93, 0x00, 0x00, 0x6f, 0x62,
  0x93, 0xa0, 0x00, 0x00, 0xa2, 0xab, 0x00, 0x00, 0xb0, 0x00, 0x00, 0x6c,
  0x00, 0x90, 0x00, 0x00, 0x5a, 0x73, 0x00, 0x00, 0x00, 0x51, 0x00, 0x58,
  0xaa, 0x00, 0x00, 0x00, 0x92, 0xae, 0x00, 0x81, 0x00, 0x00, 0xa8, 0x54,
  0x00, 0x76, 0x65, 0x00, 0x00, 0x00, 0x84, 0x00, 0x00, 0x00, 0x00, 0x00,
  0x9a, 0x00, 0x00, 0x54, 0x00, 0x00, 0x00, 0x4d, 0x00, 0x52, 0xb3, 0xa8,
  0x51, 0x63, 0x00, 0x8d, 0x00, 0x00, 0x00, 0x00, 0xae, 0x68, 0xa5, 0x00,
  0x00, 0x00, 0x82, 0x87, 0x00, 0x4d, 0x50, 0x00, 0x55, 0x00, 0x00, 0x00,
  0x00, 0x00, 0x37, 0x00, 0x00, 0x00, 0xbc, 0x00, 0xa4, 0xa6, 0x00, 0xa4,
  0x6b, 0x00, 0x00, 0x00, 0x00, 0x00, 0x00, 0xc7, 0x00, 0x00, 0x00, 0x00,
  0x00, 0x00, 0x00, 0x00, 0x00, 0x00, 0x00, 0x00, 0x41, 0x3d, 0x00, 0x00,
  0xba, 0x97, 0xbc, 0x00, 0x00, 0x54, 0x55, 0x42, 0x00, 0x00, 0x00, 0x00,
  0x00, 0x51, 0x00, 0x00, 0xa2, 0x00, 0x93, 0x00, 0xc1, 0x38, 0x00, 0x3c,
  0x00, 0x00, 0x5e, 0x00, 0x4f, 0x00, 0x00, 0x00, 0xc1, 0x00, 0x00, 0x00,
  0x00, 0x4c, 0x45, 0x3a, 0x00, 0x00, 0x3f, 0x59, 0x59, 0xbf, 0x55, 0xbc,
  0x00, 0x00, 0x00, 0x00, 0x00, 0x00, 0xb5, 0x47, 0x00, 0x00, 0xba, 0x00,
  0x00, 0x00, 0x00, 0x00, 0x00, 0x00, 0x4e, 0x4d, 0x00, 0x00, 0x00, 0x00,
  0x81, 0x00, 0x00, 0x00, 0x00, 0x00, 0x00, 0xb1, 0x00, 0x00, 0x00, 0x00,
  0x62, 0xb2, 0x00, 0x00, 0x00, 0x00, 0xce, 0x00, 0x00, 0x66, 0x63, 0x42,
  0x00, 0x00, 0x00, 0x00, 0x00, 0x00, 0x38, 0xae, 0x54, 0x42, 0x00, 0x00,
  0xc7, 0x00, 0x00, 0x49, 0x4b, 0x00, 0x00, 0x00, 0x00, 0x00, 0xbb, 0x00,
  0xd1, 0x00, 0x00, 0x34, 0x00, 0x00, 0x7c, 0x00, 0x00, 0x00, 0x2e, 0xca,
  0x00, 0x00, 0x00, 0xb0, 0x7f, 0x8b, 0xc5, 0x00, 0xc7, 0x00, 0x00, 0x00,
  0x00, 0x00, 0x5c, 0x00, 0x00, 0x3c, 0x00, 0x00, 0xc1, 0x3f, 0x00, 0x00,
  0x00, 0xad, 0x31, 0xc8, 0x4a, 0x00, 0x00, 0x00, 0x00, 0x00, 0xcc, 0x00,
  0xd1, 0x68, 0x00, 0x46, 0xc3, 0x00, 0x00, 0xcf, 0x00, 0xc3, 0x00, 0x00,
  0x00, 0x30, 0x41, 0x32, 0x00, 0x00, 0xcf, 0x47, 0x00, 0x00, 0x00, 0x00,
  0x00, 0x00, 0x45, 0x00, 0x00, 0xc5, 0x43, 0x3d, 0xd0, 0x00, 0xbe, 0x00,
  0x00, 0x33, 0x00, 0x00, 0xc1, 0x00, 0x00, 0x00, 0x5e, 0x00, 0x31, 0x47,
  0xb8, 0x00, 0x00, 0xcc, 0x00, 0x42, 0x00, 0x00, 0x00, 0x00, 0x00, 0x00,
  0x3f, 0xbf, 0x3e, 0x30, 0x00, 0x42, 0x00, 0x00, 0x00, 0x3b, 0xcd, 0x65,
  0x00, 0x00, 0x48, 0xb7, 0x00, 0x00, 0x00, 0x00, 0x00, 0xc6, 0xd2, 0x44,
  0xc1, 0x00, 0x37, 0x63, 0x00, 0x00, 0x00, 0x00, 0x67, 0x00, 0x58, 0x00,
  0x7f, 0x00, 0x00, 0x00, 0x00, 0x00, 0x00, 0x00, 0xd0, 0x3b, 0x00, 0xb1,
  0x00, 0x33, 0x3f, 0x00, 0xc3, 0xba, 0x00, 0x00, 0x00, 0x00, 0x00, 0x00,
  0x00, 0xb8, 0x33, 0x00, 0xc6, 0x00, 0x00, 0x3d, 0x00, 0x00, 0xc3, 0x4d,
  0xc2, 0x00, 0x00, 0xba, 0x00, 0x00, 0x00, 0x00, 0xbb, 0x00, 0x00, 0x00,
  0x00, 0xcb, 0x00, 0x00, 0x3c, 0xc5, 0x6a, 0xc9, 0x00, 0x00, 0x00, 0x00,
  0x00, 0xce, 0x00, 0x00, 0x00, 0xbd, 0x00, 0x00, 0x4b, 0x33, 0x54, 0x00,
  0x00, 0x00, 0xb3, 0x40, 0x31, 0x00, 0x00, 0x00, 0x00, 0x00, 0x00, 0x67,
  0x3a, 0x45, 0x30, 0xd2, 0x30, 0x00, 0x00, 0x51, 0x32, 0x31, 0x00, 0x32,
  0x00, 0x42, 0x00, 0x00, 0x00, 0x42, 0xc4, 0x00, 0x00, 0x00, 0x00, 0xbc,
  0x00, 0x00, 0x00, 0x38, 0xc4, 0x00, 0x94, 0x00, 0x00, 0xc7, 0x51, 0x00,
  0x00, 0x00, 0xc6, 0x48, 0x00, 0x00, 0x00, 0x00, 0x7f, 0x00, 0x00, 0x5c,
  0x00, 0x3e, 0x00, 0x2e, 0x00, 0x00, 0x4e, 0x35, 0x4c, 0x00, 0x00, 0xc8,
  0x2f, 0x3c, 0xb6, 0x00, 0x00, 0x00, 0x00, 0x00, 0x00, 0x00, 0x00, 0x00,
  0x00, 0xce, 0x00, 0x00, 0xcc, 0x00, 0x00, 0x00, 0x4c, 0x00, 0xc4, 0x00,
  0x00, 0x45, 0x00, 0x49, 0x00, 0xba, 0xd1, 0xd0, 0x00, 0x00, 0x00, 0xb3,
  0x2e, 0xca, 0x00, 0x4c, 0x00, 0x00, 0x00, 0x00, 0x00, 0xcd, 0x00, 0x00,
  0x38, 0x00, 0x00, 0x3a, 0x00, 0xca, 0x00, 0x00, 0x34, 0x00, 0xce, 0x00,
  0xb4, 0x00, 0x00, 0x00, 0x00, 0x00, 0x00, 0x00, 0x34, 0x00, 0xd0, 0x99,
  0x00, 0x46, 0x00, 0x00, 0xa7, 0x00, 0xb2, 0x6f, 0xc8, 0xcd, 0x00, 0x31,
  0x3d, 0x00, 0xbb, 0x9f, 0x00, 0x00, 0xc6, 0x00, 0x00, 0x46, 0x00, 0x00,
  0x00, 0xc4, 0x4a, 0x3a, 0xcd, 0x00, 0x00, 0xc9, 0xd4, 0x42, 0x00, 0x00,
  0x00, 0x00, 0xba, 0x5d, 0x00, 0x7f, 0x00, 0x00, 0x00, 0x00, 0x00, 0x00,
  0x00, 0xb8, 0xae, 0x3b, 0xb4, 0x00, 0x00, 0x00, 0x00, 0x00, 0x00, 0x00,
  0x3d, 0x2f, 0x5f, 0x00, 0x00, 0x41, 0x00, 0x00, 0x00, 0x00, 0x00, 0x00,
  0xc5, 0xae, 0xc1, 0x00, 0x00, 0x44, 0xcc, 0x00, 0x00, 0xd3, 0x00, 0x2d,
  0x62, 0x00, 0xcc, 0x3c, 0x4e, 0x00, 0x00, 0x00, 0x00, 0x44, 0xa4, 0xb4,
  0x00, 0xc3, 0x00, 0xcb, 0x3b, 0x40, 0x00, 0x00, 0x34, 0x00, 0xca, 0x00,
  0x00, 0x00, 0x00, 0x3e, 0x00, 0x00, 0x43, 0x00, 0x00, 0x41, 0x00, 0x48,
  0x00, 0x00, 0x00, 0x4e, 0xa5, 0x92, 0x8a, 0x97, 0x00, 0x00, 0x00, 0x00,
  0x00, 0x57, 0x00, 0x57, 0x81, 0x00, 0xa7, 0x00, 0x00, 0x00, 0x00, 0x00,
  0x00, 0x00, 0x00, 0x4a, 0x00, 0x00, 0x00, 0x00, 0xac, 0x4b, 0x00, 0x00,
  0xa4, 0x6d, 0x93, 0x83, 0x9a, 0x3f, 0x44, 0x00, 0x00, 0x00, 0x00, 0x00,
  0xa6, 0x7d, 0x00, 0x40, 0x00, 0xb3, 0xa5, 0x00, 0x64, 0x00, 0x00, 0x00,
  0xb8, 0x00, 0x00, 0x5a, 0x45, 0xb1, 0x00, 0xa6, 0x00, 0x00, 0x00, 0x00,
  0x00, 0x00, 0xb9, 0x5a, 0x72, 0x00, 0x00, 0x3f, 0xbd, 0x9c, 0x00, 0x86,
  0x00, 0x66, 0x00, 0x4e, 0xb2, 0x68, 0x63, 0x9a, 0x00, 0x4c, 0x48, 0x00,
  0x60, 0x00, 0x4f, 0x00, 0x00, 0x00, 0x8a, 0xb7, 0x5d, 0x00, 0x00, 0x00,
  0x00, 0x00, 0x97, 0x00, 0x5c, 0x00, 0x00, 0x00, 0x00, 0x00, 0x00, 0x00,
  0x00, 0x00, 0x41, 0x00, 0x97, 0x45, 0x00, 0x00, 0xb1, 0x00, 0x00, 0x59,
  0x00, 0x00, 0x00, 0x3f, 0x36, 0x00, 0x00, 0x00, 0xc8, 0x00, 0x4c, 0x44,
  0x00, 0x42, 0x00, 0xbb, 0xb3, 0x00, 0x00, 0x00, 0x6c, 0x00, 0x00, 0xb9,
  0x00, 0x00, 0x7f, 0xbb, 0x00, 0x00, 0x00, 0x37, 0x00, 0x00, 0x00, 0x00,
  0x00, 0x00, 0x48, 0xc2, 0x00, 0x00, 0x00, 0x00, 0x00, 0x00, 0x00, 0x00,
  0x46, 0x00, 0x46, 0x52, 0x00, 0x00, 0x00, 0x00, 0x00, 0x00, 0x00, 0x00,
  0xc6, 0x00, 0x49, 0xb7, 0x00, 0x39, 0x00, 0x00, 0x00, 0x00, 0x00, 0x53,
  0x41, 0x00, 0x00, 0x00, 0x00, 0x3d, 0x00, 0x00, 0xc2, 0x41, 0x00, 0x00,
  0x60, 0x00, 0xbc, 0xb5, 0x42, 0xc4, 0x3b, 0x00, 0x00, 0x36, 0x00, 0x3e,
  0xc2, 0x00, 0x00, 0x00, 0x00, 0xbf, 0x54, 0x00, 0x00, 0xa8, 0x00, 0x34,
  0x47, 0x00, 0x00, 0x3a, 0xbd, 0xad, 0x00, 0x48, 0x00, 0x00, 0x00, 0x00,
  0x37, 0xb7, 0x00, 0x00, 0x50, 0x00, 0x00, 0x00, 0x00, 0xce, 0x00, 0xc1,
  0x2f, 0x00, 0xc1, 0xa5, 0xbf, 0x00, 0x00, 0x00, 0x4b, 0xbf, 0xcf, 0x00,
  0x50, 0xcc, 0x00, 0x9b, 0xbe, 0xd0, 0xc2, 0x41, 0xbd, 0x00, 0x00, 0x00,
  0x00, 0x00, 0x3c, 0x49, 0x00, 0x00, 0xc2, 0x00, 0xc9, 0xa5, 0xca, 0x81,
  0x00, 0x00, 0x00, 0x00, 0x00, 0x8e, 0x00, 0xbe, 0x00, 0x00, 0x00, 0x00,
  0x00, 0x43, 0xc2, 0x38, 0x32, 0x00, 0x3d, 0x00, 0x4b, 0x00, 0x00, 0x00,
  0x00, 0x00, 0x45, 0xaa, 0x00, 0x41, 0x00, 0x00, 0x00, 0xb7, 0xbc, 0x00,
  0xc7, 0x00, 0x00, 0x3a, 0x00, 0xbc, 0x00, 0x00, 0x00, 0x00, 0xc3, 0xcc,
  0x4d, 0x38, 0x00, 0xc9, 0xaf, 0x00, 0x00, 0x00, 0x00, 0x00, 0x00, 0xa7,
  0x00, 0x4a, 0x00, 0x00, 0x00, 0x00, 0x6c, 0xba, 0xb5, 0x00, 0x00, 0x34,
  0x35, 0x56, 0x00, 0xc0, 0xb4, 0x00, 0x00, 0x00, 0x5d, 0x00, 0x40, 0x53,
  0x00, 0x00, 0x00, 0xab, 0x6d, 0x00, 0x00, 0x00, 0x00, 0x00, 0x83, 0x00,
  0x00, 0x00, 0x00, 0x00, 0x00, 0x00, 0x5c, 0xa0, 0x97, 0x00, 0x00, 0x00,
  0x00, 0x94, 0x00, 0x00, 0x00, 0x00, 0x00, 0x00, 0x00, 0x00, 0x00, 0x94,
  0x99, 0x9c, 0x00, 0xa7, 0x00, 0x81, 0x9a, 0x00, 0xaa, 0x00, 0x00, 0x5d,
  0x97, 0x90, 0x00, 0x8a, 0x00, 0x00, 0x9c, 0x51, 0x00, 0x00, 0x00, 0x00,
  0x00, 0xaa, 0x00, 0x6c, 0x00, 0x00, 0xac, 0x00, 0x73, 0x51, 0x00, 0x00,
  0x00, 0x00, 0x00, 0x00, 0x5d, 0x54, 0x00, 0x00, 0x00, 0x00, 0x65, 0x00,
  0x5d, 0x65, 0x00, 0x53, 0x00, 0x00, 0x00, 0x00, 0x91, 0x00, 0x00, 0x8f,
  0x00, 0x6a, 0x8a, 0x00, 0x00, 0x00, 0x00, 0x00, 0xa8, 0x00, 0x00, 0x76,
  0x00, 0x6b, 0x00, 0x00, 0x4d, 0x00, 0x00, 0x4d, 0x00, 0x00, 0x00, 0x00,
  0x00, 0x00, 0x00, 0x00, 0x00, 0x00, 0x00, 0x00, 0x33, 0xbc, 0xaf, 0xd3,
  0x00, 0x34, 0x5e, 0x00, 0x00, 0x00, 0x00, 0x00, 0x00, 0x00, 0x00, 0xb1,
  0x54, 0x00, 0x00, 0x00, 0x00, 0x00, 0x00, 0x00, 0x00, 0x00, 0x00, 0x00,
  0x00, 0x00, 0x00, 0x00, 0x00, 0xbe, 0x3a, 0x00, 0x00, 0x00, 0x7f, 0x00,
  0x47, 0x00, 0x34, 0x00, 0x2e, 0x3a, 0x3f, 0x00, 0x67, 0x00, 0x3e, 0x31,
  0xb7, 0x41, 0xc6, 0x00, 0xa1, 0x00, 0x56, 0x00, 0x00, 0xbf, 0x00, 0x00,
  0x00, 0xc9, 0x38, 0x00, 0x00, 0x33, 0xa7, 0x00, 0x00, 0x00, 0xc9, 0xa8,
  0x00, 0xbc, 0xc3, 0x39, 0xc0, 0x00, 0x00, 0x00, 0x00, 0xab, 0x00, 0x00,
  0x44, 0x00, 0x00, 0x34, 0x00, 0xb8, 0x00, 0x00, 0x00, 0x41, 0x00, 0x52,
  0x00, 0x00, 0x32, 0x00, 0x00, 0x00, 0x00, 0x00, 0x00, 0x40, 0x5f, 0x00,
  0x00, 0x00, 0x00, 0x00, 0x00, 0x00, 0x00, 0x00, 0x00, 0x00, 0x00, 0x00,
  0x53, 0x00, 0xce, 0x00, 0x00, 0x00, 0x55, 0x6c, 0xcb, 0xbf, 0x00, 0x00,
  0x00, 0x00, 0xbe, 0x5b, 0x00, 0x00, 0x00, 0x40, 0x00, 0x00, 0x00, 0x00,
  0x00, 0x00, 0x00, 0x00, 0x42, 0x00, 0x38, 0x00, 0x00, 0x4a, 0x3f, 0x00,
  0xae, 0x00, 0x00, 0xa9, 0x40, 0x39, 0xb5, 0x00, 0x00, 0x00, 0xb6, 0x00,
  0x00, 0x00, 0x92, 0x00, 0x00, 0x78, 0x3d, 0x40, 0x00, 0x00, 0x00, 0x00,
  0x00, 0x00, 0xb2, 0x00, 0x00, 0x51, 0x66, 0x00, 0x00, 0xba, 0x00, 0x00,
  0x3a, 0x5d, 0x52, 0x00, 0x00, 0x00, 0xcb, 0x57, 0x00, 0x55, 0x00, 0x00,
  0x00, 0x00, 0x00, 0x8d, 0x37, 0x70, 0xc7, 0x5a, 0xab, 0x00, 0x00, 0xbf,
  0x3c, 0xaa, 0xb6, 0x45, 0x62, 0x00, 0x00, 0x8f, 0x00, 0x00, 0x81, 0xbb,
  0x00, 0x00, 0xb0, 0x00, 0x00, 0x00, 0xb3, 0x00, 0x58, 0x00, 0x00, 0x00,
  0x00, 0x00, 0xab, 0x00, 0x5d, 0x91, 0x00, 0x57, 0xbd, 0x00, 0x00, 0x00,
  0x00, 0x00, 0x00, 0x00, 0x00, 0x9d, 0x00, 0x00, 0x00, 0x00, 0xc7, 0x00,
  0x00, 0xbd, 0xa4, 0x5c, 0x81, 0x00, 0x44, 0x00, 0xcf, 0x00, 0x40, 0xce,
  0xcd, 0xc3, 0x00, 0x00, 0x59, 0x48, 0x00, 0x00, 0x00, 0x00, 0xc3, 0x00,
  0xcc, 0x3f, 0xa3, 0xa4, 0xcb, 0x47, 0x30, 0x42, 0x00, 0x00, 0x90, 0x66,
  0x00, 0x3e, 0x00, 0x00, 0x00, 0x00, 0x00, 0x00, 0x00, 0x00, 0x00, 0x36,
  0x00, 0x48, 0x4a, 0x00, 0xc3, 0x00, 0x00, 0x00, 0x00, 0x00, 0x00, 0x00,
  0xcf, 0x00, 0x51, 0x40, 0x00, 0x00, 0x00, 0x00, 0x00, 0x00, 0x00, 0xa1,
  0x00, 0x00, 0x00, 0x00, 0xc1, 0x00, 0x30, 0x00, 0x34, 0x00, 0x00, 0x00,
  0x58, 0x00, 0x00, 0x00, 0x00, 0x00, 0x00, 0x00, 0x00, 0xb0, 0x00, 0xae,
  0x00, 0x00, 0x00, 0x00, 0x44, 0x55, 0x00, 0x00, 0x00, 0x00, 0xb0, 0x00,
  0x00, 0x00, 0xcb, 0x00, 0xcc, 0x00, 0xbf, 0x46, 0x40, 0x3e, 0x00, 0x00,
  0x00, 0xd3, 0x00, 0x00, 0x2f, 0x4a, 0xa7, 0x00, 0x00, 0x00, 0x00, 0x5c,
  0x00, 0x00, 0x00, 0x00, 0x30, 0x00, 0x00, 0x91, 0x2b, 0xb8, 0x00, 0x00,
  0x00, 0x3a, 0x58, 0x00, 0x00, 0x00, 0x65, 0x00, 0x00, 0x00, 0x81, 0x00,
  0x00, 0x00, 0x00, 0x00, 0x00, 0x00, 0x96, 0x3a, 0xb6, 0x40, 0x00, 0x00,
  0x00, 0x00, 0xc1, 0xc3, 0x00, 0x00, 0x98, 0x51, 0xad, 0x00, 0x00, 0x47,
  0x00, 0xbe, 0x00, 0x00, 0x00, 0x00, 0x3a, 0x53, 0x00, 0x00, 0x00, 0x00,
  0x00, 0x00, 0x00, 0x00, 0xd1, 0x00, 0x00, 0xc6, 0x00, 0x00, 0x00, 0x00,
  0x00, 0x00, 0x00, 0x00, 0x00, 0x00, 0x00, 0x34, 0x3e, 0x00, 0xd4, 0x00,
  0xc9, 0xc8, 0x00, 0xb5, 0x00, 0x00, 0xc8, 0x36, 0x49, 0x3d, 0x00, 0x35,
  0xc4, 0x00, 0x00, 0x00, 0x00, 0x38, 0x00, 0x00, 0x00, 0x00, 0x00, 0x36,
  0x42, 0x00, 0x00, 0x00, 0x39, 0x00, 0x42, 0x33, 0x00, 0x46, 0x00, 0x00,
  0x00, 0xaf, 0x00, 0x74, 0x00, 0x00, 0x41, 0x00, 0x41, 0x00, 0x00, 0xc1,
  0xb4, 0xbf, 0x00, 0x6e, 0x00, 0x00, 0x00, 0x00, 0x00, 0x00, 0x00, 0x00,
  0x00, 0x4d, 0x00, 0xaa, 0x00, 0x00, 0x00, 0x64, 0x50, 0x00, 0x00, 0x5c,
  0x6d, 0x00, 0x58, 0x00, 0x49, 0x00, 0x00, 0x5a, 0x00, 0x00, 0xb5, 0x34,
  0xa5, 0x00, 0x00, 0x33, 0x6d, 0x4a, 0xb3, 0x00, 0x00, 0x00, 0xb7, 0x4c,
  0x00, 0x00, 0x9f, 0x81, 0xcc, 0xbf, 0x00, 0x00, 0x37, 0x00, 0x00, 0x34,
  0x00, 0x00, 0x43, 0x3b, 0x00, 0xa7, 0xcc, 0xa4, 0x5a, 0xc5, 0x00, 0x00,
  0x00, 0x00, 0x00, 0x00, 0xa3, 0x47, 0x00, 0x34, 0x4b, 0x46, 0x00, 0x00,
  0xc8, 0x00, 0xcc, 0x00, 0x00, 0x39, 0x00, 0x00, 0x00, 0x00, 0x3c, 0x00,
  0x32, 0x36, 0x00, 0xca, 0xa5, 0x00, 0x00, 0xc4, 0x00, 0x00, 0x35, 0xc0,
  0x00, 0x42, 0x00, 0x4e, 0x00, 0x47, 0x00, 0x67, 0xca, 0x00, 0x00, 0x00,
  0x00, 0x00, 0x00, 0xb9, 0x00, 0x00, 0x00, 0x00, 0xaf, 0x31, 0x00, 0x7e,
  0x58, 0xcb, 0x00, 0x00, 0x00, 0xb5, 0x3b, 0x3c, 0x00, 0x00, 0xa5, 0x00,
  0x00, 0xc2, 0x7f, 0x5d, 0x3c, 0x00, 0x00, 0x00, 0x47, 0x50, 0x00, 0xa8,
  0x54, 0xc0, 0x3c, 0x30, 0x42, 0x00, 0x00, 0x53, 0x00, 0x35, 0x50, 0x00,
  0x00, 0x00, 0x00, 0x00, 0x00, 0x00, 0xc1, 0x00, 0x00, 0x00, 0xb6, 0x00,
  0x00, 0xbb, 0x00, 0x00, 0x40, 0xbb, 0xa1, 0x31, 0x00, 0x32, 0x35, 0x00,
  0xb9, 0x00, 0x32, 0x00, 0x5c, 0x38, 0x00, 0x00, 0xcd, 0x00, 0x00, 0x00,
  0x00, 0xc7, 0x00, 0x46, 0x00, 0xcb, 0x00, 0x00, 0x00, 0x00, 0x4e, 0x00,
  0xb8, 0x00, 0x00, 0x00, 0x4d, 0x00, 0x00, 0x00, 0x00, 0x00, 0x00, 0x00,
  0xc3, 0x00, 0x00, 0xcd, 0x00, 0x00, 0x00, 0x00, 0x3e, 0xfe, 0xff, 0xff,
  0x04, 0x00, 0x00, 0x00, 0x80, 0x00, 0x00, 0x00, 0x91, 0x17, 0x00, 0x00,
  0x00, 0x00, 0x00, 0x00, 0x6e, 0xfc, 0xff, 0xff, 0x77, 0x12, 0x00, 0x00,
  0x0e, 0xfb, 0xff, 0xff, 0xca, 0x13, 0x00, 0x00, 0x55, 0xed, 0xff, 0xff,
  0x7f, 0x02, 0x00, 0x00, 0x92, 0x17, 0x00, 0x00, 0xbf, 0xe4, 0xff, 0xff,
  0x47, 0xec, 0xff, 0xff, 0x4f, 0x09, 0x00, 0x00, 0xc1, 0xf7, 0xff, 0xff,
  0x7d, 0xfd, 0xff, 0xff, 0xb1, 0x0a, 0x00, 0x00, 0x2e, 0xe5, 0xff, 0xff,
  0xdd, 0xe7, 0xff, 0xff, 0xc9, 0x35, 0x00, 0x00, 0x7e, 0x0d, 0x00, 0x00,
  0xe7, 0x0d, 0x00, 0x00, 0xf9, 0xf7, 0xff, 0xff, 0xf3, 0x00, 0x00, 0x00,
  0x0a, 0x19, 0x00, 0x00, 0x57, 0xee, 0xff, 0xff, 0xf0, 0x19, 0x00, 0x00,
  0xdc, 0xed, 0xff, 0xff, 0x46, 0xe4, 0xff, 0xff, 0xcb, 0x05, 0x00, 0x00,
  0x90, 0x11, 0x00, 0x00, 0x68, 0x01, 0x00, 0x00, 0x42, 0xec, 0xff, 0xff,
  0xc3, 0xf8, 0xff, 0xff, 0xca, 0xfe, 0xff, 0xff, 0x04, 0x00, 0x00, 0x00,
  0x60, 0x00, 0x00, 0x00, 0xac, 0x00, 0x00, 0x00, 0x00, 0xb3, 0x63, 0x00,
  0x70, 0x00, 0x5a, 0x00, 0x9e, 0x5a, 0x87, 0x00, 0x00, 0x00, 0x00, 0x00,
  0x5a, 0x9f, 0x83, 0x00, 0xaa, 0x00, 0x69, 0x00, 0x00, 0x00, 0x74, 0x7f,
  0xaa, 0x00, 0x00, 0x00, 0x00, 0x00, 0x5d, 0x00, 0x00, 0x00, 0x00, 0x00,
  0x82, 0x00, 0x00, 0x00, 0x00, 0x00, 0xa2, 0x89, 0x00, 0x00, 0x00, 0x00,
  0xa3, 0x00, 0x00, 0x64, 0x7f, 0x00, 0x00, 0x00, 0x00, 0x00, 0x9d, 0x95,
  0x00, 0x67, 0x81, 0x4a, 0x00, 0x00, 0xaf, 0x5b, 0x74, 0x00, 0x52, 0x00,
  0x00, 0x75, 0x00, 0x00, 0x91, 0x00, 0x9c, 0x00, 0x6f, 0x4f, 0x58, 0x00,
  0x00, 0x00, 0x00, 0x00, 0x36, 0xff, 0xff, 0xff, 0x04, 0x00, 0x00, 0x00,
  0x0c, 0x00, 0x00, 0x00, 0x96, 0xf0, 0xff, 0xff, 0x8d, 0x12, 0x00, 0x00,
  0x24, 0xfd, 0xff, 0xff, 0x4e, 0xff, 0xff, 0xff, 0x04, 0x00, 0x00, 0x00,
  0x08, 0x00, 0x00, 0x00, 0xff, 0xff, 0xff, 0xff, 0x80, 0x00, 0x00, 0x00,
  0xc8, 0xe9, 0xff, 0xff, 0xcc, 0xe9, 0xff, 0xff, 0x0f, 0x00, 0x00, 0x00,
  0x4d, 0x4c, 0x49, 0x52, 0x20, 0x43, 0x6f, 0x6e, 0x76, 0x65, 0x72, 0x74,
  0x65, 0x64, 0x2e, 0x00, 0x01, 0x00, 0x00, 0x00, 0x14, 0x00, 0x00, 0x00,
  0x00, 0x00, 0x0e, 0x00, 0x18, 0x00, 0x14, 0x00, 0x10, 0x00, 0x0c, 0x00,
  0x08, 0x00, 0x04, 0x00, 0x0e, 0x00, 0x00, 0x00, 0x14, 0x00, 0x00, 0x00,
  0x1c, 0x00, 0x00, 0x00, 0xec, 0x02, 0x00, 0x00, 0xf0, 0x02, 0x00, 0x00,
  0xf4, 0x02, 0x00, 0x00, 0x04, 0x00, 0x00, 0x00, 0x6d, 0x61, 0x69, 0x6e,
  0x00, 0x00, 0x00, 0x00, 0x0a, 0x00, 0x00, 0x00, 0x84, 0x02, 0x00, 0x00,
  0x20, 0x02, 0x00, 0x00, 0xcc, 0x01, 0x00, 0x00, 0x88, 0x01, 0x00, 0x00,
  0x34, 0x01, 0x00, 0x00, 0xf0, 0x00, 0x00, 0x00, 0xc8, 0x00, 0x00, 0x00,
  0x78, 0x00, 0x00, 0x00, 0x40, 0x00, 0x00, 0x00, 0x04, 0x00, 0x00, 0x00,
  0x12, 0xfe, 0xff, 0xff, 0x1c, 0x00, 0x00, 0x00, 0x00, 0x00, 0x00, 0x09,
  0x1c, 0x00, 0x00, 0x00, 0x20, 0x00, 0x00, 0x00, 0x04, 0x00, 0x00, 0x00,
  0x00, 0x00, 0x06, 0x00, 0x08, 0x00, 0x04, 0x00, 0x06, 0x00, 0x00, 0x00,
  0x00, 0x00, 0x80, 0x3f, 0x01, 0x00, 0x00, 0x00, 0x15, 0x00, 0x00, 0x00,
  0x01, 0x00, 0x00, 0x00, 0x14, 0x00, 0x00, 0x00, 0xda, 0xfe, 0xff, 0xff,
  0x14, 0x00, 0x00, 0x00, 0x00, 0x00, 0x00, 0x08, 0x10, 0x00, 0x00, 0x00,
  0x14, 0x00, 0x00, 0x00, 0x03, 0x00, 0x00, 0x00, 0x9c, 0xea, 0xff, 0xff,
  0x01, 0x00, 0x00, 0x00, 0x14, 0x00, 0x00, 0x00, 0x03, 0x00, 0x00, 0x00,
  0x13, 0x00, 0x00, 0x00, 0x03, 0x00, 0x00, 0x00, 0x02, 0x00, 0x00, 0x00,
  0x7e, 0xfe, 0xff, 0xff, 0x1c, 0x00, 0x00, 0x00, 0x00, 0x00, 0x00, 0x08,
  0x1c, 0x00, 0x00, 0x00, 0x20, 0x00, 0x00, 0x00, 0x03, 0x00, 0x00, 0x00,
  0x00, 0x00, 0x06, 0x00, 0x08, 0x00, 0x07, 0x00, 0x06, 0x00, 0x00, 0x00,
  0x00, 0x00, 0x00, 0x01, 0x01, 0x00, 0x00, 0x00, 0x13, 0x00, 0x00, 0x00,
  0x03, 0x00, 0x00, 0x00, 0x12, 0x00, 0x00, 0x00, 0x05, 0x00, 0x00, 0x00,
  0x04, 0x00, 0x00, 0x00, 0x00, 0x00, 0x0a, 0x00, 0x10, 0x00, 0x0c, 0x00,
  0x08, 0x00, 0x04, 0x00, 0x0a, 0x00, 0x00, 0x00, 0x0c, 0x00, 0x00, 0x00,
  0x10, 0x00, 0x00, 0x00, 0x02, 0x00, 0x00, 0x00, 0x01, 0x00, 0x00, 0x00,
  0x12, 0x00, 0x00, 0x00, 0x02, 0x00, 0x00, 0x00, 0x11, 0x00, 0x00, 0x00,
  0x01, 0x00, 0x00, 0x00, 0x7e, 0xff, 0xff, 0xff, 0x14, 0x00, 0x00, 0x00,
  0x00, 0x00, 0x00, 0x05, 0x24, 0x00, 0x00, 0x00, 0x28, 0x00, 0x00, 0x00,
  0x01, 0x00, 0x00, 0x00, 0xde, 0xfe, 0xff, 0xff, 0x02, 0x00, 0x00, 0x00,
  0x02, 0x00, 0x00, 0x00, 0x02, 0x00, 0x00, 0x00, 0x02, 0x00, 0x00, 0x00,
  0x00, 0x00, 0x00, 0x01, 0x01, 0x00, 0x00, 0x00, 0x11, 0x00, 0x00, 0x00,
  0x01, 0x00, 0x00, 0x00, 0x10, 0x00, 0x00, 0x00, 0xce, 0xfe, 0xff, 0xff,
  0x10, 0x00, 0x00, 0x00, 0x00, 0x00, 0x00, 0x01, 0x1c, 0x00, 0x00, 0x00,
  0x20, 0x00, 0x00, 0x00, 0xc0, 0xfe, 0xff, 0xff, 0x00, 0x00, 0x00, 0x01,
  0x01, 0x00, 0x00, 0x00, 0x01, 0x00, 0x00, 0x00, 0x00, 0x00, 0x00, 0x01,
  0x01, 0x00, 0x00, 0x00, 0x10, 0x00, 0x00, 0x00, 0x03, 0x00, 0x00, 0x00,
  0x0f, 0x00, 0x00, 0x00, 0x07, 0x00, 0x00, 0x00, 0x06, 0x00, 0x00, 0x00,
  0x00, 0x00, 0x0e, 0x00, 0x18, 0x00, 0x14, 0x00, 0x10, 0x00, 0x0c, 0x00,
  0x0b, 0x00, 0x04, 0x00, 0x0e, 0x00, 0x00, 0x00, 0x14, 0x00, 0x00, 0x00,
  0x00, 0x00, 0x00, 0x05, 0x24, 0x00, 0x00, 0x00, 0x28, 0x00, 0x00, 0x00,
  0x01, 0x00, 0x00, 0x00, 0x6e, 0xff, 0xff, 0xff, 0x02, 0x00, 0x00, 0x00,
  0x02, 0x00, 0x00, 0x00, 0x02, 0x00, 0x00, 0x00, 0x02, 0x00, 0x00, 0x00,
  0x00, 0x00, 0x00, 0x01, 0x01, 0x00, 0x00, 0x00, 0x0f, 0x00, 0x00, 0x00,
  0x01, 0x00, 0x00, 0x00, 0x0e, 0x00, 0x00, 0x00, 0x5e, 0xff, 0xff, 0xff,
  0x10, 0x00, 0x00, 0x00, 0x00, 0x00, 0x00, 0x01, 0x1c, 0x00, 0x00, 0x00,
  0x20, 0x00, 0x00, 0x00, 0x50, 0xff, 0xff, 0xff, 0x00, 0x00, 0x00, 0x01,
  0x01, 0x00, 0x00, 0x00, 0x01, 0x00, 0x00, 0x00, 0x00, 0x00, 0x00, 0x01,
  0x01, 0x00, 0x00, 0x00, 0x0e, 0x00, 0x00, 0x00, 0x03, 0x00, 0x00, 0x00,
  0x0d, 0x00, 0x00, 0x00, 0x09, 0x00, 0x00, 0x00, 0x08, 0x00, 0x00, 0x00,
  0x00, 0x00, 0x0e, 0x00, 0x1a, 0x00, 0x14, 0x00, 0x10, 0x00, 0x0c, 0x00,
  0x0b, 0x00, 0x04, 0x00, 0x0e, 0x00, 0x00, 0x00, 0x24, 0x00, 0x00, 0x00,
  0x00, 0x00, 0x00, 0x05, 0x34, 0x00, 0x00, 0x00, 0x38, 0x00, 0x00, 0x00,
  0x01, 0x00, 0x00, 0x00, 0x00, 0x00, 0x0e, 0x00, 0x18, 0x00, 0x17, 0x00,
  0x10, 0x00, 0x0c, 0x00, 0x08, 0x00, 0x04, 0x00, 0x0e, 0x00, 0x00, 0x00,
  0x02, 0x00, 0x00, 0x00, 0x02, 0x00, 0x00, 0x00, 0x02, 0x00, 0x00, 0x00,
  0x02, 0x00, 0x00, 0x00, 0x00, 0x00, 0x00, 0x01, 0x01, 0x00, 0x00, 0x00,
  0x0d, 0x00, 0x00, 0x00, 0x01, 0x00, 0x00, 0x00, 0x0c, 0x00, 0x00, 0x00,
  0x00, 0x00, 0x0e, 0x00, 0x14, 0x00, 0x00, 0x00, 0x10, 0x00, 0x0c, 0x00,
  0x0b, 0x00, 0x04, 0x00, 0x0e, 0x00, 0x00, 0x00, 0x1c, 0x00, 0x00, 0x00,
  0x00, 0x00, 0x00, 0x01, 0x28, 0x00, 0x00, 0x00, 0x2c, 0x00, 0x00, 0x00,
  0x0c, 0x00, 0x14, 0x00, 0x13, 0x00, 0x0c, 0x00, 0x08, 0x00, 0x07, 0x00,
  0x0c, 0x00, 0x00, 0x00, 0x00, 0x00, 0x00, 0x01, 0x01, 0x00, 0x00, 0x00,
  0x01, 0x00, 0x00, 0x00, 0x00, 0x00, 0x00, 0x01, 0x01, 0x00, 0x00, 0x00,
  0x0c, 0x00, 0x00, 0x00, 0x03, 0x00, 0x00, 0x00, 0x00, 0x00, 0x00, 0x00,
  0x0b, 0x00, 0x00, 0x00, 0x0a, 0x00, 0x00, 0x00, 0x01, 0x00, 0x00, 0x00,
  0x15, 0x00, 0x00, 0x00, 0x01, 0x00, 0x00, 0x00, 0x00, 0x00, 0x00, 0x00,
  0x16, 0x00, 0x00, 0x00, 0x34, 0x13, 0x00, 0x00, 0xd8, 0x12, 0x00, 0x00,
  0x48, 0x12, 0x00, 0x00, 0xcc, 0x11, 0x00, 0x00, 0xf8, 0x0f, 0x00, 0x00,
  0x1c, 0x0e, 0x00, 0x00, 0x48, 0x0c, 0x00, 0x00, 0x64, 0x0a, 0x00, 0x00,
  0x50, 0x09, 0x00, 0x00, 0x2c, 0x08, 0x00, 0x00, 0x78, 0x07, 0x00, 0x00,
  0xb4, 0x06, 0x00, 0x00, 0xc0, 0x05, 0x00, 0x00, 0x24, 0x05, 0x00, 0x00,
  0x58, 0x04, 0x00, 0x00, 0xbc, 0x03, 0x00, 0x00, 0xf0, 0x02, 0x00, 0x00,
  0x54, 0x02, 0x00, 0x00, 0xd0, 0x01, 0x00, 0x00, 0x1c, 0x01, 0x00, 0x00,
  0x80, 0x00, 0x00, 0x00, 0x04, 0x00, 0x00, 0x00, 0x3a, 0xed, 0xff, 0xff,
  0x00, 0x00, 0x00, 0x01, 0x18, 0x00, 0x00, 0x00, 0x20, 0x00, 0x00, 0x00,
  0x3c, 0x00, 0x00, 0x00, 0x16, 0x00, 0x00, 0x00, 0x00, 0x00, 0x00, 0x09,
  0x50, 0x00, 0x00, 0x00, 0x02, 0x00, 0x00, 0x00, 0xff, 0xff, 0xff, 0xff,
  0x03, 0x00, 0x00, 0x00, 0x1c, 0xed, 0xff, 0xff, 0x08, 0x00, 0x00, 0x00,
  0x10, 0x00, 0x00, 0x00, 0x01, 0x00, 0x00, 0x00, 0x80, 0xff, 0xff, 0xff,
  0xff, 0xff, 0xff, 0xff, 0x01, 0x00, 0x00, 0x00, 0x00, 0x00, 0x80, 0x3b,
  0x19, 0x00, 0x00, 0x00, 0x53, 0x74, 0x61, 0x74, 0x65, 0x66, 0x75, 0x6c,
  0x50, 0x61, 0x72, 0x74, 0x69, 0x74, 0x69, 0x6f, 0x6e, 0x65, 0x64, 0x43,
  0x61, 0x6c, 0x6c, 0x3a, 0x30, 0x00, 0x00, 0x00, 0x02, 0x00, 0x00, 0x00,
  0x01, 0x00, 0x00, 0x00, 0x03, 0x00, 0x00, 0x00, 0xb2, 0xed, 0xff, 0xff,
  0x00, 0x00, 0x00, 0x01, 0x18, 0x00, 0x00, 0x00, 0x20, 0x00, 0x00, 0x00,
  0x3c, 0x00, 0x00, 0x00, 0x15, 0x00, 0x00, 0x00, 0x00, 0x00, 0x00, 0x09,
  0x70, 0x00, 0x00, 0x00, 0x02, 0x00, 0x00, 0x00, 0xff, 0xff, 0xff, 0xff,
  0x03, 0x00, 0x00, 0x00, 0x94, 0xed, 0xff, 0xff, 0x08, 0x00, 0x00, 0x00,
  0x10, 0x00, 0x00, 0x00, 0x01, 0x00, 0x00, 0x00, 0x0e, 0x00, 0x00, 0x00,
  0x00, 0x00, 0x00, 0x00, 0x01, 0x00, 0x00, 0x00, 0x47, 0x4c, 0x70, 0x3b,
  0x38, 0x00, 0x00, 0x00, 0x73, 0x65, 0x71, 0x75, 0x65, 0x6e, 0x74, 0x69,
  0x61, 0x6c, 0x5f, 0x31, 0x2f, 0x64, 0x65, 0x6e, 0x73, 0x65, 0x5f, 0x33,
  0x2f, 0x4d, 0x61, 0x74, 0x4d, 0x75, 0x6c, 0x3b, 0x73, 0x65, 0x71, 0x75,
  0x65, 0x6e, 0x74, 0x69, 0x61, 0x6c, 0x5f, 0x31, 0x2f, 0x64, 0x65, 0x6e,
  0x73, 0x65, 0x5f, 0x33, 0x2f, 0x42, 0x69, 0x61, 0x73, 0x41, 0x64, 0x64,
  0x00, 0x00, 0x00, 0x00, 0x02, 0x00, 0x00, 0x00, 0x01, 0x00, 0x00, 0x00,
  0x03, 0x00, 0x00, 0x00, 0x4a, 0xee, 0xff, 0xff, 0x00, 0x00, 0x00, 0x01,
  0x18, 0x00, 0x00, 0x00, 0x20, 0x00, 0x00, 0x00, 0x3c, 0x00, 0x00, 0x00,
  0x14, 0x00, 0x00, 0x00, 0x00, 0x00, 0x00, 0x09, 0x88, 0x00, 0x00, 0x00,
  0x02, 0x00, 0x00, 0x00, 0xff, 0xff, 0xff, 0xff, 0x20, 0x00, 0x00, 0x00,
  0x2c, 0xee, 0xff, 0xff, 0x08, 0x00, 0x00, 0x00, 0x10, 0x00, 0x00, 0x00,
  0x01, 0x00, 0x00, 0x00, 0x80, 0xff, 0xff, 0xff, 0xff, 0xff, 0xff, 0xff,
  0x01, 0x00, 0x00, 0x00, 0xf0, 0xf9, 0x10, 0x3b, 0x52, 0x00, 0x00, 0x00,
  0x73, 0x65, 0x71, 0x75, 0x65, 0x6e, 0x74, 0x69, 0x61, 0x6c, 0x5f, 0x31,
  0x2f, 0x64, 0x65, 0x6e, 0x73, 0x65, 0x5f, 0x32, 0x2f, 0x4d, 0x61, 0x74,
  0x4d, 0x75, 0x6c, 0x3b, 0x73, 0x65, 0x71, 0x75, 0x65, 0x6e, 0x74, 0x69,
  0x61, 0x6c, 0x5f, 0x31, 0x2f, 0x64, 0x65, 0x6e, 0x73, 0x65, 0x5f, 0x32,
  0x2f, 0x52, 0x65, 0x6c, 0x75, 0x3b, 0x73, 0x65, 0x71, 0x75, 0x65, 0x6e,
  0x74, 0x69, 0x61, 0x6c, 0x5f, 0x31, 0x2f, 0x64, 0x65, 0x6e, 0x73, 0x65,
  0x5f, 0x32, 0x2f, 0x42, 0x69, 0x61, 0x73, 0x41, 0x64, 0x64, 0x00, 0x00,
  0x02, 0x00, 0x00, 0x00, 0x01, 0x00, 0x00, 0x00, 0x20, 0x00, 0x00, 0x00,
  0xfa, 0xee, 0xff, 0xff, 0x00, 0x00, 0x00, 0x01, 0x18, 0x00, 0x00, 0x00,
  0x20, 0x00, 0x00, 0x00, 0x40, 0x00, 0x00, 0x00, 0x13, 0x00, 0x00, 0x00,
  0x00, 0x00, 0x00, 0x09, 0x58, 0x00, 0x00, 0x00, 0x02, 0x00, 0x00, 0x00,
  0xff, 0xff, 0xff, 0xff, 0x80, 0x00, 0x00, 0x00, 0xdc, 0xee, 0xff, 0xff,
  0x08, 0x00, 0x00, 0x00, 0x14, 0x00, 0x00, 0x00, 0x01, 0x00, 0x00, 0x00,
  0x80, 0xff, 0xff, 0xff, 0xff, 0xff, 0xff, 0xff, 0x00, 0x00, 0x00, 0x00,
  0x01, 0x00, 0x00, 0x00, 0xba, 0x5e, 0xb4, 0x3a, 0x1e, 0x00, 0x00, 0x00,
  0x73, 0x65, 0x71, 0x75, 0x65, 0x6e, 0x74, 0x69, 0x61, 0x6c, 0x5f, 0x31,
  0x2f, 0x66, 0x6c, 0x61, 0x74, 0x74, 0x65, 0x6e, 0x5f, 0x31, 0x2f, 0x52,
  0x65, 0x73, 0x68, 0x61, 0x70, 0x65, 0x00, 0x00, 0x02, 0x00, 0x00, 0x00,
  0x01, 0x00, 0x00, 0x00, 0x80, 0x00, 0x00, 0x00, 0x7a, 0xef, 0xff, 0xff,
  0x00, 0x00, 0x00, 0x01, 0x18, 0x00, 0x00, 0x00, 0x28, 0x00, 0x00, 0x00,
  0x48, 0x00, 0x00, 0x00, 0x12, 0x00, 0x00, 0x00, 0x00, 0x00, 0x00, 0x09,
  0x68, 0x00, 0x00, 0x00, 0x04, 0x00, 0x00, 0x00, 0xff, 0xff, 0xff, 0xff,
  0x02, 0x00, 0x00, 0x00, 0x02, 0x00, 0x00, 0x00, 0x20, 0x00, 0x00, 0x00,
  0x64, 0xef, 0xff, 0xff, 0x08, 0x00, 0x00, 0x00, 0x14, 0x00, 0x00, 0x00,
  0x01, 0x00, 0x00, 0x00, 0x80, 0xff, 0xff, 0xff, 0xff, 0xff, 0xff, 0xff,
  0x00, 0x00, 0x00, 0x00, 0x01, 0x00, 0x00, 0x00, 0xba, 0x5e, 0xb4, 0x3a,
  0x24, 0x00, 0x00, 0x00, 0x73, 0x65, 0x71, 0x75, 0x65, 0x6e, 0x74, 0x69,
  0x61, 0x6c, 0x5f, 0x31, 0x2f, 0x6d, 0x61, 0x78, 0x5f, 0x70, 0x6f, 0x6f,
  0x6c, 0x69, 0x6e, 0x67, 0x32, 0x64, 0x5f, 0x35, 0x2f, 0x4d, 0x61, 0x78,
  0x50, 0x6f, 0x6f, 0x6c, 0x00, 0x00, 0x00, 0x00, 0x04, 0x00, 0x00, 0x00,
  0x01, 0x00, 0x00, 0x00, 0x02, 0x00, 0x00, 0x00, 0x02, 0x00, 0x00, 0x00,
  0x20, 0x00, 0x00, 0x00, 0x12, 0xf0, 0xff, 0xff, 0x00, 0x00, 0x00, 0x01,
  0x18, 0x00, 0x00, 0x00, 0x28, 0x00, 0x00, 0x00, 0x48, 0x00, 0x00, 0x00,
  0x11, 0x00, 0x00, 0x00, 0x00, 0x00, 0x00, 0x09, 0x98, 0x00, 0x00, 0x00,
  0x04, 0x00, 0x00, 0x00, 0xff, 0xff, 0xff, 0xff, 0x04, 0x00, 0x00, 0x00,
  0x04, 0x00, 0x00, 0x00, 0x20, 0x00, 0x00, 0x00, 0xfc, 0xef, 0xff, 0xff,
  0x08, 0x00, 0x00, 0x00, 0x14, 0x00, 0x00, 0x00, 0x01, 0x00, 0x00, 0x00,
  0x80, 0xff, 0xff, 0xff, 0xff, 0xff, 0xff, 0xff, 0x00, 0x00, 0x00, 0x00,
  0x01, 0x00, 0x00, 0x00, 0xba, 0x5e, 0xb4, 0x3a, 0x56, 0x00, 0x00, 0x00,
  0x73, 0x65, 0x71, 0x75, 0x65, 0x6e, 0x74, 0x69, 0x61, 0x6c, 0x5f, 0x31,
  0x2f, 0x63, 0x6f, 0x6e, 0x76, 0x32, 0x64, 0x5f, 0x35, 0x2f, 0x52, 0x65,
  0x6c, 0x75, 0x3b, 0x73, 0x65, 0x71, 0x75, 0x65, 0x6e, 0x74, 0x69, 0x61,
  0x6c, 0x5f, 0x31, 0x2f, 0x63, 0x6f, 0x6e, 0x76, 0x32, 0x64, 0x5f, 0x35,
  0x2f, 0x42, 0x69, 0x61, 0x73, 0x41, 0x64, 0x64, 0x3b, 0x73, 0x65, 0x71,
  0x75, 0x65, 0x6e, 0x74, 0x69, 0x61, 0x6c, 0x5f, 0x31, 0x2f, 0x63, 0x6f,
  0x6e, 0x76, 0x32, 0x64, 0x5f, 0x35, 0x2f, 0x43, 0x6f, 0x6e, 0x76, 0x32,
  0x44, 0x3b, 0x00, 0x00, 0x04, 0x00, 0x00, 0x00, 0x01, 0x00, 0x00, 0x00,
  0x04, 0x00, 0x00, 0x00, 0x04, 0x00, 0x00, 0x00, 0x20, 0x00, 0x00, 0x00,
  0xda, 0xf0, 0xff, 0xff, 0x00, 0x00, 0x00, 0x01, 0x18, 0x00, 0x00, 0x00,
  0x28, 0x00, 0x00, 0x00, 0x48, 0x00, 0x00, 0x00, 0x10, 0x00, 0x00, 0x00,
  0x00, 0x00, 0x00, 0x09, 0x68, 0x00, 0x00, 0x00, 0x04, 0x00, 0x00, 0x00,
  0xff, 0xff, 0xff, 0xff, 0x06, 0x00, 0x00, 0x00, 0x06, 0x00, 0x00, 0x00,
  0x10, 0x00, 0x00, 0x00, 0xc4, 0xf0, 0xff, 0xff, 0x08, 0x00, 0x00, 0x00,
  0x14, 0x00, 0x00, 0x00, 0x01, 0x00, 0x00, 0x00, 0x80, 0xff, 0xff, 0xff,
  0xff, 0xff, 0xff, 0xff, 0x00, 0x00, 0x00, 0x00, 0x01, 0x00, 0x00, 0x00,
  0x9e, 0x91, 0x3b, 0x3a, 0x24, 0x00, 0x00, 0x00, 0x73, 0x65, 0x71, 0x75,
  0x65, 0x6e, 0x74, 0x69, 0x61, 0x6c, 0x5f, 0x31, 0x2f, 0x6d, 0x61, 0x78,
  0x5f, 0x70, 0x6f, 0x6f, 0x6c, 0x69, 0x6e, 0x67, 0x32, 0x64, 0x5f, 0x34,
  0x2f, 0x4d, 0x61, 0x78, 0x50, 0x6f, 0x6f, 0x6c, 0x00, 0x00, 0x00, 0x00,
  0x04, 0x00, 0x00, 0x00, 0x01, 0x00, 0x00, 0x00, 0x06, 0x00, 0x00, 0x00,
  0x06, 0x00, 0x00, 0x00, 0x10, 0x00, 0x00, 0x00, 0x72, 0xf1, 0xff, 0xff,
  0x00, 0x00, 0x00, 0x01, 0x18, 0x00, 0x00, 0x00, 0x28, 0x00, 0x00, 0x00,
  0x48, 0x00, 0x00, 0x00, 0x0f, 0x00, 0x00, 0x00, 0x00, 0x00, 0x00, 0x09,
  0x98, 0x00, 0x00, 0x00, 0x04, 0x00, 0x00, 0x00, 0xff, 0xff, 0xff, 0xff,
  0x0d, 0x00, 0x00, 0x00, 0x0d, 0x00, 0x00, 0x00, 0x10, 0x00, 0x00, 0x00,
  0x5c, 0xf1, 0xff, 0xff, 0x08, 0x00, 0x00, 0x00, 0x14, 0x00, 0x00, 0x00,
  0x01, 0x00, 0x00, 0x00, 0x80, 0xff, 0xff, 0xff, 0xff, 0xff, 0xff, 0xff,
  0x00, 0x00, 0x00, 0x00, 0x01, 0x00, 0x00, 0x00, 0x9e, 0x91, 0x3b, 0x3a,
  0x56, 0x00, 0x00, 0x00, 0x73, 0x65, 0x71, 0x75, 0x65, 0x6e, 0x74, 0x69,
  0x61, 0x6c, 0x5f, 0x31, 0x2f, 0x63, 0x6f, 0x6e, 0x76, 0x32, 0x64, 0x5f,
  0x34, 0x2f, 0x52, 0x65, 0x6c, 0x75, 0x3b, 0x73, 0x65, 0x71, 0x75, 0x65,
  0x6e, 0x74, 0x69, 0x61, 0x6c, 0x5f, 0x31, 0x2f, 0x63, 0x6f, 0x6e, 0x76,
  0x32, 0x64, 0x5f, 0x34, 0x2f, 0x42, 0x69, 0x61, 0x73, 0x41, 0x64, 0x64,
  0x3b, 0x73, 0x65, 0x71, 0x75, 0x65, 0x6e, 0x74, 0x69, 0x61, 0x6c, 0x5f,
  0x31, 0x2f, 0x63, 0x6f, 0x6e, 0x76, 0x32, 0x64, 0x5f, 0x34, 0x2f, 0x43,
  0x6f, 0x6e, 0x76, 0x32, 0x44, 0x3b, 0x00, 0x00, 0x04, 0x00, 0x00, 0x00,
  0x01, 0x00, 0x00, 0x00, 0x0d, 0x00, 0x00, 0x00, 0x0d, 0x00, 0x00, 0x00,
  0x10, 0x00, 0x00, 0x00, 0x3a, 0xf2, 0xff, 0xff, 0x00, 0x00, 0x00, 0x01,
  0x18, 0x00, 0x00, 0x00, 0x28, 0x00, 0x00, 0x00, 0x48, 0x00, 0x00, 0x00,
  0x0e, 0x00, 0x00, 0x00, 0x00, 0x00, 0x00, 0x09, 0x68, 0x00, 0x00, 0x00,
  0x04, 0x00, 0x00, 0x00, 0xff, 0xff, 0xff, 0xff, 0x0f, 0x00, 0x00, 0x00,
  0x0f, 0x00, 0x00, 0x00, 0x08, 0x00, 0x00, 0x00, 0x24, 0xf2, 0xff, 0xff,
  0x08, 0x00, 0x00, 0x00, 0x14, 0x00, 0x00, 0x00, 0x01, 0x00, 0x00, 0x00,
  0x80, 0xff, 0xff, 0xff, 0xff, 0xff, 0xff, 0xff, 0x00, 0x00, 0x00, 0x00,
  0x01, 0x00, 0x00, 0x00, 0xab, 0x14, 0x96, 0x39, 0x24, 0x00, 0x00, 0x00,
  0x73, 0x65, 0x71, 0x75, 0x65, 0x6e, 0x74, 0x69, 0x61, 0x6c, 0x5f, 0x31,
  0x2f, 0x6d, 0x61, 0x78, 0x5f, 0x70, 0x6f, 0x6f, 0x6c, 0x69, 0x6e, 0x67,
  0x32, 0x64, 0x5f, 0x33, 0x2f, 0x4d, 0x61, 0x78, 0x50, 0x6f, 0x6f, 0x6c,
  0x00, 0x00, 0x00, 0x00, 0x04, 0x00, 0x00, 0x00, 0x01, 0x00, 0x00, 0x00,
  0x0f, 0x00, 0x00, 0x00, 0x0f, 0x00, 0x00, 0x00, 0x08, 0x00, 0x00, 0x00,
  0xd2, 0xf2, 0xff, 0xff, 0x00, 0x00, 0x00, 0x01, 0x18, 0x00, 0x00, 0x00,
  0x28, 0x00, 0x00, 0x00, 0x44, 0x00, 0x00, 0x00, 0x0d, 0x00, 0x00, 0x00,
  0x00, 0x00, 0x00, 0x09, 0xc0, 0x00, 0x00, 0x00, 0x04, 0x00, 0x00, 0x00,
  0xff, 0xff, 0xff, 0xff, 0x1e, 0x00, 0x00, 0x00, 0x1e, 0x00, 0x00, 0x00,
  0x08, 0x00, 0x00, 0x00, 0xbc, 0xf2, 0xff, 0xff, 0x08, 0x00, 0x00, 0x00,
  0x10, 0x00, 0x00, 0x00, 0x01, 0x00, 0x00, 0x00, 0x80, 0xff, 0xff, 0xff,
  0xff, 0xff, 0xff, 0xff, 0x01, 0x00, 0x00, 0x00, 0xab, 0x14, 0x96, 0x39,
  0x83, 0x00, 0x00, 0x00, 0x73, 0x65, 0x71, 0x75, 0x65, 0x6e, 0x74, 0x69,
  0x61, 0x6c, 0x5f, 0x31, 0x2f, 0x63, 0x6f, 0x6e, 0x76, 0x32, 0x64, 0x5f,
  0x33, 0x2f, 0x52, 0x65, 0x6c, 0x75, 0x3b, 0x73, 0x65, 0x71, 0x75, 0x65,
  0x6e, 0x74, 0x69, 0x61, 0x6c, 0x5f, 0x31, 0x2f, 0x63, 0x6f, 0x6e, 0x76,
  0x32, 0x64, 0x5f, 0x33, 0x2f, 0x42, 0x69, 0x61, 0x73, 0x41, 0x64, 0x64,
  0x3b, 0x73, 0x65, 0x71, 0x75, 0x65, 0x6e, 0x74, 0x69, 0x61, 0x6c, 0x5f,
  0x31, 0x2f, 0x63, 0x6f, 0x6e, 0x76, 0x32, 0x64, 0x5f, 0x33, 0x2f, 0x43,
  0x6f, 0x6e, 0x76, 0x32, 0x44, 0x3b, 0x73, 0x65, 0x71, 0x75, 0x65, 0x6e,
  0x74, 0x69, 0x61, 0x6c, 0x5f, 0x31, 0x2f, 0x63, 0x6f, 0x6e, 0x76, 0x32,
  0x64, 0x5f, 0x33, 0x2f, 0x42, 0x69, 0x61, 0x73, 0x41, 0x64, 0x64, 0x2f,
  0x52, 0x65, 0x61, 0x64, 0x56, 0x61, 0x72, 0x69, 0x61, 0x62, 0x6c, 0x65,
  0x4f, 0x70, 0x31, 0x00, 0x04, 0x00, 0x00, 0x00, 0x01, 0x00, 0x00, 0x00,
  0x1e, 0x00, 0x00, 0x00, 0x1e, 0x00, 0x00, 0x00, 0x08, 0x00, 0x00, 0x00,
  0x1a, 0xf4, 0xff, 0xff, 0x00, 0x00, 0x00, 0x01, 0x14, 0x00, 0x00, 0x00,
  0x88, 0x00, 0x00, 0x00, 0x0c, 0x00, 0x00, 0x00, 0x00, 0x00, 0x00, 0x09,
  0x94, 0x00, 0x00, 0x00, 0x94, 0xf3, 0xff, 0xff, 0x08, 0x00, 0x00, 0x00,
  0x4c, 0x00, 0x00, 0x00, 0x08, 0x00, 0x00, 0x00, 0x00, 0x00, 0x00, 0x00,
  0x00, 0x00, 0x00, 0x00, 0x00, 0x00, 0x00, 0x00, 0x00, 0x00, 0x00, 0x00,
  0x00, 0x00, 0x00, 0x00, 0x00, 0x00, 0x00, 0x00, 0x00, 0x00, 0x00, 0x00,
  0x00, 0x00, 0x00, 0x00, 0x00, 0x00, 0x00, 0x00, 0x00, 0x00, 0x00, 0x00,
  0x00, 0x00, 0x00, 0x00, 0x00, 0x00, 0x00, 0x00, 0x00, 0x00, 0x00, 0x00,
  0x00, 0x00, 0x00, 0x00, 0x00, 0x00, 0x00, 0x00, 0x00, 0x00, 0x00, 0x00,
  0x00, 0x00, 0x00, 0x00, 0x08, 0x00, 0x00, 0x00, 0x50, 0x91, 0x40, 0x3b,
  0x61, 0xec, 0x15, 0x36, 0x20, 0xb7, 0x19, 0x3b, 0xcb, 0x48, 0x6a, 0x3b,
  0xf6, 0xd0, 0x05, 0x3b, 0x62, 0x64, 0x44, 0x3b, 0x39, 0x10, 0x60, 0x3b,
  0x25, 0xf6, 0x27, 0x3b, 0x12, 0x00, 0x00, 0x00, 0x74, 0x66, 0x6c, 0x2e,
  0x70, 0x73, 0x65, 0x75, 0x64, 0x6f, 0x5f, 0x71, 0x63, 0x6f, 0x6e, 0x73,
  0x74, 0x39, 0x00, 0x00, 0x04, 0x00, 0x00, 0x00, 0x08, 0x00, 0x00, 0x00,
  0x03, 0x00, 0x00, 0x00, 0x03, 0x00, 0x00, 0x00, 0x01, 0x00, 0x00, 0x00,
  0xda, 0xf4, 0xff, 0xff, 0x00, 0x00, 0x00, 0x01, 0x14, 0x00, 0x00, 0x00,
  0x84, 0x00, 0x00, 0x00, 0x0b, 0x00, 0x00, 0x00, 0x00, 0x00, 0x00, 0x02,
  0x90, 0x00, 0x00, 0x00, 0x54, 0xf4, 0xff, 0xff, 0x08, 0x00, 0x00, 0x00,
  0x48, 0x00, 0x00, 0x00, 0x08, 0x00, 0x00, 0x00, 0x00, 0x00, 0x00, 0x00,
  0x00, 0x00, 0x00, 0x00, 0x00, 0x00, 0x00, 0x00, 0x00, 0x00, 0x00, 0x00,
  0x00, 0x00, 0x00, 0x00, 0x00, 0x00, 0x00, 0x00, 0x00, 0x00, 0x00, 0x00,
  0x00, 0x00, 0x00, 0x00, 0x00, 0x00, 0x00, 0x00, 0x00, 0x00, 0x00, 0x00,
  0x00, 0x00, 0x00, 0x00, 0x00, 0x00, 0x00, 0x00, 0x00, 0x00, 0x00, 0x00,
  0x00, 0x00, 0x00, 0x00, 0x00, 0x00, 0x00, 0x00, 0x00, 0x00, 0x00, 0x00,
  0x08, 0x00, 0x00, 0x00, 0xc0, 0x0f, 0x42, 0x33, 0x20, 0x16, 0x17, 0x2e,
  0x67, 0xe8, 0x1a, 0x33, 0x14, 0x1a, 0x6c, 0x33, 0xb8, 0xda, 0x06, 0x33,
  0x6b, 0xea, 0x45, 0x33, 0x36, 0xcd, 0x61, 0x33, 0xb7, 0x43, 0x29, 0x33,
  0x12, 0x00, 0x00, 0x00, 0x74, 0x66, 0x6c, 0x2e, 0x70, 0x73, 0x65, 0x75,
  0x64, 0x6f, 0x5f, 0x71, 0x63, 0x6f, 0x6e, 0x73, 0x74, 0x38, 0x00, 0x00,
  0x01, 0x00, 0x00, 0x00, 0x08, 0x00, 0x00, 0x00, 0x8a, 0xf5, 0xff, 0xff,
  0x00, 0x00, 0x00, 0x01, 0x14, 0x00, 0x00, 0x00, 0xe8, 0x00, 0x00, 0x00,
  0x0a, 0x00, 0x00, 0x00, 0x00, 0x00, 0x00, 0x09, 0xf4, 0x00, 0x00, 0x00,
  0x04, 0xf5, 0xff, 0xff, 0x08, 0x00, 0x00, 0x00, 0x8c, 0x00, 0x00, 0x00,
  0x10, 0x00, 0x00, 0x00, 0x00, 0x00, 0x00, 0x00, 0x00, 0x00, 0x00, 0x00,
  0x00, 0x00, 0x00, 0x00, 0x00, 0x00, 0x00, 0x00, 0x00, 0x00, 0x00, 0x00,
  0x00, 0x00, 0x00, 0x00, 0x00, 0x00, 0x00, 0x00, 0x00, 0x00, 0x00, 0x00,
  0x00, 0x00, 0x00, 0x00, 0x00, 0x00, 0x00, 0x00, 0x00, 0x00, 0x00, 0x00,
  0x00, 0x00, 0x00, 0x00, 0x00, 0x00, 0x00, 0x00, 0x00, 0x00, 0x00, 0x00,
  0x00, 0x00, 0x00, 0x00, 0x00, 0x00, 0x00, 0x00, 0x00, 0x00, 0x00, 0x00,
  0x00, 0x00, 0x00, 0x00, 0x00, 0x00, 0x00, 0x00, 0x00, 0x00, 0x00, 0x00,
  0x00, 0x00, 0x00, 0x00, 0x00, 0x00, 0x00, 0x00, 0x00, 0x00, 0x00, 0x00,
  0x00, 0x00, 0x00, 0x00, 0x00, 0x00, 0x00, 0x00, 0x00, 0x00, 0x00, 0x00,
  0x00, 0x00, 0x00, 0x00, 0x00, 0x00, 0x00, 0x00, 0x00, 0x00, 0x00, 0x00,
  0x00, 0x00, 0x00, 0x00, 0x00, 0x00, 0x00, 0x00, 0x00, 0x00, 0x00, 0x00,
  0x00, 0x00, 0x00, 0x00, 0x10, 0x00, 0x00, 0x00, 0xce, 0x5f, 0xe0, 0x3a,
  0x08, 0x58, 0xd7, 0x3a, 0x6a, 0xf4, 0x14, 0x3b, 0x9f, 0x13, 0x04, 0x3b,
  0x73, 0x6b, 0xb2, 0x3a, 0x15, 0x55, 0x24, 0x3b, 0xa2, 0xc9, 0x12, 0x3b,
  0x5a, 0x0c, 0x53, 0x3b, 0xa7, 0xed, 0x25, 0x3b, 0xd2, 0x4a, 0x24, 0x3b,
  0xbf, 0x47, 0x0c, 0x3b, 0x30, 0x7a, 0x3a, 0x3b, 0x35, 0x1e, 0x50, 0x3b,
  0xbd, 0x82, 0x40, 0x3b, 0x2f, 0x5c, 0x53, 0x3b, 0xa5, 0xfe, 0xfd, 0x3a,
  0x12, 0x00, 0x00, 0x00, 0x74, 0x66, 0x6c, 0x2e, 0x70, 0x73, 0x65, 0x75,
  0x64, 0x6f, 0x5f, 0x71, 0x63, 0x6f, 0x6e, 0x73, 0x74, 0x37, 0x00, 0x00,
  0x04, 0x00, 0x00, 0x00, 0x10, 0x00, 0x00, 0x00, 0x03, 0x00, 0x00, 0x00,
  0x03, 0x00, 0x00, 0x00, 0x08, 0x00, 0x00, 0x00, 0xaa, 0xf6, 0xff, 0xff,
  0x00, 0x00, 0x00, 0x01, 0x14, 0x00, 0x00, 0x00, 0xe4, 0x00, 0x00, 0x00,
  0x09, 0x00, 0x00, 0x00, 0x00, 0x00, 0x00, 0x02, 0xf0, 0x00, 0x00, 0x00,
  0x24, 0xf6, 0xff, 0xff, 0x08, 0x00, 0x00, 0x00, 0x88, 0x00, 0x00, 0x00,
  0x10, 0x00, 0x00, 0x00, 0x00, 0x00, 0x00, 0x00, 0x00, 0x00, 0x00, 0x00,
  0x00, 0x00, 0x00, 0x00, 0x00, 0x00, 0x00, 0x00, 0x00, 0x00, 0x00, 0x00,
  0x00, 0x00, 0x00, 0x00, 0x00, 0x00, 0x00, 0x00, 0x00, 0x00, 0x00, 0x00,
  0x00, 0x00, 0x00, 0x00, 0x00, 0x00, 0x00, 0x00, 0x00, 0x00, 0x00, 0x00,
  0x00, 0x00, 0x00, 0x00, 0x00, 0x00, 0x00, 0x00, 0x00, 0x00, 0x00, 0x00,
  0x00, 0x00, 0x00, 0x00, 0x00, 0x00, 0x00, 0x00, 0x00, 0x00, 0x00, 0x00,
  0x00, 0x00, 0x00, 0x00, 0x00, 0x00, 0x00, 0x00, 0x00, 0x00, 0x00, 0x00,
  0x00, 0x00, 0x00, 0x00, 0x00, 0x00, 0x00, 0x00, 0x00, 0x00, 0x00, 0x00,
  0x00, 0x00, 0x00, 0x00, 0x00, 0x00, 0x00, 0x00, 0x00, 0x00, 0x00, 0x00,
  0x00, 0x00, 0x00, 0x00, 0x00, 0x00, 0x00, 0x00, 0x00, 0x00, 0x00, 0x00,
  0x00, 0x00, 0x00, 0x00, 0x00, 0x00, 0x00, 0x00, 0x00, 0x00, 0x00, 0x00,
  0x10, 0x00, 0x00, 0x00, 0x40, 0x8a, 0x03, 0x35, 0xef, 0x7d, 0xfc, 0x34,
  0x79, 0xa6, 0x2e, 0x35, 0x52, 0xdc, 0x1a, 0x35, 0xba, 0x32, 0xd1, 0x34,
  0x3d, 0xae, 0x40, 0x35, 0xfd, 0x1b, 0x2c, 0x35, 0x8d, 0x74, 0x77, 0x35,
  0x4b, 0x8d, 0x42, 0x35, 0x35, 0xa2, 0x40, 0x35, 0xba, 0x7a, 0x24, 0x35,
  0x4c, 0xa5, 0x5a, 0x35, 0x01, 0x05, 0x74, 0x35, 0x4b, 0xb8, 0x61, 0x35,
  0x28, 0xd2, 0x77, 0x35, 0xb6, 0xe7, 0x14, 0x35, 0x12, 0x00, 0x00, 0x00,
  0x74, 0x66, 0x6c, 0x2e, 0x70, 0x73, 0x65, 0x75, 0x64, 0x6f, 0x5f, 0x71,
  0x63, 0x6f, 0x6e, 0x73, 0x74, 0x36, 0x00, 0x00, 0x01, 0x00, 0x00, 0x00,
  0x10, 0x00, 0x00, 0x00, 0xba, 0xf7, 0xff, 0xff, 0x00, 0x00, 0x00, 0x01,
  0x14, 0x00, 0x00, 0x00, 0xa8, 0x01, 0x00, 0x00, 0x08, 0x00, 0x00, 0x00,
  0x00, 0x00, 0x00, 0x09, 0xb4, 0x01, 0x00, 0x00, 0x34, 0xf7, 0xff, 0xff,
  0x08, 0x00, 0x00, 0x00, 0x0c, 0x01, 0x00, 0x00, 0x20, 0x00, 0x00, 0x00,
  0x00, 0x00, 0x00, 0x00, 0x00, 0x00, 0x00, 0x00, 0x00, 0x00, 0x00, 0x00,
  0x00, 0x00, 0x00, 0x00, 0x00, 0x00, 0x00, 0x00, 0x00, 0x00, 0x00, 0x00,
  0x00, 0x00, 0x00, 0x00, 0x00, 0x00, 0x00, 0x00, 0x00, 0x00, 0x00, 0x00,
  0x00, 0x00, 0x00, 0x00, 0x00, 0x00, 0x00, 0x00, 0x00, 0x00, 0x00, 0x00,
  0x00, 0x00, 0x00, 0x00, 0x00, 0x00, 0x00, 0x00, 0x00, 0x00, 0x00, 0x00,
  0x00, 0x00, 0x00, 0x00, 0x00, 0x00, 0x00, 0x00, 0x00, 0x00, 0x00, 0x00,
  0x00, 0x00, 0x00, 0x00, 0x00, 0x00, 0x00, 0x00, 0x00, 0x00, 0x00, 0x00,
  0x00, 0x00, 0x00, 0x00, 0x00, 0x00, 0x00, 0x00, 0x00, 0x00, 0x00, 0x00,
  0x00, 0x00, 0x00, 0x00, 0x00, 0x00, 0x00, 0x00, 0x00, 0x00, 0x00, 0x00,
  0x00, 0x00, 0x00, 0x00, 0x00, 0x00, 0x00, 0x00, 0x00, 0x00, 0x00, 0x00,
  0x00, 0x00, 0x00, 0x00, 0x00, 0x00, 0x00, 0x00, 0x00, 0x00, 0x00, 0x00,
  0x00, 0x00, 0x00, 0x00, 0x00, 0x00, 0x00, 0x00, 0x00, 0x00, 0x00, 0x00,
  0x00, 0x00, 0x00, 0x00, 0x00, 0x00, 0x00, 0x00, 0x00, 0x00, 0x00, 0x00,
  0x00, 0x00, 0x00, 0x00, 0x00, 0x00, 0x00, 0x00, 0x00, 0x00, 0x00, 0x00,
  0x00, 0x00, 0x00, 0x00, 0x00, 0x00, 0x00, 0x00, 0x00, 0x00, 0x00, 0x00,
  0x00, 0x00, 0x00, 0x00, 0x00, 0x00, 0x00, 0x00, 0x00, 0x00, 0x00, 0x00,
  0x00, 0x00, 0x00, 0x00, 0x00, 0x00, 0x00, 0x00, 0x00, 0x00, 0x00, 0x00,
  0x00, 0x00, 0x00, 0x00, 0x00, 0x00, 0x00, 0x00, 0x00, 0x00, 0x00, 0x00,
  0x00, 0x00, 0x00, 0x00, 0x00, 0x00, 0x00, 0x00, 0x00, 0x00, 0x00, 0x00,
  0x00, 0x00, 0x00, 0x00, 0x00, 0x00, 0x00, 0x00, 0x00, 0x00, 0x00, 0x00,
  0x00, 0x00, 0x00, 0x00, 0x00, 0x00, 0x00, 0x00, 0x00, 0x00, 0x00, 0x00,
  0x00, 0x00, 0x00, 0x00, 0x00, 0x00, 0x00, 0x00, 0x20, 0x00, 0x00, 0x00,
  0xc2, 0xe6, 0x0a, 0x3b, 0xc7, 0x14, 0x7b, 0x3a, 0x82, 0xd5, 0x07, 0x3b,
  0x88, 0x5f, 0x45, 0x3b, 0x5f, 0xdd, 0x97, 0x3a, 0xa0, 0x3a, 0xb7, 0x3a,
  0x64, 0x95, 0xfd, 0x3a, 0xc5, 0x82, 0xf6, 0x3a, 0x4f, 0x4d, 0x99, 0x3a,
  0x5b, 0xd1, 0xf8, 0x3a, 0x0e, 0x8f, 0x0b, 0x3b, 0x0b, 0x8d, 0x01, 0x3b,
  0x9a, 0x7e, 0x02, 0x3b, 0xb6, 0x22, 0x86, 0x3a, 0xc4, 0x6b, 0x01, 0x3b,
  0x4f, 0x57, 0x07, 0x3b, 0xd0, 0xdb, 0x13, 0x3b, 0x9b, 0xf5, 0x04, 0x3b,
  0xdd, 0xa0, 0x88, 0x3a, 0xcd, 0x95, 0x02, 0x3b, 0x84, 0x18, 0xca, 0x3a,
  0x98, 0x3c, 0x0a, 0x3b, 0x19, 0x81, 0x86, 0x3a, 0xdb, 0x40, 0x07, 0x3b,
  0xe8, 0xd6, 0xe2, 0x3a, 0xb7, 0x4d, 0xf0, 0x3a, 0x54, 0x1f, 0x15, 0x3b,
  0x4b, 0xec, 0xf6, 0x3a, 0x0a, 0x50, 0x25, 0x3b, 0x59, 0x3b, 0xec, 0x3a,
  0xe2, 0x94, 0xd7, 0x3a, 0x14, 0x09, 0xbe, 0x3a, 0x12, 0x00, 0x00, 0x00,
  0x74, 0x66, 0x6c, 0x2e, 0x70, 0x73, 0x65, 0x75, 0x64, 0x6f, 0x5f, 0x71,
  0x63, 0x6f, 0x6e, 0x73, 0x74, 0x35, 0x00, 0x00, 0x04, 0x00, 0x00, 0x00,
  0x20, 0x00, 0x00, 0x00, 0x03, 0x00, 0x00, 0x00, 0x03, 0x00, 0x00, 0x00,
  0x10, 0x00, 0x00, 0x00, 0x9a, 0xf9, 0xff, 0xff, 0x00, 0x00, 0x00, 0x01,
  0x14, 0x00, 0x00, 0x00, 0xa4, 0x01, 0x00, 0x00, 0x07, 0x00, 0x00, 0x00,
  0x00, 0x00, 0x00, 0x02, 0xb0, 0x01, 0x00, 0x00, 0x14, 0xf9, 0xff, 0xff,
  0x08, 0x00, 0x00, 0x00, 0x08, 0x01, 0x00, 0x00, 0x20, 0x00, 0x00, 0x00,
  0x00, 0x00, 0x00, 0x00, 0x00, 0x00, 0x00, 0x00, 0x00, 0x00, 0x00, 0x00,
  0x00, 0x00, 0x00, 0x00, 0x00, 0x00, 0x00, 0x00, 0x00, 0x00, 0x00, 0x00,
  0x00, 0x00, 0x00, 0x00, 0x00, 0x00, 0x00, 0x00, 0x00, 0x00, 0x00, 0x00,
  0x00, 0x00, 0x00, 0x00, 0x00, 0x00, 0x00, 0x00, 0x00, 0x00, 0x00, 0x00,
  0x00, 0x00, 0x00, 0x00, 0x00, 0x00, 0x00, 0x00, 0x00, 0x00, 0x00, 0x00,
  0x00, 0x00, 0x00, 0x00, 0x00, 0x00, 0x00, 0x00, 0x00, 0x00, 0x00, 0x00,
  0x00, 0x00, 0x00, 0x00, 0x00, 0x00, 0x00, 0x00, 0x00, 0x00, 0x00, 0x00,
  0x00, 0x00, 0x00, 0x00, 0x00, 0x00, 0x00, 0x00, 0x00, 0x00, 0x00, 0x00,
  0x00, 0x00, 0x00, 0x00, 0x00, 0x00, 0x00, 0x00, 0x00, 0x00, 0x00, 0x00,
  0x00, 0x00, 0x00, 0x00, 0x00, 0x00, 0x00, 0x00, 0x00, 0x00, 0x00, 0x00,
  0x00, 0x00, 0x00, 0x00, 0x00, 0x00, 0x00, 0x00, 0x00, 0x00, 0x00, 0x00,
  0x00, 0x00, 0x00, 0x00, 0x00, 0x00, 0x00, 0x00, 0x00, 0x00, 0x00, 0x00,
  0x00, 0x00, 0x00, 0x00, 0x00, 0x00, 0x00, 0x00, 0x00, 0x00, 0x00, 0x00,
  0x00, 0x00, 0x00, 0x00, 0x00, 0x00, 0x00, 0x00, 0x00, 0x00, 0x00, 0x00,
  0x00, 0x00, 0x00, 0x00, 0x00, 0x00, 0x00, 0x00, 0x00, 0x00, 0x00, 0x00,
  0x00, 0x00, 0x00, 0x00, 0x00, 0x00, 0x00, 0x00, 0x00, 0x00, 0x00, 0x00,
  0x00, 0x00, 0x00, 0x00, 0x00, 0x00, 0x00, 0x00, 0x00, 0x00, 0x00, 0x00,
  0x00, 0x00, 0x00, 0x00, 0x00, 0x00, 0x00, 0x00, 0x00, 0x00, 0x00, 0x00,
  0x00, 0x00, 0x00, 0x00, 0x00, 0x00, 0x00, 0x00, 0x00, 0x00, 0x00, 0x00,
  0x00, 0x00, 0x00, 0x00, 0x00, 0x00, 0x00, 0x00, 0x00, 0x00, 0x00, 0x00,
  0x00, 0x00, 0x00, 0x00, 0x00, 0x00, 0x00, 0x00, 0x00, 0x00, 0x00, 0x00,
  0x00, 0x00, 0x00, 0x00, 0x20, 0x00, 0x00, 0x00, 0x24, 0x8b, 0xcb, 0x35,
  0xff, 0xf6, 0x37, 0x35, 0x73, 0x0c, 0xc7, 0x35, 0x0d, 0x9d, 0x10, 0x36,
  0x2d, 0x8a, 0x5e, 0x35, 0x0c, 0x40, 0x86, 0x35, 0x5e, 0xcc, 0xb9, 0x35,
  0xbe, 0x9d, 0xb4, 0x35, 0x58, 0xa5, 0x60, 0x35, 0x76, 0x4e, 0xb6, 0x35,
  0xc3, 0x81, 0xcc, 0x35, 0x70, 0xd7, 0xbd, 0x35, 0x69, 0x39, 0xbf, 0x35,
  0x4f, 0x8f, 0x44, 0x35, 0xac, 0xa6, 0xbd, 0x35, 0x85, 0x53, 0xc6, 0x35,
  0x57, 0xab, 0xd8, 0x35, 0x13, 0xd6, 0xc2, 0x35, 0x72, 0x36, 0x48, 0x35,
  0x68, 0x5b, 0xbf, 0x35, 0xdd, 0x12, 0x94, 0x35, 0xc9, 0x91, 0xca, 0x35,
  0x9f, 0x19, 0x45, 0x35, 0x9e, 0x32, 0xc6, 0x35, 0x03, 0x34, 0xa6, 0x35,
  0x75, 0x11, 0xb0, 0x35, 0x6a, 0x85, 0xda, 0x35, 0x0f, 0xeb, 0xb4, 0x35,
  0xff, 0x3e, 0xf2, 0x35, 0xb9, 0x15, 0xad, 0x35, 0x61, 0xf4, 0x9d, 0x35,
  0xba, 0x3c, 0x8b, 0x35, 0x12, 0x00, 0x00, 0x00, 0x74, 0x66, 0x6c, 0x2e,
  0x70, 0x73, 0x65, 0x75, 0x64, 0x6f, 0x5f, 0x71, 0x63, 0x6f, 0x6e, 0x73,
  0x74, 0x34, 0x00, 0x00, 0x01, 0x00, 0x00, 0x00, 0x20, 0x00, 0x00, 0x00,
  0x6a, 0xfb, 0xff, 0xff, 0x00, 0x00, 0x00, 0x01, 0x14, 0x00, 0x00, 0x00,
  0xa8, 0x01, 0x00, 0x00, 0x06, 0x00, 0x00, 0x00, 0x00, 0x00, 0x00, 0x09,
  0xb4, 0x01, 0x00, 0x00, 0xe4, 0xfa, 0xff, 0xff, 0x08, 0x00, 0x00, 0x00,
  0x0c, 0x01, 0x00, 0x00, 0x20, 0x00, 0x00, 0x00, 0x00, 0x00, 0x00, 0x00,
  0x00, 0x00, 0x00, 0x00, 0x00, 0x00, 0x00, 0x00, 0x00, 0x00, 0x00, 0x00,
  0x00, 0x00, 0x00, 0x00, 0x00, 0x00, 0x00, 0x00, 0x00, 0x00, 0x00, 0x00,
  0x00, 0x00, 0x00, 0x00, 0x00, 0x00, 0x00, 0x00, 0x00, 0x00, 0x00, 0x00,
  0x00, 0x00, 0x00, 0x00, 0x00, 0x00, 0x00, 0x00, 0x00, 0x00, 0x00, 0x00,
  0x00, 0x00, 0x00, 0x00, 0x00, 0x00, 0x00, 0x00, 0x00, 0x00, 0x00, 0x00,
  0x00, 0x00, 0x00, 0x00, 0x00, 0x00, 0x00, 0x00, 0x00, 0x00, 0x00, 0x00,
  0x00, 0x00, 0x00, 0x00, 0x00, 0x00, 0x00, 0x00, 0x00, 0x00, 0x00, 0x00,
  0x00, 0x00, 0x00, 0x00, 0x00, 0x00, 0x00, 0x00, 0x00, 0x00, 0x00, 0x00,
  0x00, 0x00, 0x00, 0x00, 0x00, 0x00, 0x00, 0x00, 0x00, 0x00, 0x00, 0x00,
  0x00, 0x00, 0x00, 0x00, 0x00, 0x00, 0x00, 0x00, 0x00, 0x00, 0x00, 0x00,
  0x00, 0x00, 0x00, 0x00, 0x00, 0x00, 0x00, 0x00, 0x00, 0x00, 0x00, 0x00,
  0x00, 0x00, 0x00, 0x00, 0x00, 0x00, 0x00, 0x00, 0x00, 0x00, 0x00, 0x00,
  0x00, 0x00, 0x00, 0x00, 0x00, 0x00, 0x00, 0x00, 0x00, 0x00, 0x00, 0x00,
  0x00, 0x00, 0x00, 0x00, 0x00, 0x00, 0x00, 0x00, 0x00, 0x00, 0x00, 0x00,
  0x00, 0x00, 0x00, 0x00, 0x00, 0x00, 0x00, 0x00, 0x00, 0x00, 0x00, 0x00,
  0x00, 0x00, 0x00, 0x00, 0x00, 0x00, 0x00, 0x00, 0x00, 0x00, 0x00, 0x00,
  0x00, 0x00, 0x00, 0x00, 0x00, 0x00, 0x00, 0x00, 0x00, 0x00, 0x00, 0x00,
  0x00, 0x00, 0x00, 0x00, 0x00, 0x00, 0x00, 0x00, 0x00, 0x00, 0x00, 0x00,
  0x00, 0x00, 0x00, 0x00, 0x00, 0x00, 0x00, 0x00, 0x00, 0x00, 0x00, 0x00,
  0x00, 0x00, 0x00, 0x00, 0x00, 0x00, 0x00, 0x00, 0x00, 0x00, 0x00, 0x00,
  0x00, 0x00, 0x00, 0x00, 0x00, 0x00, 0x00, 0x00, 0x00, 0x00, 0x00, 0x00,
  0x00, 0x00, 0x00, 0x00, 0x20, 0x00, 0x00, 0x00, 0x68, 0x30, 0x0a, 0x3b,
  0xec, 0xba, 0xc6, 0x3a, 0x1a, 0x6d, 0x2a, 0x3b, 0x65, 0xc8, 0x0d, 0x3b,
  0x4d, 0xca, 0xc9, 0x3a, 0xe0, 0x50, 0x15, 0x3b, 0xdc, 0x53, 0x1d, 0x3b,
  0x9f, 0x57, 0x1c, 0x3b, 0x9b, 0xd8, 0x20, 0x3b, 0x21, 0x34, 0xd0, 0x3a,
  0x74, 0x00, 0x08, 0x3b, 0xe8, 0x16, 0x1f, 0x3b, 0x76, 0xda, 0x26, 0x3b,
  0x34, 0x9a, 0x3a, 0x3b, 0xf8, 0xc7, 0x1a, 0x3b, 0x1d, 0xd3, 0xd3, 0x3a,
  0x0c, 0xf3, 0xcf, 0x3a, 0x5b, 0xab, 0x10, 0x3b, 0xcf, 0x4f, 0x2e, 0x3b,
  0x38, 0x38, 0x30, 0x3b, 0xeb, 0x5a, 0x31, 0x3b, 0x59, 0x94, 0x34, 0x3b,
  0x71, 0x5a, 0x06, 0x3b, 0x9c, 0x80, 0x18, 0x3b, 0x39, 0x04, 0x2d, 0x3b,
  0xac, 0xc9, 0xcf, 0x3a, 0x91, 0xcf, 0x35, 0x3b, 0xeb, 0xc0, 0x18, 0x3b,
  0x19, 0x8b, 0x26, 0x3b, 0xf2, 0xdb, 0x38, 0x3b, 0xe5, 0x82, 0x21, 0x3b,
  0x33, 0xae, 0x30, 0x3b, 0x12, 0x00, 0x00, 0x00, 0x74, 0x66, 0x6c, 0x2e,
  0x70, 0x73, 0x65, 0x75, 0x64, 0x6f, 0x5f, 0x71, 0x63, 0x6f, 0x6e, 0x73,
  0x74, 0x33, 0x00, 0x00, 0x02, 0x00, 0x00, 0x00, 0x20, 0x00, 0x00, 0x00,
  0x80, 0x00, 0x00, 0x00, 0x42, 0xfd, 0xff, 0xff, 0x00, 0x00, 0x00, 0x01,
  0x14, 0x00, 0x00, 0x00, 0xa4, 0x01, 0x00, 0x00, 0x05, 0x00, 0x00, 0x00,
  0x00, 0x00, 0x00, 0x02, 0xb0, 0x01, 0x00, 0x00, 0xbc, 0xfc, 0xff, 0xff,
  0x08, 0x00, 0x00, 0x00, 0x08, 0x01, 0x00, 0x00, 0x20, 0x00, 0x00, 0x00,
  0x00, 0x00, 0x00, 0x00, 0x00, 0x00, 0x00, 0x00, 0x00, 0x00, 0x00, 0x00,
  0x00, 0x00, 0x00, 0x00, 0x00, 0x00, 0x00, 0x00, 0x00, 0x00, 0x00, 0x00,
  0x00, 0x00, 0x00, 0x00, 0x00, 0x00, 0x00, 0x00, 0x00, 0x00, 0x00, 0x00,
  0x00, 0x00, 0x00, 0x00, 0x00, 0x00, 0x00, 0x00, 0x00, 0x00, 0x00, 0x00,
  0x00, 0x00, 0x00, 0x00, 0x00, 0x00, 0x00, 0x00, 0x00, 0x00, 0x00, 0x00,
  0x00, 0x00, 0x00, 0x00, 0x00, 0x00, 0x00, 0x00, 0x00, 0x00, 0x00, 0x00,
