const unsigned char model[] = {
  0x1c, 0x00, 0x00, 0x00, 0x54, 0x46, 0x4c, 0x33, 0x14, 0x00, 0x20, 0x00,
  0x1c, 0x00, 0x18, 0x00, 0x14, 0x00, 0x10, 0x00, 0x0c, 0x00, 0x00, 0x00,
  0x08, 0x00, 0x04, 0x00, 0x14, 0x00, 0x00, 0x00, 0x1c, 0x00, 0x00, 0x00,
  0x88, 0x00, 0x00, 0x00, 0x08, 0x01, 0x00, 0x00, 0x74, 0x2b, 0x00, 0x00,
  0x84, 0x2b, 0x00, 0x00, 0xa4, 0x43, 0x00, 0x00, 0x03, 0x00, 0x00, 0x00,
  0x01, 0x00, 0x00, 0x00, 0x04, 0x00, 0x00, 0x00, 0x52, 0xd3, 0xff, 0xff,
  0x0c, 0x00, 0x00, 0x00, 0x1c, 0x00, 0x00, 0x00, 0x38, 0x00, 0x00, 0x00,
  0x0f, 0x00, 0x00, 0x00, 0x73, 0x65, 0x72, 0x76, 0x69, 0x6e, 0x67, 0x5f,
  0x64, 0x65, 0x66, 0x61, 0x75, 0x6c, 0x74, 0x00, 0x01, 0x00, 0x00, 0x00,
  0x04, 0x00, 0x00, 0x00, 0x6c, 0xff, 0xff, 0xff, 0x17, 0x00, 0x00, 0x00,
  0x04, 0x00, 0x00, 0x00, 0x07, 0x00, 0x00, 0x00, 0x64, 0x65, 0x6e, 0x73,
  0x65, 0x5f, 0x31, 0x00, 0x01, 0x00, 0x00, 0x00, 0x04, 0x00, 0x00, 0x00,
  0x32, 0xd4, 0xff, 0xff, 0x04, 0x00, 0x00, 0x00, 0x0c, 0x00, 0x00, 0x00,
  0x63, 0x6f, 0x6e, 0x76, 0x32, 0x64, 0x5f, 0x69, 0x6e, 0x70, 0x75, 0x74,
  0x00, 0x00, 0x00, 0x00, 0x03, 0x00, 0x00, 0x00, 0x5c, 0x00, 0x00, 0x00,
  0x2c, 0x00, 0x00, 0x00, 0x04, 0x00, 0x00, 0x00, 0xb8, 0xff, 0xff, 0xff,
  0x1b, 0x00, 0x00, 0x00, 0x04, 0x00, 0x00, 0x00, 0x13, 0x00, 0x00, 0x00,
  0x43, 0x4f, 0x4e, 0x56, 0x45, 0x52, 0x53, 0x49, 0x4f, 0x4e, 0x5f, 0x4d,
  0x45, 0x54, 0x41, 0x44, 0x41, 0x54, 0x41, 0x00, 0xdc, 0xff, 0xff, 0xff,
  0x1a, 0x00, 0x00, 0x00, 0x04, 0x00, 0x00, 0x00, 0x13, 0x00, 0x00, 0x00,
  0x6d, 0x69, 0x6e, 0x5f, 0x72, 0x75, 0x6e, 0x74, 0x69, 0x6d, 0x65, 0x5f,
  0x76, 0x65, 0x72, 0x73, 0x69, 0x6f, 0x6e, 0x00, 0x08, 0x00, 0x0c, 0x00,
  0x08, 0x00, 0x04, 0x00, 0x08, 0x00, 0x00, 0x00, 0x19, 0x00, 0x00, 0x00,
  0x04, 0x00, 0x00, 0x00, 0x13, 0x00, 0x00, 0x00, 0x6d, 0x69, 0x6e, 0x5f,
  0x72, 0x75, 0x6e, 0x74, 0x69, 0x6d, 0x65, 0x5f, 0x76, 0x65, 0x72, 0x73,
  0x69, 0x6f, 0x6e, 0x00, 0x1c, 0x00, 0x00, 0x00, 0x68, 0x2a, 0x00, 0x00,
  0x60, 0x2a, 0x00, 0x00, 0x48, 0x2a, 0x00, 0x00, 0x2c, 0x2a, 0x00, 0x00,
  0xbc, 0x29, 0x00, 0x00, 0x2c, 0x29, 0x00, 0x00, 0x1c, 0x19, 0x00, 0x00,
  0x8c, 0x18, 0x00, 0x00, 0x7c, 0x06, 0x00, 0x00, 0x2c, 0x06, 0x00, 0x00,
  0x9c, 0x01, 0x00, 0x00, 0x6c, 0x01, 0x00, 0x00, 0x14, 0x01, 0x00, 0x00,
  0x0c, 0x01, 0x00, 0x00, 0x04, 0x01, 0x00, 0x00, 0xfc, 0x00, 0x00, 0x00,
  0xf4, 0x00, 0x00, 0x00, 0xec, 0x00, 0x00, 0x00, 0xe4, 0x00, 0x00, 0x00,
  0xdc, 0x00, 0x00, 0x00, 0xd4, 0x00, 0x00, 0x00, 0xcc, 0x00, 0x00, 0x00,
  0xc4, 0x00, 0x00, 0x00, 0xbc, 0x00, 0x00, 0x00, 0xb4, 0x00, 0x00, 0x00,
  0x94, 0x00, 0x00, 0x00, 0x74, 0x00, 0x00, 0x00, 0x04, 0x00, 0x00, 0x00,
  0x46, 0xd5, 0xff, 0xff, 0x04, 0x00, 0x00, 0x00, 0x60, 0x00, 0x00, 0x00,
  0x0c, 0x00, 0x00, 0x00, 0x08, 0x00, 0x0e, 0x00, 0x08, 0x00, 0x04, 0x00,
  0x08, 0x00, 0x00, 0x00, 0x10, 0x00, 0x00, 0x00, 0x28, 0x00, 0x00, 0x00,
  0x00, 0x00, 0x06, 0x00, 0x08, 0x00, 0x04, 0x00, 0x06, 0x00, 0x00, 0x00,
  0x04, 0x00, 0x00, 0x00, 0x01, 0x00, 0x00, 0x00, 0xeb, 0x03, 0x00, 0x00,
  0x0c, 0x00, 0x18, 0x00, 0x14, 0x00, 0x10, 0x00, 0x0c, 0x00, 0x04, 0x00,
  0x0c, 0x00, 0x00, 0x00, 0xda, 0xab, 0x8a, 0x24, 0x0d, 0x29, 0x77, 0x1f,
  0x02, 0x00, 0x00, 0x00, 0x02, 0x00, 0x00, 0x00, 0x04, 0x00, 0x00, 0x00,
  0x06, 0x00, 0x00, 0x00, 0x32, 0x2e, 0x31, 0x39, 0x2e, 0x30, 0x00, 0x00,
  0xb2, 0xd5, 0xff, 0xff, 0x04, 0x00, 0x00, 0x00, 0x10, 0x00, 0x00, 0x00,
  0x00, 0x00, 0x00, 0x00, 0x00, 0x00, 0x00, 0x00, 0x00, 0x00, 0x00, 0x00,
  0x00, 0x00, 0x00, 0x00, 0xce, 0xd5, 0xff, 0xff, 0x04, 0x00, 0x00, 0x00,
  0x10, 0x00, 0x00, 0x00, 0x31, 0x2e, 0x31, 0x34, 0x2e, 0x30, 0x00, 0x00,
  0x00, 0x00, 0x00, 0x00, 0x00, 0x00, 0x00, 0x00, 0xb0, 0xbe, 0xff, 0xff,
  0xb4, 0xbe, 0xff, 0xff, 0xb8, 0xbe, 0xff, 0xff, 0xbc, 0xbe, 0xff, 0xff,
  0xc0, 0xbe, 0xff, 0xff, 0xc4, 0xbe, 0xff, 0xff, 0xc8, 0xbe, 0xff, 0xff,
  0xcc, 0xbe, 0xff, 0xff, 0xd0, 0xbe, 0xff, 0xff, 0xd4, 0xbe, 0xff, 0xff,
  0xd8, 0xbe, 0xff, 0xff, 0xdc, 0xbe, 0xff, 0xff, 0x1a, 0xd6, 0xff, 0xff,
  0x04, 0x00, 0x00, 0x00, 0x48, 0x00, 0x00, 0x00, 0x4c, 0x66, 0x00, 0x00,
  0x7f, 0x57, 0x4f, 0x00, 0x00, 0x00, 0x97, 0x00, 0x00, 0x00, 0x8f, 0x00,
  0x7f, 0x00, 0x00, 0x7f, 0x69, 0x00, 0x00, 0x55, 0x00, 0x00, 0x00, 0x7c,
  0x00, 0x4c, 0x00, 0x61, 0x60, 0x82, 0x81, 0x00, 0x00, 0x64, 0x65, 0x00,
  0x00, 0x7f, 0x00, 0x00, 0x00, 0x56, 0x00, 0x00, 0x85, 0x5a, 0x00, 0x81,
  0x00, 0x5b, 0x5e, 0x00, 0x00, 0x00, 0x00, 0x00, 0x00, 0x7f, 0x6d, 0x81,
  0x00, 0x00, 0x00, 0x00, 0x00, 0x00, 0x00, 0x00, 0x6e, 0xd6, 0xff, 0xff,
  0x04, 0x00, 0x00, 0x00, 0x20, 0x00, 0x00, 0x00, 0xa2, 0xeb, 0xff, 0xff,
  0x37, 0x1c, 0x00, 0x00, 0x82, 0xd6, 0xff, 0xff, 0x36, 0xe6, 0xff, 0xff,
  0x26, 0xf9, 0xff, 0xff, 0x7e, 0xfd, 0xff, 0xff, 0xa5, 0xef, 0xff, 0xff,
  0x00, 0x00, 0x00, 0x00, 0x9a, 0xd6, 0xff, 0xff, 0x04, 0x00, 0x00, 0x00,
  0x80, 0x04, 0x00, 0x00, 0x48, 0x9f, 0x00, 0x00, 0xd0, 0xc0, 0x00, 0x00,
  0x2e, 0x00, 0x00, 0xd2, 0x00, 0x92, 0x00, 0x3d, 0x00, 0x00, 0xd6, 0x2a,
  0x00, 0x8b, 0x00, 0x00, 0x00, 0x9e, 0x44, 0x7b, 0x00, 0x00, 0xd6, 0x00,
  0x00, 0x00, 0x00, 0x00, 0x00, 0x35, 0x00, 0x00, 0x00, 0x00, 0xd2, 0xb7,
  0x00, 0x8f, 0x00, 0xc7, 0xb9, 0x00, 0x30, 0x63, 0x00, 0x00, 0x00, 0x33,
  0x00, 0x81, 0x61, 0x67, 0x00, 0x00, 0xb3, 0x3b, 0x00, 0x00, 0x00, 0x00,
  0x00, 0x00, 0x30, 0xd1, 0xca, 0x00, 0x00, 0xca, 0x00, 0x00, 0xce, 0x00,
  0x00, 0x00, 0x2b, 0x41, 0xd8, 0x00, 0x00, 0x00, 0x00, 0x4d, 0x00, 0xda,
  0x00, 0xd4, 0x00, 0x00, 0xc7, 0x60, 0x29, 0x00, 0x00, 0x00, 0x00, 0x00,
  0x2d, 0x00, 0x00, 0x39, 0x29, 0x25, 0x32, 0xd3, 0x00, 0x00, 0xd1, 0x00,
  0x00, 0x00, 0x00, 0x30, 0x00, 0x7f, 0x00, 0x00, 0x00, 0x00, 0x34, 0x00,
  0x00, 0x00, 0x00, 0x24, 0x3f, 0x00, 0x00, 0x00, 0xd4, 0x00, 0x00, 0x00,
  0x00, 0x32, 0x00, 0x00, 0x2d, 0x00, 0x2b, 0x2f, 0x00, 0x00, 0x00, 0x00,
  0x00, 0xbb, 0x2f, 0x00, 0x00, 0x00, 0xd6, 0x00, 0x30, 0xdb, 0x00, 0xb6,
  0x00, 0x00, 0x00, 0xd6, 0xcf, 0x00, 0x00, 0x57, 0x2c, 0x00, 0x00, 0xcc,
  0x00, 0xb3, 0x00, 0x00, 0x00, 0x27, 0x00, 0x2b, 0x43, 0xa8, 0x00, 0x2d,
  0x00, 0x00, 0x28, 0x00, 0xa9, 0x00, 0x00, 0xcb, 0xb6, 0x00, 0x00, 0x00,
  0x00, 0x81, 0x00, 0x00, 0x00, 0x00, 0x00, 0x00, 0xdc, 0x00, 0x00, 0x2e,
  0x00, 0xc9, 0x00, 0x00, 0x39, 0xbc, 0x52, 0x6e, 0x4a, 0x00, 0x00, 0x00,
  0x00, 0x81, 0x4c, 0x57, 0x40, 0x3b, 0x00, 0x00, 0x00, 0xa7, 0x00, 0x00,
  0x36, 0x00, 0x58, 0x00, 0xc9, 0x00, 0x00, 0x00, 0xc2, 0x00, 0x00, 0x00,
  0x00, 0x00, 0x00, 0x00, 0x00, 0xd0, 0xc3, 0x00, 0x00, 0xa2, 0x00, 0x66,
  0x00, 0x38, 0xc0, 0x00, 0x00, 0xb6, 0x00, 0x00, 0xbf, 0x00, 0xb9, 0x00,
  0x00, 0x00, 0xa9, 0x00, 0xb6, 0x00, 0x00, 0x00, 0x00, 0x00, 0x00, 0x00,
  0xbd, 0x00, 0xbe, 0x00, 0x3d, 0x61, 0xb3, 0xb1, 0x00, 0x00, 0x00, 0xb1,
  0x00, 0x7f, 0x00, 0xc7, 0xc4, 0x00, 0xc3, 0x00, 0x00, 0x4c, 0x00, 0x4a,
  0x00, 0x00, 0x00, 0x40, 0x41, 0x00, 0x00, 0x00, 0x00, 0x00, 0x00, 0xc0,
  0x00, 0x00, 0xbb, 0xa5, 0x00, 0xc9, 0x36, 0x00, 0x00, 0x99, 0x00, 0x59,
  0x40, 0x6c, 0x47, 0xbf, 0x00, 0x44, 0x00, 0x52, 0x00, 0x57, 0x00, 0x00,
  0x53, 0x5c, 0x00, 0xa4, 0xb3, 0xa2, 0x00, 0x00, 0xa0, 0x00, 0x00, 0x00,
  0x00, 0x97, 0xcb, 0x00, 0x00, 0x7f, 0xd2, 0xd4, 0x00, 0x00, 0x00, 0x00,
  0x00, 0x62, 0xd4, 0x2a, 0x00, 0x39, 0x00, 0x00, 0x00, 0x41, 0x42, 0x63,
  0x51, 0x57, 0xcf, 0x00, 0x00, 0x00, 0x00, 0xd3, 0x00, 0x36, 0x00, 0xd1,
  0x00, 0x53, 0x00, 0x00, 0x00, 0x00, 0x00, 0xc7, 0x00, 0x50, 0x00, 0x00,
  0x2a, 0xc7, 0xc3, 0x26, 0x00, 0x73, 0x00, 0x27, 0x00, 0x00, 0x00, 0x00,
  0x00, 0x61, 0x00, 0xd6, 0x00, 0x00, 0x00, 0x00, 0x00, 0x00, 0x00, 0xc9,
  0x00, 0x00, 0x00, 0xce, 0x00, 0x00, 0x00, 0x5d, 0x00, 0x00, 0x00, 0x00,
  0x40, 0x00, 0xc4, 0xc4, 0x00, 0x3b, 0x00, 0x00, 0x00, 0x00, 0xb7, 0x00,
  0x00, 0xad, 0x3c, 0x00, 0x00, 0x00, 0x59, 0x7f, 0x00, 0x00, 0x3d, 0x00,
  0x00, 0x00, 0x00, 0x70, 0x46, 0x00, 0x00, 0x3e, 0x00, 0x00, 0x00, 0x00,
  0x9c, 0x34, 0x00, 0x00, 0x00, 0x00, 0xc4, 0x00, 0xcc, 0x00, 0x00, 0x00,
  0x9e, 0x59, 0x00, 0x00, 0x00, 0x00, 0xaf, 0x00, 0x32, 0x00, 0x3d, 0x00,
  0x39, 0x32, 0xba, 0x00, 0x00, 0x00, 0x00, 0x73, 0x00, 0x00, 0x00, 0xdc,
  0x37, 0xb6, 0x00, 0x77, 0x00, 0x34, 0x00, 0x00, 0x00, 0xd2, 0x44, 0x00,
  0x00, 0x00, 0x00, 0x00, 0x00, 0x7f, 0x00, 0x00, 0xc9, 0x00, 0x00, 0x00,
  0x00, 0x4e, 0x00, 0x00, 0x00, 0xdc, 0xd7, 0x00, 0xd4, 0x28, 0x00, 0x40,
  0x00, 0x36, 0x00, 0x00, 0x00, 0x00, 0x00, 0x00, 0x00, 0x34, 0x00, 0x00,
  0x27, 0x4a, 0xb8, 0xd2, 0x23, 0x00, 0x00, 0x00, 0x00, 0x3c, 0x00, 0xcf,
  0x26, 0x00, 0xc5, 0x00, 0x00, 0xaa, 0x52, 0x6c, 0x00, 0x00, 0x34, 0x00,
  0x33, 0x00, 0x00, 0x36, 0x00, 0xa5, 0x47, 0x00, 0xc7, 0xbb, 0x00, 0x00,
  0x00, 0x00, 0x00, 0x00, 0x00, 0x00, 0x4b, 0x7f, 0x56, 0x53, 0x00, 0x00,
  0x00, 0x00, 0x00, 0x00, 0x00, 0x00, 0x00, 0x00, 0x00, 0x00, 0xcf, 0x00,
  0x00, 0x00, 0xc9, 0xd2, 0x00, 0x46, 0x00, 0xbb, 0xb1, 0xad, 0x00, 0x00,
  0x00, 0x00, 0x00, 0x43, 0x00, 0xd2, 0x00, 0x00, 0x00, 0x00, 0xb7, 0x00,
  0xb0, 0x00, 0xae, 0x00, 0x00, 0x34, 0x00, 0x2f, 0x00, 0x00, 0x00, 0x00,
  0xcc, 0x7c, 0x00, 0x00, 0xc8, 0x46, 0x38, 0x00, 0x00, 0x2c, 0x00, 0x00,
  0x47, 0x00, 0x2f, 0x29, 0xbd, 0x7f, 0xc9, 0xd2, 0x00, 0xca, 0xb3, 0x00,
  0x00, 0x69, 0x00, 0x00, 0x00, 0x62, 0x3b, 0x00, 0x00, 0x5f, 0x00, 0x00,
  0x00, 0x00, 0x00, 0x00, 0x00, 0x5d, 0x00, 0xd7, 0x00, 0xd2, 0x00, 0x00,
  0x32, 0x66, 0x00, 0x00, 0x00, 0x56, 0x00, 0x00, 0x00, 0x3f, 0x00, 0x00,
  0x00, 0x35, 0x00, 0x39, 0x00, 0x00, 0x00, 0x00, 0x00, 0x00, 0x36, 0x37,
  0x3d, 0xd3, 0x00, 0x00, 0xbe, 0x00, 0x46, 0x00, 0x37, 0x00, 0x00, 0x00,
  0x34, 0xaa, 0x00, 0x00, 0x00, 0x00, 0x00, 0x00, 0x41, 0x00, 0x00, 0x00,
  0x00, 0x81, 0x53, 0x5c, 0x33, 0x3e, 0x3c, 0x00, 0x2f, 0x00, 0x46, 0x6e,
  0x00, 0x00, 0x65, 0x00, 0x00, 0x36, 0xc5, 0x00, 0x00, 0xcf, 0x00, 0x00,
  0x9a, 0x00, 0x00, 0x00, 0x00, 0x00, 0xb8, 0x00, 0x00, 0x00, 0x36, 0x00,
  0x49, 0x00, 0x00, 0x00, 0x00, 0x00, 0x00, 0x9e, 0xca, 0xcc, 0x96, 0x00,
  0x00, 0x59, 0x00, 0x00, 0x45, 0x71, 0x48, 0x4a, 0x00, 0x3c, 0x49, 0x00,
  0x00, 0x00, 0x00, 0x00, 0xad, 0x7f, 0x00, 0x00, 0x00, 0x00, 0x00, 0xb8,
  0x3e, 0x61, 0x00, 0xb2, 0x00, 0x50, 0xaf, 0x00, 0x00, 0x00, 0x4c, 0x00,
  0x00, 0x00, 0x00, 0x00, 0xa5, 0x69, 0xbb, 0x00, 0x39, 0x00, 0x00, 0x00,
  0x00, 0x00, 0x00, 0x00, 0x44, 0x00, 0x00, 0x00, 0x4e, 0x00, 0x00, 0x00,
  0x53, 0x00, 0xcc, 0x00, 0x00, 0x00, 0x00, 0xc5, 0x56, 0x4b, 0x00, 0x55,
  0x00, 0x00, 0x00, 0x00, 0x00, 0x00, 0x3b, 0x00, 0x00, 0x4c, 0x00, 0x39,
  0x00, 0x3b, 0x00, 0x3e, 0x00, 0x00, 0x00, 0x6d, 0x45, 0x7c, 0x00, 0x00,
  0x00, 0x65, 0x3a, 0x00, 0x00, 0x00, 0x00, 0x00, 0x9f, 0x00, 0x00, 0x00,
  0x00, 0xb8, 0x00, 0xb4, 0xa3, 0x00, 0x44, 0x71, 0x00, 0x68, 0x00, 0x00,
  0x38, 0x42, 0x00, 0x7f, 0xa8, 0x78, 0x00, 0x00, 0x00, 0x44, 0x00, 0x00,
  0x00, 0xb7, 0x00, 0x00, 0xb4, 0x00, 0x00, 0xcb, 0x39, 0xb4, 0xb7, 0x00,
  0x00, 0x36, 0x00, 0x00, 0x00, 0x66, 0x00, 0x00, 0xcf, 0x7f, 0x00, 0xb9,
  0x00, 0x00, 0x00, 0x00, 0x00, 0x57, 0x00, 0x00, 0x00, 0x00, 0x00, 0x00,
  0x4c, 0x00, 0x39, 0x3c, 0x5b, 0x6e, 0x00, 0x00, 0x34, 0x5e, 0x00, 0x00,
  0x00, 0x00, 0x00, 0x00, 0x36, 0x00, 0x00, 0x2d, 0x00, 0x00, 0xc5, 0x00,
  0x00, 0x00, 0x55, 0x61, 0x00, 0x00, 0x00, 0x00, 0x3b, 0x00, 0x00, 0x00,
  0x00, 0x4a, 0x37, 0xbf, 0x47, 0x4a, 0x3d, 0x00, 0x00, 0x00, 0x6f, 0xbf,
  0x3b, 0x00, 0x96, 0x00, 0xb1, 0x00, 0xad, 0xc4, 0x00, 0x00, 0x44, 0x00,
  0x00, 0x00, 0xb7, 0x00, 0x5e, 0x60, 0x00, 0x00, 0x00, 0x5e, 0x00, 0x39,
  0xc1, 0x00, 0x00, 0xaa, 0xc4, 0xc0, 0x00, 0x55, 0x00, 0x00, 0x8d, 0x81,
  0xa7, 0x00, 0x00, 0xb1, 0x6f, 0x5b, 0x00, 0x7b, 0x00, 0x00, 0x00, 0x00,
  0x00, 0x00, 0x3e, 0x00, 0x00, 0x4c, 0x00, 0x00, 0xb4, 0x00, 0xbe, 0x00,
  0x00, 0x00, 0x00, 0x00, 0x55, 0xaa, 0x00, 0x00, 0x00, 0x00, 0x00, 0x00,
  0x4e, 0x9e, 0x00, 0x00, 0xc7, 0xb2, 0x00, 0x3f, 0x44, 0x00, 0xbf, 0x00,
  0xaa, 0x00, 0x00, 0xcc, 0x40, 0x99, 0x00, 0x61, 0x45, 0x00, 0x00, 0x00,
  0x00, 0x81, 0x00, 0x00, 0x00, 0x00, 0x36, 0x00, 0x2d, 0x00, 0x00, 0x00,
  0xbe, 0xb8, 0x00, 0xbd, 0xc5, 0x00, 0x00, 0x31, 0x00, 0xc0, 0xba, 0xc8,
  0xcf, 0x00, 0x00, 0x3d, 0x00, 0x00, 0x00, 0x31, 0x00, 0xcf, 0x00, 0x3a,
  0x00, 0x55, 0x45, 0xc0, 0x26, 0xdb, 0xff, 0xff, 0x04, 0x00, 0x00, 0x00,
  0x40, 0x00, 0x00, 0x00, 0xf1, 0xf4, 0xff, 0xff, 0xd0, 0xfd, 0xff, 0xff,
  0xc8, 0xf6, 0xff, 0xff, 0x2d, 0xfa, 0xff, 0xff, 0xdb, 0xef, 0xff, 0xff,
  0xb3, 0x08, 0x00, 0x00, 0xf2, 0xfb, 0xff, 0xff, 0x84, 0x02, 0x00, 0x00,
  0x0c, 0xf9, 0xff, 0xff, 0xcf, 0x05, 0x00, 0x00, 0x79, 0xea, 0xff, 0xff,
  0x68, 0x01, 0x00, 0x00, 0x61, 0xf8, 0xff, 0xff, 0xb4, 0xf7, 0xff, 0xff,
  0x97, 0x19, 0x00, 0x00, 0xd8, 0xf0, 0xff, 0xff, 0x72, 0xdb, 0xff, 0xff,
  0x04, 0x00, 0x00, 0x00, 0x00, 0x12, 0x00, 0x00, 0x00, 0x00, 0x00, 0x00,
  0x00, 0x00, 0x42, 0x00, 0x00, 0x00, 0x00, 0x00, 0x3b, 0x3e, 0x88, 0x00,
  0x6b, 0x4f, 0xb9, 0xb8, 0x00, 0x00, 0x5f, 0x00, 0x51, 0x00, 0x00, 0x44,
  0x65, 0x61, 0x3b, 0x4c, 0x00, 0x5f, 0x00, 0xb7, 0x43, 0x78, 0x60, 0x00,
  0x00, 0x5a, 0x00, 0x00, 0x41, 0x00, 0x00, 0x43, 0x00, 0x00, 0xc6, 0x6f,
  0x00, 0x7f, 0x00, 0x00, 0x00, 0x00, 0x00, 0x00, 0xa8, 0x00, 0x00, 0x3a,
  0x00, 0x00, 0x00, 0x00, 0x00, 0x66, 0x00, 0x50, 0x00, 0x6a, 0x47, 0x00,
  0x00, 0x00, 0xa6, 0xc2, 0x00, 0x44, 0x00, 0x00, 0x00, 0x00, 0x00, 0x00,
  0x57, 0x38, 0x00, 0x00, 0x00, 0x00, 0x00, 0x61, 0x00, 0x4b, 0x00, 0x00,
  0x00, 0xb6, 0x00, 0x00, 0xc5, 0x87, 0x00, 0x00, 0x00, 0xc5, 0x00, 0x00,
  0x6a, 0x00, 0x00, 0x00, 0x00, 0x00, 0x00, 0x00, 0x00, 0x00, 0x00, 0x95,
  0x00, 0x00, 0x72, 0x00, 0x00, 0x50, 0x00, 0x3c, 0x40, 0x00, 0x66, 0x64,
  0x00, 0x67, 0x00, 0x63, 0x00, 0x00, 0x00, 0x00, 0x00, 0x00, 0x00, 0x00,
  0x5d, 0x7f, 0x4b, 0x00, 0x59, 0x00, 0x00, 0x00, 0x00, 0x00, 0x00, 0x00,
  0x00, 0x47, 0x00, 0x4d, 0x50, 0x00, 0x00, 0x00, 0x48, 0x00, 0x00, 0x71,
  0x55, 0x00, 0xb3, 0x00, 0xba, 0x00, 0x00, 0x48, 0x4f, 0x00, 0x00, 0x00,
  0x7d, 0x3f, 0x00, 0x00, 0x4e, 0x63, 0x00, 0x00, 0x77, 0x00, 0x00, 0x00,
  0x00, 0xba, 0x64, 0x00, 0x00, 0xc3, 0x00, 0x00, 0x00, 0x00, 0x5c, 0x55,
  0x00, 0xb1, 0x44, 0x67, 0x00, 0x00, 0x51, 0x00, 0xc2, 0x00, 0x00, 0x4d,
  0x00, 0x00, 0x00, 0x00, 0x00, 0x59, 0x00, 0x00, 0x00, 0x00, 0xc6, 0x00,
  0x7c, 0x00, 0x00, 0x56, 0x00, 0x00, 0x00, 0x00, 0x00, 0x00, 0x00, 0x65,
  0x00, 0x00, 0x00, 0x00, 0x00, 0x00, 0xbd, 0x00, 0x00, 0xb8, 0x00, 0x00,
  0x00, 0xaf, 0x40, 0x67, 0xc2, 0xa2, 0x00, 0xb9, 0x00, 0x00, 0x00, 0x00,
  0x00, 0x54, 0x00, 0x00, 0x4f, 0x00, 0x00, 0xab, 0x4a, 0x00, 0xb9, 0x00,
  0x00, 0x00, 0x00, 0x00, 0x00, 0x00, 0x00, 0x4f, 0x00, 0xc6, 0x00, 0x00,
  0xcc, 0xa5, 0x00, 0x00, 0xae, 0xcb, 0x00, 0x00, 0x00, 0xd2, 0xc4, 0x00,
  0x00, 0xcf, 0x00, 0x00, 0x69, 0x6d, 0xcf, 0x2f, 0x4d, 0x00, 0xc7, 0x00,
  0x00, 0x00, 0x00, 0xc2, 0xac, 0x50, 0x39, 0x00, 0xd4, 0x65, 0x00, 0x4b,
  0xbd, 0x7f, 0x00, 0x31, 0x00, 0x00, 0x41, 0xc8, 0x00, 0x00, 0x00, 0x00,
  0x00, 0x00, 0xb8, 0x00, 0x00, 0xc9, 0x00, 0x00, 0x00, 0x00, 0xb4, 0x00,
  0x00, 0x00, 0x00, 0xcb, 0x4d, 0x00, 0x00, 0x00, 0x00, 0xca, 0x00, 0xbe,
  0x5a, 0x00, 0x3a, 0x00, 0x00, 0x00, 0x00, 0x00, 0x2f, 0x00, 0x00, 0xcc,
  0x00, 0x4e, 0x00, 0x36, 0x00, 0x00, 0xc7, 0x00, 0x31, 0x00, 0x42, 0x00,
  0x00, 0x00, 0x00, 0x36, 0x00, 0xc8, 0x00, 0x2a, 0x00, 0x00, 0x00, 0x00,
  0x5b, 0x00, 0x33, 0x00, 0x48, 0x00, 0x5f, 0x2d, 0x4c, 0x51, 0x4a, 0x00,
  0x31, 0x49, 0x46, 0x4e, 0x31, 0x00, 0x33, 0x3d, 0x41, 0x41, 0x00, 0x2d,
  0xd5, 0x00, 0x00, 0x00, 0x52, 0xd0, 0x00, 0x00, 0x00, 0xb6, 0x00, 0x57,
  0x00, 0x00, 0x43, 0x3f, 0x00, 0x00, 0x00, 0x00, 0x59, 0x00, 0x00, 0x3f,
  0x00, 0x00, 0x40, 0x4a, 0x00, 0x65, 0x4e, 0x00, 0x55, 0x00, 0x00, 0x00,
  0x00, 0xbe, 0x00, 0xb7, 0x00, 0xb5, 0xb4, 0x00, 0x00, 0x00, 0x00, 0xc0,
  0x00, 0x00, 0x00, 0x57, 0x00, 0x00, 0x00, 0x00, 0x00, 0x00, 0x00, 0xaf,
  0x42, 0x00, 0xaf, 0x7f, 0x00, 0x46, 0xb9, 0x3f, 0x00, 0x00, 0x00, 0x52,
  0x00, 0x76, 0x00, 0x00, 0x00, 0x00, 0x3f, 0x00, 0x00, 0x6c, 0x00, 0x00,
  0x00, 0x43, 0x00, 0x00, 0x00, 0x9b, 0x00, 0x00, 0x00, 0x00, 0x00, 0x00,
  0x00, 0x00, 0x00, 0x00, 0xb6, 0x47, 0x00, 0xba, 0x00, 0x00, 0x00, 0x00,
  0x00, 0x00, 0x5c, 0x00, 0x42, 0x00, 0x4a, 0x00, 0xb5, 0x40, 0xbe, 0x00,
  0x00, 0x00, 0x00, 0x00, 0x00, 0x00, 0x00, 0x00, 0x00, 0x55, 0x4b, 0xc2,
  0x64, 0x00, 0x00, 0x00, 0x00, 0x00, 0x00, 0x00, 0x00, 0x00, 0x00, 0x00,
  0x4c, 0x00, 0x00, 0x00, 0x00, 0x46, 0xbb, 0x00, 0x00, 0x00, 0x00, 0x25,
  0x00, 0x00, 0x00, 0x00, 0x30, 0x00, 0x00, 0x00, 0x37, 0x00, 0x4a, 0x2b,
  0x00, 0x00, 0x3d, 0x00, 0x23, 0x00, 0x00, 0x26, 0x00, 0x43, 0x00, 0x3a,
  0xd9, 0x30, 0x00, 0x00, 0x00, 0xda, 0xd6, 0x40, 0x00, 0x00, 0x00, 0x00,
  0x48, 0x00, 0xca, 0xd2, 0x00, 0xd8, 0x7f, 0x2a, 0x00, 0x00, 0xdd, 0x00,
  0x00, 0x00, 0x2a, 0x37, 0x00, 0x00, 0x00, 0x00, 0x00, 0x32, 0xdc, 0x32,
  0x00, 0x45, 0x00, 0x2a, 0x00, 0x00, 0x00, 0x00, 0x00, 0x00, 0x00, 0x31,
  0xc0, 0x00, 0x00, 0x00, 0x00, 0x00, 0x00, 0x00, 0x00, 0x9f, 0x00, 0x00,
  0x00, 0x00, 0x00, 0xdc, 0x32, 0x00, 0x00, 0x00, 0x42, 0x00, 0x00, 0x24,
  0x26, 0x00, 0x00, 0xd8, 0x00, 0x00, 0x2d, 0x00, 0x00, 0x00, 0x00, 0xd6,
  0x00, 0xc9, 0x00, 0x4a, 0xc6, 0x00, 0x00, 0xd6, 0x00, 0x00, 0x00, 0x25,
  0xd0, 0x00, 0x00, 0x00, 0x00, 0x00, 0x00, 0x3b, 0xd4, 0xdb, 0x00, 0x39,
  0x29, 0x00, 0x00, 0x00, 0x00, 0x00, 0xd9, 0x00, 0x00, 0x00, 0x00, 0x37,
  0x00, 0x00, 0x00, 0x00, 0x00, 0xb3, 0x4b, 0xbf, 0x64, 0x53, 0x00, 0x00,
  0x00, 0x00, 0x52, 0x00, 0x00, 0x00, 0x00, 0xa0, 0x00, 0xad, 0x00, 0x00,
  0x3c, 0x00, 0xc0, 0x00, 0xc7, 0xc7, 0x00, 0x39, 0x00, 0x00, 0xc8, 0x00,
  0x00, 0x00, 0x00, 0x00, 0xb6, 0x42, 0xcb, 0x00, 0x66, 0x00, 0x3e, 0x5d,
  0x00, 0x5c, 0x00, 0x62, 0x00, 0x00, 0x40, 0x9f, 0x00, 0x00, 0x00, 0x00,
  0x3c, 0x81, 0x00, 0x00, 0x3d, 0x00, 0x00, 0x00, 0x00, 0xc0, 0x48, 0x00,
  0xc4, 0xc4, 0x6a, 0x00, 0x74, 0x00, 0x00, 0x73, 0xc1, 0x00, 0x00, 0x38,
  0x00, 0x5d, 0x00, 0xca, 0x00, 0x00, 0x00, 0x00, 0x43, 0x00, 0x50, 0x3f,
  0x00, 0x00, 0x3e, 0x00, 0x00, 0x00, 0x41, 0x00, 0x00, 0x00, 0x53, 0x00,
  0x00, 0x00, 0xcc, 0x00, 0x00, 0x60, 0x00, 0xa3, 0x00, 0x00, 0x00, 0x00,
  0x00, 0xad, 0x36, 0x00, 0x00, 0x00, 0x00, 0x7f, 0x00, 0x00, 0xca, 0x00,
  0x00, 0x00, 0x00, 0x00, 0x00, 0x00, 0x00, 0x00, 0xaa, 0x78, 0xb1, 0x00,
  0x00, 0x00, 0x00, 0x00, 0x00, 0x5e, 0x00, 0xb3, 0x00, 0x00, 0x5d, 0x00,
  0x00, 0x4e, 0xb5, 0x00, 0x00, 0x00, 0x45, 0x00, 0x00, 0x54, 0xa7, 0x00,
  0x00, 0x00, 0x00, 0x00, 0x00, 0x00, 0x00, 0x00, 0x00, 0x00, 0x00, 0x00,
  0x88, 0x00, 0x00, 0x00, 0xae, 0x00, 0x00, 0x00, 0x48, 0x00, 0x00, 0x00,
  0x00, 0x00, 0xac, 0x00, 0x00, 0x00, 0x00, 0x00, 0x00, 0x00, 0x7f, 0x00,
  0x00, 0xb4, 0x00, 0x00, 0x56, 0x4f, 0x00, 0x00, 0x4c, 0x00, 0x00, 0x00,
  0xb4, 0x85, 0x60, 0x9e, 0x00, 0x00, 0xa5, 0x00, 0x00, 0x00, 0x00, 0x00,
  0xa2, 0x00, 0x00, 0x00, 0x00, 0x00, 0x00, 0x48, 0x00, 0x00, 0x00, 0x00,
  0x00, 0x00, 0x69, 0x00, 0x50, 0x00, 0x55, 0x00, 0xbc, 0x00, 0x00, 0x00,
  0xb7, 0x97, 0x90, 0x50, 0x00, 0x00, 0x5e, 0x00, 0x00, 0x00, 0x8f, 0x00,
  0x00, 0x00, 0x65, 0x98, 0x00, 0x00, 0x53, 0x00, 0x49, 0x00, 0x00, 0x00,
  0x00, 0x00, 0x00, 0x00, 0x00, 0x5a, 0x00, 0x00, 0x00, 0x00, 0xd0, 0x00,
  0x00, 0x00, 0x00, 0x00, 0x00, 0x00, 0xba, 0x00, 0x00, 0x00, 0x00, 0x00,
  0x00, 0x00, 0xc3, 0x00, 0x00, 0x75, 0x00, 0x44, 0x00, 0x41, 0x3d, 0x00,
  0xbd, 0x00, 0x00, 0x00, 0x00, 0x00, 0xc1, 0x00, 0x00, 0x00, 0x32, 0x6a,
  0xc7, 0x00, 0x00, 0x53, 0x48, 0x33, 0x00, 0x00, 0x37, 0x00, 0x3a, 0x91,
  0xb5, 0x00, 0x00, 0x00, 0x3e, 0xcb, 0xd1, 0x00, 0x00, 0x00, 0x00, 0x00,
  0x61, 0x56, 0x00, 0x00, 0x00, 0x4c, 0xcd, 0x00, 0xca, 0x42, 0xd0, 0xca,
  0x00, 0x00, 0x59, 0x00, 0x9d, 0x00, 0x00, 0x38, 0x00, 0x4e, 0x00, 0x00,
  0x3a, 0x3e, 0xc8, 0x31, 0x00, 0x00, 0x5d, 0x00, 0x81, 0xc3, 0x00, 0x41,
  0x91, 0x50, 0x00, 0x50, 0x00, 0x31, 0x00, 0x00, 0x00, 0x32, 0xc6, 0xc4,
  0x00, 0x00, 0x00, 0x65, 0xb2, 0x00, 0x7b, 0x7c, 0x00, 0x52, 0x00, 0x00,
  0xce, 0x00, 0x00, 0x00, 0x00, 0x00, 0x00, 0xb3, 0x52, 0x4b, 0xae, 0xad,
  0xc9, 0x00, 0x00, 0x00, 0x00, 0x00, 0x54, 0x00, 0x00, 0x9a, 0x00, 0x4f,
  0xc9, 0xb9, 0x00, 0x00, 0x00, 0x81, 0x00, 0x00, 0x00, 0xb9, 0xa7, 0x2b,
  0x34, 0xaa, 0x00, 0x78, 0x00, 0xaf, 0x2d, 0x5e, 0x00, 0x8c, 0x45, 0x00,
  0x00, 0x00, 0x95, 0x37, 0x37, 0x00, 0x00, 0x2e, 0x00, 0xaa, 0x00, 0x00,
  0x4f, 0x8d, 0x00, 0x00, 0x00, 0x00, 0xd3, 0x00, 0x00, 0xc5, 0x00, 0x58,
  0x00, 0x00, 0xa3, 0x33, 0x00, 0x00, 0xbe, 0x00, 0x00, 0x00, 0x00, 0x00,
  0x00, 0x00, 0x42, 0x62, 0x00, 0x00, 0x00, 0x00, 0x00, 0x00, 0x00, 0x00,
  0x00, 0x00, 0x00, 0x00, 0x2d, 0xbf, 0x00, 0x6f, 0x00, 0x53, 0x64, 0x40,
  0x00, 0x00, 0x3e, 0x00, 0x00, 0x00, 0xcd, 0x00, 0x00, 0x00, 0xd2, 0x00,
  0x41, 0x00, 0x00, 0x00, 0x00, 0x00, 0x00, 0x48, 0x00, 0x00, 0x00, 0x00,
  0x00, 0x00, 0xca, 0x00, 0x00, 0x33, 0x00, 0x00, 0x34, 0xc9, 0x00, 0x00,
  0x00, 0x00, 0x38, 0x00, 0x00, 0x2f, 0x00, 0x00, 0x00, 0x00, 0x29, 0xca,
  0x00, 0x4c, 0x00, 0xd7, 0x00, 0x00, 0x47, 0x00, 0x00, 0xd0, 0x00, 0x4b,
  0x00, 0xb2, 0x55, 0x30, 0x48, 0xd6, 0x4c, 0x32, 0x00, 0xb8, 0xd5, 0x00,
  0x38, 0x3e, 0x3f, 0x63, 0x2f, 0x00, 0x53, 0x00, 0x00, 0x00, 0x00, 0x00,
  0x33, 0x00, 0x32, 0x4a, 0x4b, 0xc4, 0x00, 0x7f, 0xd3, 0x00, 0x00, 0x00,
  0x47, 0xa1, 0x00, 0xc6, 0x00, 0x39, 0x00, 0x00, 0x00, 0x00, 0x00, 0x3e,
  0xb3, 0x32, 0xbe, 0x49, 0xd0, 0xc5, 0xc9, 0x00, 0x00, 0x00, 0x00, 0xbe,
  0xce, 0x00, 0x00, 0x4b, 0x00, 0x00, 0x00, 0x34, 0x00, 0x00, 0x00, 0x00,
  0xd4, 0xb4, 0x5b, 0x00, 0xd3, 0x00, 0x00, 0x00, 0x00, 0x00, 0x00, 0x00,
  0x2e, 0x00, 0x00, 0x2d, 0xbf, 0x00, 0xbe, 0x00, 0x00, 0x00, 0x00, 0x43,
  0xd5, 0x00, 0x00, 0x00, 0x00, 0x00, 0x00, 0x4e, 0xa8, 0xbc, 0x00, 0x00,
  0x00, 0x00, 0x00, 0x00, 0x00, 0xb2, 0xd3, 0x00, 0x00, 0x00, 0x00, 0x00,
  0x00, 0x00, 0x00, 0xd3, 0x00, 0xd6, 0x2f, 0x00, 0x00, 0x00, 0xcd, 0x00,
  0xb6, 0xcd, 0x00, 0x00, 0xc1, 0x00, 0xc8, 0xc2, 0x4a, 0x65, 0x3b, 0x33,
  0x00, 0x00, 0x59, 0x4e, 0x2f, 0x00, 0x34, 0x00, 0x3f, 0x00, 0x5b, 0x00,
  0x22, 0xd0, 0x00, 0x00, 0x00, 0x42, 0x00, 0x2d, 0x27, 0x00, 0x00, 0x00,
  0x00, 0xdd, 0x7f, 0x00, 0x00, 0xab, 0xd9, 0x5b, 0xd1, 0x6e, 0x00, 0x5c,
  0x00, 0x23, 0xce, 0x00, 0xd7, 0xde, 0x00, 0xd9, 0x00, 0x00, 0x1f, 0x00,
  0x00, 0x00, 0x26, 0x00, 0x00, 0x00, 0x00, 0x00, 0x00, 0x21, 0x00, 0x00,
  0xe0, 0x00, 0x00, 0x00, 0x00, 0xd4, 0x00, 0xdc, 0x00, 0x00, 0xdf, 0xd6,
  0x00, 0x00, 0x00, 0x00, 0x00, 0x00, 0x00, 0xdf, 0x00, 0x00, 0xc3, 0xbd,
  0x00, 0x00, 0x00, 0xb4, 0xc6, 0x00, 0x00, 0xc7, 0x2d, 0x48, 0x2a, 0x00,
  0x37, 0x00, 0x00, 0x00, 0x00, 0x24, 0x35, 0x00, 0x2a, 0x00, 0x00, 0x00,
  0xdb, 0x2d, 0x00, 0xe1, 0xd8, 0xc7, 0x00, 0xcd, 0x00, 0x00, 0x00, 0x2a,
  0x38, 0x00, 0x00, 0x00, 0xbe, 0xca, 0x00, 0x00, 0xd9, 0x00, 0x00, 0x00,
  0x00, 0x00, 0x00, 0x00, 0x00, 0x00, 0xc5, 0xdd, 0x5f, 0x00, 0x31, 0x7f,
  0x00, 0x00, 0x60, 0x3a, 0x00, 0x00, 0x00, 0xd5, 0x00, 0x00, 0x40, 0x00,
  0x41, 0x97, 0x00, 0x36, 0x00, 0x3d, 0x28, 0x00, 0x38, 0x00, 0x00, 0xc6,
  0x00, 0x00, 0x59, 0x00, 0x00, 0x00, 0x00, 0x50, 0x00, 0x38, 0x00, 0x65,
  0x2c, 0x00, 0x00, 0x00, 0xd1, 0x00, 0x53, 0x00, 0x00, 0x00, 0xcf, 0x00,
  0x25, 0x00, 0x00, 0x00, 0x00, 0x3f, 0x00, 0x42, 0x00, 0x00, 0x00, 0x00,
  0x00, 0x47, 0x00, 0x00, 0x2b, 0x00, 0xdb, 0x00, 0xc8, 0x3a, 0x00, 0xd4,
  0x00, 0x00, 0x34, 0xc6, 0x00, 0x3e, 0xdb, 0x00, 0x00, 0x39, 0x00, 0x2a,
  0x00, 0x00, 0xd6, 0x00, 0x00, 0xcf, 0x00, 0x00, 0x00, 0x2c, 0x25, 0x00,
  0x4e, 0x24, 0x4c, 0x00, 0x00, 0x00, 0x00, 0x00, 0x00, 0x39, 0xce, 0x00,
  0x00, 0x00, 0xd8, 0xc6, 0xda, 0x29, 0x3e, 0x00, 0x45, 0x3b, 0x00, 0x54,
  0x4d, 0x00, 0x00, 0x00, 0x00, 0x00, 0x00, 0xd4, 0xd7, 0x37, 0x00, 0x00,
  0x00, 0x00, 0x00, 0x00, 0x00, 0x00, 0x00, 0x00, 0x00, 0x00, 0x39, 0x00,
  0xb8, 0x00, 0x00, 0x00, 0x00, 0x00, 0x00, 0x00, 0x00, 0x00, 0x87, 0x00,
  0x00, 0xca, 0x00, 0x81, 0x40, 0x48, 0x00, 0x00, 0x00, 0x00, 0x00, 0x4a,
  0x36, 0x00, 0x00, 0x00, 0x00, 0x00, 0x00, 0x98, 0x00, 0x00, 0xa4, 0x48,
  0x00, 0x49, 0x00, 0x00, 0x00, 0x00, 0x00, 0x00, 0x00, 0x60, 0x00, 0x00,
  0x00, 0x00, 0x34, 0x00, 0x00, 0x00, 0x00, 0x3b, 0x00, 0x45, 0x00, 0xb8,
  0x00, 0x00, 0x00, 0x00, 0x3f, 0x45, 0x60, 0x47, 0x00, 0x00, 0x50, 0x00,
  0x4b, 0x5e, 0x00, 0x45, 0x00, 0x00, 0x00, 0x00, 0x00, 0x00, 0x00, 0x00,
  0x40, 0x00, 0x00, 0x00, 0x75, 0x00, 0x6a, 0x00, 0x38, 0x53, 0x3e, 0xc7,
  0x00, 0x00, 0x47, 0x41, 0xbe, 0x62, 0xbc, 0x00, 0x00, 0x38, 0x00, 0x00,
  0x00, 0x00, 0x00, 0x00, 0x51, 0x00, 0x00, 0x00, 0x35, 0x5d, 0x00, 0x34,
  0xbb, 0x00, 0x00, 0x00, 0x00, 0x53, 0x00, 0x00, 0x3f, 0x00, 0x00, 0x3d,
  0x00, 0x5e, 0x00, 0x00, 0x00, 0x00, 0x00, 0x00, 0x7c, 0x00, 0x4f, 0x00,
  0x00, 0x49, 0x45, 0x70, 0x55, 0x00, 0x00, 0x89, 0x72, 0x00, 0x39, 0x00,
  0x00, 0x00, 0x00, 0x66, 0x9e, 0x00, 0x77, 0x00, 0x00, 0x00, 0x00, 0x00,
  0xbc, 0xa3, 0x00, 0x5c, 0x3b, 0xb0, 0x00, 0x00, 0x00, 0x59, 0x00, 0x7f,
  0x3c, 0x00, 0x00, 0x00, 0x00, 0xbc, 0xb6, 0x00, 0x00, 0x00, 0x00, 0xc3,
  0x00, 0x00, 0x41, 0x46, 0x00, 0x00, 0x3d, 0x00, 0x00, 0x5b, 0x00, 0x00,
  0x00, 0x00, 0x00, 0x00, 0xb0, 0x00, 0x00, 0x00, 0x00, 0x57, 0x00, 0x00,
  0x00, 0x00, 0xb9, 0xac, 0x00, 0xb0, 0xba, 0x93, 0x57, 0x00, 0x00, 0x5c,
  0xc7, 0x74, 0x00, 0x00, 0x51, 0x00, 0x00, 0x9d, 0x52, 0x00, 0x00, 0x67,
  0x3c, 0x00, 0x44, 0x00, 0x65, 0x00, 0x47, 0x00, 0x62, 0x00, 0x00, 0x00,
  0x00, 0x3f, 0x00, 0x00, 0x00, 0x00, 0x41, 0x00, 0x3a, 0x00, 0x00, 0x48,
  0x00, 0xb1, 0x00, 0xc3, 0x00, 0x00, 0xaa, 0x00, 0xc6, 0x00, 0xb6, 0x46,
  0x00, 0x00, 0x00, 0x00, 0x68, 0x4d, 0x90, 0x00, 0x25, 0x86, 0x00, 0x00,
  0xa5, 0xbe, 0x27, 0x00, 0x00, 0x81, 0x00, 0x00, 0x00, 0xb5, 0xa8, 0x00,
  0x00, 0x00, 0x3f, 0x25, 0x1e, 0x23, 0x44, 0x23, 0x00, 0xd4, 0x00, 0x00,
  0x00, 0x00, 0xbc, 0x34, 0x56, 0x33, 0x41, 0x49, 0x2c, 0x00, 0x65, 0x00,
  0x00, 0x00, 0x3c, 0x00, 0x4d, 0x26, 0x2d, 0x5d, 0x00, 0xe2, 0x00, 0x00,
  0xc7, 0xd2, 0xdc, 0x00, 0xc1, 0xdc, 0x00, 0x00, 0xcb, 0x00, 0x00, 0x00,
  0x00, 0x00, 0xd7, 0x46, 0xd4, 0x4d, 0x00, 0x00, 0xd0, 0x42, 0x1f, 0x00,
  0x3f, 0x00, 0x00, 0x00, 0x00, 0xdd, 0x00, 0x32, 0x00, 0x60, 0x2b, 0x68,
  0x00, 0x00, 0x00, 0xdb, 0x00, 0xcb, 0x00, 0x00, 0x00, 0x00, 0x00, 0x2b,
  0x00, 0x00, 0x00, 0x00, 0xe2, 0xd4, 0x00, 0x34, 0x00, 0x00, 0xc0, 0x00,
  0x1e, 0x00, 0x00, 0x00, 0x00, 0x23, 0x2e, 0x00, 0x00, 0x00, 0x00, 0x00,
  0x00, 0x00, 0x00, 0x00, 0xd2, 0x00, 0xd5, 0x00, 0x00, 0x00, 0x00, 0x00,
  0x28, 0x00, 0xd5, 0x00, 0x29, 0x00, 0x00, 0xca, 0x5f, 0xb2, 0xd3, 0x6e,
  0x00, 0x00, 0x41, 0x00, 0x00, 0x00, 0x50, 0x00, 0x00, 0xd0, 0xc9, 0x00,
  0x00, 0x00, 0x52, 0x5d, 0x00, 0x00, 0x2f, 0x45, 0x49, 0x00, 0x00, 0x00,
  0x00, 0xc3, 0xc7, 0x52, 0x00, 0x00, 0xd6, 0x7f, 0x00, 0x00, 0x6c, 0x2c,
  0x3e, 0xc3, 0x40, 0x00, 0x2e, 0xd3, 0x00, 0x00, 0xd2, 0x00, 0xc4, 0x00,
  0x00, 0x3b, 0x00, 0x00, 0x00, 0x4c, 0x00, 0xd5, 0xc1, 0xc1, 0x00, 0x00,
  0x00, 0x00, 0x00, 0x00, 0x00, 0x00, 0x00, 0x31, 0xd5, 0x00, 0x00, 0x00,
  0x00, 0x00, 0x00, 0x00, 0xd3, 0x00, 0x00, 0x00, 0x39, 0x00, 0x00, 0x00,
  0x2a, 0x00, 0x00, 0x39, 0x00, 0x00, 0x00, 0x00, 0x00, 0x00, 0x2f, 0x32,
  0x32, 0x00, 0x00, 0xd2, 0x00, 0x00, 0xd1, 0x00, 0x47, 0x00, 0x00, 0x00,
  0x00, 0x00, 0x00, 0x00, 0x00, 0x32, 0x00, 0x00, 0x52, 0x37, 0x00, 0x00,
  0x59, 0x00, 0x00, 0x00, 0xcf, 0x31, 0x31, 0xd2, 0x00, 0x49, 0x40, 0x00,
  0x00, 0x2b, 0xc7, 0x50, 0x3b, 0x00, 0x00, 0xd2, 0xda, 0x31, 0x00, 0xbc,
  0x00, 0xac, 0x00, 0xae, 0x00, 0xbf, 0x00, 0x00, 0x00, 0x00, 0x00, 0x00,
  0x00, 0x30, 0x00, 0xb4, 0x00, 0x00, 0xcd, 0xd8, 0x00, 0xd7, 0x00, 0x00,
  0x00, 0xd1, 0xae, 0x00, 0x00, 0xa1, 0xbe, 0xb9, 0x00, 0x2d, 0x00, 0xc0,
  0xca, 0xa7, 0xcd, 0x00, 0x00, 0x00, 0x00, 0x00, 0x00, 0x00, 0x00, 0x64,
  0x00, 0x00, 0x00, 0x3f, 0x00, 0xd1, 0x42, 0xc6, 0x00, 0x31, 0x00, 0x00,
  0x28, 0x37, 0x00, 0x3d, 0x41, 0x00, 0x29, 0x31, 0x00, 0x00, 0x00, 0x00,
  0x00, 0x00, 0x00, 0x28, 0x00, 0x00, 0x3f, 0x5f, 0x30, 0xc0, 0x46, 0x00,
  0x00, 0xc2, 0x00, 0xc2, 0x5e, 0x00, 0x00, 0x00, 0x00, 0x00, 0x00, 0x00,
  0x00, 0x00, 0x00, 0x00, 0x00, 0x00, 0xcf, 0xb7, 0x00, 0x33, 0x64, 0x30,
  0xc7, 0x00, 0x00, 0x7f, 0x00, 0x58, 0x00, 0x00, 0x00, 0x00, 0x2e, 0x00,
  0xcb, 0x00, 0x6e, 0x00, 0x36, 0x2f, 0x00, 0x44, 0x44, 0x00, 0x56, 0x51,
  0x3f, 0x2e, 0xc9, 0x2d, 0x00, 0x00, 0x00, 0x00, 0x41, 0x00, 0x00, 0x78,
  0x00, 0x00, 0x4f, 0x3a, 0x00, 0x00, 0x69, 0x00, 0x36, 0x00, 0x00, 0x47,
  0xc0, 0x00, 0x63, 0x00, 0x00, 0x00, 0x00, 0xa7, 0x00, 0x3f, 0xb2, 0x43,
  0x00, 0x00, 0x00, 0x00, 0xba, 0x00, 0xb3, 0x00, 0x00, 0x00, 0x00, 0x68,
  0x3e, 0x00, 0xbf, 0x00, 0x00, 0x00, 0x64, 0x00, 0x62, 0x00, 0xc3, 0x00,
  0x7e, 0x00, 0x00, 0x00, 0x00, 0x00, 0x00, 0x00, 0xc1, 0x00, 0x00, 0x00,
  0xcc, 0x3c, 0x00, 0x00, 0x00, 0xb7, 0x00, 0xb9, 0x3f, 0x00, 0x00, 0xce,
  0x48, 0x4c, 0xc2, 0x48, 0x00, 0x46, 0xcb, 0x46, 0x00, 0x00, 0x00, 0x00,
  0x6c, 0x3c, 0x00, 0x9a, 0x7f, 0x00, 0x00, 0x00, 0x4f, 0x46, 0x00, 0x00,
  0x00, 0x00, 0x00, 0x00, 0x00, 0x00, 0x00, 0x00, 0x5f, 0x00, 0x69, 0x38,
  0xb4, 0x00, 0x38, 0x00, 0x00, 0xc7, 0x73, 0x00, 0x00, 0x00, 0xca, 0x00,
  0x00, 0xc2, 0xac, 0xc8, 0x00, 0x00, 0x00, 0x00, 0xb8, 0x37, 0x43, 0x5b,
  0x60, 0x00, 0x00, 0x00, 0x00, 0xc5, 0x00, 0xcd, 0x46, 0xc4, 0x00, 0x56,
  0x3b, 0x4d, 0x00, 0x00, 0x59, 0xb6, 0x36, 0xac, 0x00, 0x00, 0x00, 0x00,
  0x00, 0x00, 0x00, 0x61, 0x42, 0x00, 0x76, 0x5e, 0x00, 0x59, 0x00, 0x33,
  0x00, 0x00, 0xa8, 0x00, 0x00, 0x00, 0x00, 0x00, 0x68, 0x00, 0x00, 0x5a,
  0x00, 0x45, 0x00, 0x48, 0x47, 0x00, 0x00, 0x00, 0x00, 0x00, 0x00, 0x5a,
  0x00, 0x00, 0x00, 0x31, 0x00, 0x00, 0x00, 0x00, 0x00, 0x00, 0x00, 0x00,
  0x00, 0x00, 0xc2, 0x00, 0x00, 0x7f, 0xc3, 0xbf, 0x00, 0x37, 0x00, 0x00,
  0x00, 0x00, 0x00, 0x00, 0x00, 0x6c, 0x00, 0x3a, 0x00, 0x00, 0x00, 0x00,
  0x00, 0x00, 0x00, 0x00, 0x00, 0x37, 0x00, 0x30, 0x00, 0x00, 0x00, 0xad,
  0x00, 0x00, 0x00, 0x00, 0xc9, 0x00, 0x00, 0x00, 0x44, 0x00, 0x00, 0x00,
  0xc1, 0x78, 0x00, 0xbe, 0x00, 0x77, 0x00, 0x3f, 0x00, 0x64, 0xb9, 0x00,
  0x00, 0x00, 0x00, 0x00, 0x00, 0x4d, 0x00, 0x00, 0x3b, 0x4c, 0x31, 0x48,
  0x00, 0x4b, 0x00, 0x49, 0x5e, 0x00, 0x00, 0x00, 0x00, 0x81, 0x00, 0x76,
  0x00, 0x00, 0x55, 0x3a, 0x00, 0xbc, 0x00, 0x44, 0x00, 0xbb, 0x00, 0x00,
  0x4b, 0x00, 0xca, 0x59, 0xb6, 0xbb, 0x42, 0x3d, 0x37, 0x00, 0x00, 0x00,
  0x00, 0x00, 0xc2, 0x00, 0x00, 0x00, 0x00, 0x00, 0x00, 0x00, 0x34, 0xc5,
  0xc5, 0x00, 0x00, 0x00, 0xc9, 0x48, 0x00, 0x40, 0xa7, 0x00, 0x00, 0xc7,
  0x00, 0x62, 0x00, 0x3f, 0x00, 0x00, 0xb9, 0x33, 0x00, 0x00, 0x52, 0x00,
  0x00, 0x00, 0x00, 0x00, 0x00, 0x00, 0xba, 0x63, 0xab, 0x00, 0x00, 0x00,
  0x00, 0x00, 0x00, 0x00, 0xbe, 0x3c, 0x00, 0x00, 0x95, 0x00, 0x00, 0xd0,
  0x00, 0x00, 0x00, 0x58, 0x4a, 0x00, 0x00, 0x00, 0x00, 0x00, 0x00, 0x00,
  0x00, 0xcf, 0x34, 0x00, 0x00, 0x00, 0x00, 0x54, 0x5e, 0x3d, 0x00, 0x39,
  0x00, 0x00, 0x00, 0x00, 0x00, 0x00, 0x00, 0x57, 0x31, 0x35, 0xb8, 0x00,
  0x00, 0x00, 0x00, 0x00, 0xbb, 0x5d, 0x43, 0x00, 0x00, 0x00, 0xcc, 0x00,
  0x00, 0x6c, 0x00, 0x32, 0x00, 0x3e, 0xb6, 0x00, 0x00, 0x00, 0x00, 0x9a,
  0xb0, 0x98, 0x58, 0x00, 0x00, 0x00, 0x5f, 0x00, 0xb0, 0x00, 0x00, 0x00,
  0x75, 0x9c, 0x00, 0x00, 0x00, 0x00, 0x00, 0x58, 0x55, 0x00, 0xa7, 0x00,
  0x00, 0xb0, 0x00, 0x00, 0x9d, 0xa9, 0x00, 0x00, 0x00, 0x00, 0x50, 0x83,
  0x5a, 0x00, 0x00, 0x00, 0x00, 0x00, 0x5d, 0x00, 0x00, 0x00, 0x00, 0x00,
  0x92, 0x00, 0x00, 0x86, 0x91, 0x69, 0x00, 0x00, 0x62, 0x00, 0x00, 0x00,
  0xb1, 0x85, 0x00, 0x00, 0x00, 0x00, 0xae, 0x9d, 0x00, 0x00, 0x00, 0x00,
  0x00, 0x91, 0x00, 0x8f, 0x00, 0x99, 0x8c, 0x00, 0x00, 0x00, 0x00, 0x00,
  0x00, 0x00, 0x93, 0x00, 0x00, 0xa3, 0x00, 0x52, 0x00, 0x00, 0x9f, 0x5e,
  0x00, 0x00, 0x8a, 0x00, 0x00, 0x00, 0x00, 0x00, 0x00, 0x00, 0x00, 0x00,
  0x00, 0x00, 0x00, 0x00, 0x00, 0x00, 0x00, 0x00, 0x00, 0x81, 0x00, 0xa2,
  0x8b, 0x00, 0x00, 0xa3, 0x00, 0x95, 0x65, 0x9c, 0x00, 0x00, 0x00, 0x00,
  0xa5, 0xb2, 0x00, 0x00, 0x00, 0x00, 0x00, 0x00, 0x59, 0xc5, 0x42, 0x00,
  0x00, 0x00, 0x5a, 0x00, 0x00, 0xba, 0x32, 0x00, 0x00, 0x00, 0x2c, 0x00,
  0x00, 0xca, 0x00, 0x7f, 0x00, 0x00, 0x35, 0x00, 0x00, 0x00, 0x00, 0x00,
  0x00, 0x00, 0x00, 0x00, 0x5a, 0x00, 0x47, 0x00, 0x00, 0xd2, 0x00, 0x00,
  0x00, 0x00, 0x3e, 0x00, 0x00, 0x00, 0x00, 0x3d, 0x00, 0xd1, 0xc5, 0x00,
  0xaf, 0x00, 0x00, 0x68, 0x31, 0x00, 0x00, 0x00, 0x88, 0xbc, 0x00, 0xc8,
  0x00, 0x00, 0xc8, 0x00, 0x00, 0x00, 0x00, 0x3d, 0x31, 0x00, 0x47, 0x00,
  0xbc, 0xc5, 0x00, 0x00, 0x40, 0x00, 0xce, 0x00, 0x00, 0x2f, 0x00, 0x00,
  0x00, 0x2f, 0x48, 0x00, 0x00, 0x00, 0x00, 0x00, 0x00, 0xc3, 0x00, 0x00,
  0x44, 0x00, 0x00, 0x00, 0xcf, 0xb8, 0x00, 0x3f, 0x00, 0xc5, 0x46, 0x00,
  0xc1, 0x00, 0x00, 0xac, 0x00, 0x4c, 0x00, 0x00, 0x00, 0xb2, 0x00, 0xd5,
  0xc3, 0x00, 0xc2, 0x00, 0x00, 0xbf, 0x00, 0x48, 0x2e, 0x3e, 0xb7, 0x00,
  0xd4, 0x00, 0x00, 0x00, 0x00, 0xd2, 0xc8, 0x00, 0x00, 0x00, 0x00, 0x8b,
  0x8c, 0x5f, 0x00, 0x00, 0x51, 0x00, 0x00, 0x00, 0x00, 0x00, 0x00, 0x00,
  0x00, 0x00, 0x00, 0x00, 0x00, 0x9f, 0x00, 0x68, 0x00, 0x00, 0x87, 0x00,
  0x00, 0xa1, 0x92, 0x00, 0x00, 0x00, 0x00, 0x86, 0x00, 0xa8, 0x00, 0x61,
  0x00, 0x00, 0x00, 0x00, 0x00, 0x00, 0x00, 0x00, 0x00, 0x00, 0x00, 0x00,
  0x66, 0x00, 0x00, 0x62, 0x00, 0x00, 0xad, 0x85, 0x8c, 0x00, 0xaa, 0x00,
  0x00, 0x00, 0x00, 0x00, 0x62, 0xaf, 0x00, 0x00, 0x00, 0x00, 0x00, 0x00,
  0x82, 0x68, 0x5c, 0x94, 0x54, 0x5b, 0x52, 0x96, 0x00, 0x00, 0x00, 0x00,
  0x8c, 0x00, 0x00, 0x95, 0x81, 0x00, 0x00, 0x84, 0x00, 0x00, 0x00, 0x00,
  0x00, 0x00, 0x95, 0x00, 0xa6, 0x00, 0x00, 0x00, 0x00, 0x00, 0x00, 0x9f,
  0x00, 0x00, 0x99, 0x00, 0x8e, 0x97, 0x00, 0x00, 0x00, 0x00, 0x00, 0x5f,
  0x89, 0x5d, 0x00, 0x00, 0x00, 0x00, 0xa0, 0x00, 0x00, 0x00, 0x00, 0x00,
  0x00, 0xa6, 0x8a, 0x00, 0x00, 0x00, 0x69, 0x00, 0x00, 0x00, 0x3d, 0x66,
  0x00, 0x9f, 0x00, 0x2e, 0x00, 0xa1, 0x51, 0x00, 0x00, 0x00, 0xc7, 0x44,
  0x62, 0x3b, 0x00, 0x00, 0x00, 0x9e, 0x3e, 0x00, 0x41, 0xb8, 0x59, 0xb3,
  0x00, 0x2f, 0xb7, 0x00, 0x4f, 0x00, 0x00, 0x2a, 0x00, 0xba, 0x00, 0xac,
  0x48, 0xb3, 0x00, 0x00, 0x57, 0x3d, 0x38, 0x00, 0x2c, 0x00, 0x37, 0x38,
  0x00, 0x00, 0xc8, 0x00, 0x00, 0x00, 0xc5, 0xc9, 0x00, 0x00, 0x00, 0xce,
  0x00, 0xb0, 0x00, 0x3d, 0x00, 0x41, 0x00, 0x34, 0x00, 0x00, 0xd7, 0x00,
  0x39, 0xb1, 0x45, 0x00, 0x00, 0x9a, 0x00, 0x7f, 0x00, 0x50, 0x00, 0x7a,
  0x4f, 0x00, 0x44, 0x00, 0x00, 0x00, 0x3d, 0x3a, 0xd0, 0x00, 0x00, 0x00,
  0xcf, 0xc8, 0x00, 0xd4, 0x00, 0x00, 0x00, 0x00, 0xc5, 0x00, 0xb9, 0x00,
  0xae, 0xd6, 0xce, 0x98, 0xc2, 0x00, 0x00, 0xd1, 0x00, 0xc5, 0xd4, 0x00,
  0xb0, 0x00, 0x00, 0xd7, 0xb4, 0x00, 0xc4, 0x00, 0x00, 0x4f, 0x00, 0x00,
  0xb5, 0x3e, 0xd5, 0x00, 0x00, 0x00, 0x00, 0x00, 0xd2, 0x00, 0x00, 0x00,
  0x00, 0x00, 0x39, 0x00, 0x00, 0x57, 0x00, 0x00, 0x2e, 0x27, 0x20, 0x00,
  0x00, 0x47, 0x31, 0xca, 0x00, 0xbe, 0x00, 0x20, 0x00, 0x00, 0xda, 0x36,
  0x00, 0x00, 0x00, 0x00, 0xbc, 0x00, 0x21, 0xb6, 0x23, 0xbc, 0xc1, 0xc3,
  0xc8, 0x00, 0xcd, 0x00, 0x00, 0x00, 0x00, 0x00, 0xb2, 0x00, 0x00, 0xdd,
  0xd8, 0x00, 0x00, 0x3d, 0xce, 0x00, 0x00, 0x00, 0x2f, 0x2c, 0x00, 0xde,
  0xdf, 0x00, 0xdd, 0x00, 0xe3, 0xe2, 0x00, 0x00, 0xdd, 0x3b, 0x00, 0x1d,
  0x00, 0x00, 0x00, 0x00, 0x00, 0x2a, 0x00, 0x81, 0x00, 0xca, 0x00, 0x00,
  0x00, 0x25, 0x00, 0x34, 0x00, 0x00, 0xc1, 0x00, 0xda, 0x2c, 0x21, 0x00,
  0x21, 0xcf, 0x3d, 0x00, 0x36, 0x00, 0x00, 0x35, 0x00, 0xd3, 0x00, 0x00,
  0x00, 0x00, 0xda, 0x00, 0x00, 0x00, 0xd9, 0x23, 0xd0, 0xc9, 0x00, 0x37,
  0x30, 0x2d, 0x00, 0x00, 0x3b, 0x43, 0x00, 0x2a, 0x36, 0x00, 0x2c, 0x25,
  0x00, 0x00, 0x27, 0x21, 0x2f, 0x40, 0x00, 0x1f, 0x00, 0xcb, 0x00, 0xb6,
  0x33, 0xcd, 0x00, 0x00, 0xd1, 0x9a, 0x00, 0x00, 0xc7, 0x00, 0x51, 0x00,
  0xb8, 0xd1, 0xc4, 0x00, 0x00, 0x00, 0xcd, 0x00, 0xbd, 0x00, 0x00, 0x00,
  0x00, 0xd2, 0x00, 0x00, 0xc4, 0xd6, 0xb1, 0x00, 0xd3, 0x3b, 0xcd, 0xd1,
  0xa5, 0x00, 0x00, 0x00, 0xbc, 0xc1, 0x00, 0xc0, 0x29, 0x00, 0x00, 0x61,
  0x00, 0x00, 0x34, 0x00, 0x5d, 0xcc, 0x2b, 0x00, 0x32, 0x00, 0x3c, 0x40,
  0x33, 0x00, 0x00, 0x00, 0x38, 0x00, 0x00, 0x00, 0x00, 0x00, 0x00, 0x00,
  0x00, 0x35, 0x3d, 0x00, 0x00, 0xc6, 0x00, 0x89, 0xce, 0x00, 0xc0, 0xa3,
  0x00, 0x00, 0x00, 0xbc, 0x00, 0x00, 0x9d, 0xc3, 0xd1, 0x00, 0x36, 0x7f,
  0x00, 0x3b, 0x00, 0x69, 0x52, 0x2e, 0x37, 0x00, 0x00, 0xcf, 0x3f, 0x00,
  0x00, 0x3f, 0x5c, 0x79, 0x28, 0x48, 0x47, 0x00, 0x00, 0x6e, 0x00, 0x3b,
  0x3d, 0x29, 0x00, 0x00, 0x00, 0x34, 0x00, 0x31, 0x39, 0x00, 0x29, 0x00,
  0x00, 0x3a, 0xd7, 0x00, 0x6e, 0x00, 0x00, 0x25, 0x00, 0x00, 0x00, 0x4e,
  0x00, 0x00, 0x62, 0x00, 0x00, 0x00, 0xc0, 0xb6, 0xb0, 0x00, 0x00, 0x00,
  0x41, 0xb5, 0xac, 0x92, 0x5c, 0xa9, 0x44, 0x00, 0x00, 0x00, 0x00, 0x00,
  0x00, 0x00, 0x00, 0xa6, 0x00, 0x5b, 0x00, 0x00, 0xbe, 0x00, 0x00, 0x00,
  0x00, 0x00, 0x00, 0x7f, 0x00, 0x00, 0x00, 0x00, 0x00, 0xb0, 0x00, 0x00,
  0x40, 0xa0, 0x00, 0x00, 0xab, 0x00, 0x00, 0x5e, 0x00, 0x4f, 0x00, 0x00,
  0xb2, 0x46, 0x00, 0x00, 0x4c, 0xa4, 0x00, 0xa6, 0x00, 0x00, 0x00, 0x94,
  0x00, 0x46, 0x00, 0x00, 0xb8, 0x6f, 0x00, 0x00, 0x44, 0x00, 0xb4, 0x00,
  0x00, 0x00, 0x00, 0x00, 0x00, 0x54, 0x00, 0x42, 0x4c, 0x00, 0x00, 0xbd,
  0x00, 0x68, 0x00, 0x47, 0x00, 0x00, 0x00, 0x00, 0x00, 0x00, 0x00, 0x43,
  0x00, 0x00, 0x00, 0xb9, 0x00, 0x00, 0x6a, 0x51, 0x00, 0x00, 0x00, 0x9e,
  0xba, 0x00, 0x00, 0x00, 0x67, 0x00, 0x00, 0x00, 0x00, 0x00, 0x67, 0x48,
  0x00, 0x62, 0x00, 0x56, 0x00, 0xb3, 0x64, 0xaf, 0x00, 0x00, 0x00, 0xd5,
  0x00, 0x00, 0x00, 0x00, 0x35, 0x50, 0xd3, 0x00, 0x42, 0x2d, 0x56, 0x00,
  0xb8, 0x00, 0x00, 0x00, 0x55, 0x5f, 0x00, 0x00, 0x00, 0x3d, 0x00, 0x00,
  0x41, 0x00, 0x00, 0xcc, 0xd4, 0x33, 0x35, 0xd4, 0x2f, 0x31, 0x00, 0x00,
  0xcf, 0x7f, 0xd2, 0x5f, 0x48, 0x30, 0x2f, 0x00, 0x00, 0x52, 0x00, 0x2a,
  0x4c, 0x2f, 0x00, 0x00, 0x00, 0x3d, 0x00, 0x00, 0x00, 0x00, 0x00, 0x00,
  0x00, 0x3a, 0x00, 0x8f, 0x53, 0x54, 0x2f, 0x00, 0x00, 0x00, 0xd2, 0x00,
  0x41, 0x00, 0x4d, 0xc6, 0x00, 0x56, 0x00, 0xad, 0xce, 0x00, 0x2b, 0x00,
  0x34, 0x31, 0x00, 0x00, 0x3d, 0x00, 0xbf, 0xcd, 0x44, 0x3a, 0xc9, 0x00,
  0x00, 0x5b, 0x45, 0x33, 0x00, 0x00, 0x3a, 0x00, 0x00, 0x2f, 0x00, 0x00,
  0x00, 0x00, 0xc9, 0x00, 0x00, 0x00, 0x00, 0x52, 0x00, 0x00, 0x00, 0x34,
  0x4e, 0x31, 0x00, 0x00, 0x00, 0x42, 0x00, 0x00, 0x00, 0x48, 0x00, 0x57,
  0x00, 0x34, 0x00, 0x2d, 0x00, 0x00, 0x00, 0x00, 0x00, 0x34, 0x00, 0xd7,
  0x00, 0xbd, 0x4c, 0x40, 0x32, 0x00, 0x00, 0x00, 0x00, 0x27, 0x00, 0x36,
  0xd1, 0x00, 0xc8, 0x00, 0x00, 0xaa, 0x00, 0xc6, 0x00, 0x00, 0x00, 0x00,
  0x00, 0x00, 0x2d, 0x00, 0x00, 0x00, 0xce, 0xac, 0xd6, 0xac, 0x81, 0x9f,
  0xd5, 0x00, 0xc3, 0x00, 0x00, 0x00, 0x00, 0xd8, 0xc7, 0x36, 0x00, 0x00,
  0x00, 0x3b, 0xbc, 0x42, 0x2f, 0x69, 0x00, 0x00, 0x00, 0x31, 0xbc, 0x28,
  0xcd, 0x32, 0x2f, 0x00, 0x00, 0x00, 0x00, 0x00, 0x00, 0x00, 0x00, 0x00,
  0xc3, 0x00, 0xc0, 0x00, 0x00, 0x00, 0x00, 0x00, 0x00, 0xa1, 0x00, 0x00,
  0x00, 0x00, 0x00, 0x00, 0x00, 0x00, 0xc2, 0x00, 0x00, 0x00, 0x00, 0x35,
  0x32, 0x2d, 0x57, 0x00, 0x00, 0x00, 0x00, 0x00, 0x00, 0x00, 0x00, 0x00,
  0xd7, 0x00, 0xcf, 0x42, 0x00, 0x39, 0x00, 0x45, 0x00, 0x00, 0x00, 0x00,
  0x00, 0x2d, 0x00, 0x00, 0x00, 0x4b, 0x00, 0x54, 0x00, 0x00, 0x35, 0x00,
  0x00, 0xce, 0x2e, 0x00, 0x00, 0x2f, 0xd0, 0x00, 0x00, 0x00, 0xc0, 0xa5,
  0x00, 0x00, 0xdf, 0xc6, 0xdd, 0xbe, 0x00, 0x00, 0xcd, 0x00, 0x81, 0xbd,
  0x00, 0x2a, 0xd6, 0x00, 0x58, 0x2e, 0x00, 0x00, 0x00, 0xd8, 0x00, 0xe1,
  0x00, 0x28, 0xbf, 0xd8, 0x25, 0x00, 0x00, 0x00, 0x00, 0x32, 0x00, 0x00,
  0x00, 0x2a, 0x00, 0x00, 0x21, 0x00, 0x2c, 0x00, 0x00, 0x00, 0x00, 0x00,
  0x00, 0x24, 0xdb, 0x29, 0xbc, 0xe0, 0xdb, 0x9f, 0x00, 0x25, 0xcc, 0x00,
  0x00, 0x00, 0x00, 0x42, 0x57, 0x00, 0x00, 0x52, 0x24, 0x00, 0x36, 0x00,
  0x00, 0x00, 0x00, 0x00, 0x00, 0x00, 0x2a, 0x3b, 0x00, 0x00, 0x00, 0x62,
  0x2e, 0x00, 0xd8, 0x30, 0x40, 0x00, 0x00, 0x00, 0x3c, 0x3f, 0x00, 0x2f,
  0x00, 0xdb, 0xdf, 0x00, 0x00, 0xbe, 0x2f, 0xa7, 0x00, 0x00, 0x00, 0x37,
  0x22, 0x00, 0x37, 0x53, 0x3e, 0x42, 0x2c, 0x23, 0x2f, 0x00, 0x24, 0xd8,
  0x00, 0x00, 0x25, 0x00, 0x00, 0x00, 0x24, 0x75, 0x4c, 0x36, 0x44, 0x31,
  0x00, 0x53, 0x00, 0x21, 0x45, 0x34, 0x6d, 0x00, 0x00, 0x00, 0x5b, 0xb1,
  0x00, 0x9a, 0x5c, 0x00, 0x54, 0x00, 0x00, 0x00, 0x00, 0x00, 0xa9, 0xa3,
  0x00, 0x00, 0x00, 0xaa, 0x00, 0x00, 0x00, 0x00, 0x00, 0x00, 0x68, 0xa0,
  0xae, 0x00, 0x00, 0x8c, 0x00, 0x98, 0x00, 0x00, 0x6a, 0x00, 0x00, 0x00,
  0x00, 0x00, 0x9b, 0x00, 0x5d, 0x00, 0xa7, 0x00, 0x00, 0x00, 0x00, 0xad,
  0x00, 0x00, 0x00, 0xb0, 0x53, 0x00, 0x00, 0x9e, 0xa5, 0x00, 0x00, 0x00,
  0x00, 0x61, 0x00, 0x00, 0x00, 0x00, 0x00, 0x00, 0x92, 0x59, 0x00, 0x00,
  0x00, 0x5d, 0x00, 0x00, 0x00, 0x00, 0x00, 0x00, 0x9e, 0x00, 0x9c, 0x00,
  0xab, 0x00, 0x00, 0x00, 0x00, 0x00, 0x79, 0x00, 0x00, 0x64, 0x00, 0x9a,
  0x00, 0x00, 0x00, 0x00, 0x57, 0xb3, 0xa9, 0x6a, 0x00, 0x00, 0x00, 0xab,
  0x98, 0x4d, 0xa8, 0x4f, 0x00, 0x00, 0x8a, 0x00, 0x9b, 0x00, 0x00, 0x00,
  0xb4, 0x8f, 0x00, 0x8c, 0x00, 0x00, 0x00, 0x00, 0x00, 0x56, 0xa0, 0xb0,
  0x00, 0x00, 0x00, 0xae, 0x60, 0x81, 0x00, 0x95, 0x00, 0x3e, 0x28, 0x49,
  0xcf, 0x00, 0x00, 0xba, 0x36, 0xa8, 0x00, 0x00, 0x29, 0x00, 0x00, 0x00,
  0x34, 0x00, 0x00, 0x00, 0xcd, 0xa8, 0x00, 0x00, 0x00, 0xbc, 0x00, 0x48,
  0x00, 0x00, 0x00, 0x00, 0x48, 0xc7, 0x28, 0x5b, 0x00, 0xd8, 0x45, 0x00,
  0x00, 0xaf, 0x00, 0x00, 0x00, 0x00, 0xbb, 0x46, 0x00, 0x00, 0x00, 0x00,
  0x26, 0x3d, 0x00, 0x4e, 0xcb, 0x00, 0x00, 0x00, 0xce, 0xd4, 0x52, 0x00,
  0xd4, 0x00, 0x35, 0x31, 0xa9, 0x46, 0x00, 0x2e, 0x00, 0x00, 0x33, 0x00,
  0x00, 0x00, 0x00, 0x00, 0x00, 0xbf, 0x00, 0x7f, 0x00, 0x00, 0x00, 0x2e,
  0x00, 0x00, 0x00, 0x00, 0x00, 0x00, 0xd7, 0x00, 0x00, 0xd4, 0x30, 0x00,
  0xd7, 0xd0, 0x00, 0x00, 0xd9, 0x00, 0x00, 0x43, 0x00, 0xcc, 0x00, 0xd9,
  0x00, 0x00, 0x00, 0xa6, 0x00, 0x00, 0xc6, 0x00, 0x00, 0x00, 0xba, 0xda,
  0x00, 0xc9, 0xa9, 0x00, 0xbf, 0x00, 0xd6, 0x00, 0xd2, 0x00, 0x00, 0x00,
  0xc8, 0x3b, 0x00, 0x45, 0x00, 0x00, 0x00, 0x00, 0x7e, 0xed, 0xff, 0xff,
  0x04, 0x00, 0x00, 0x00, 0x80, 0x00, 0x00, 0x00, 0x08, 0xfe, 0xff, 0xff,
  0x01, 0x00, 0x00, 0x00, 0x86, 0x00, 0x00, 0x00, 0xf7, 0xfc, 0xff, 0xff,
  0x3e, 0xfe, 0xff, 0xff, 0xeb, 0xff, 0xff, 0xff, 0xb5, 0x00, 0x00, 0x00,
  0x5e, 0x03, 0x00, 0x00, 0x00, 0x02, 0x00, 0x00, 0x8b, 0xff, 0xff, 0xff,
  0xa5, 0x03, 0x00, 0x00, 0x24, 0x01, 0x00, 0x00, 0xcd, 0xff, 0xff, 0xff,
  0x5d, 0x02, 0x00, 0x00, 0x90, 0xff, 0xff, 0xff, 0x7a, 0x00, 0x00, 0x00,
  0x93, 0xfd, 0xff, 0xff, 0x6d, 0xfd, 0xff, 0xff, 0x71, 0xfb, 0xff, 0xff,
  0x4c, 0x03, 0x00, 0x00, 0x21, 0xfb, 0xff, 0xff, 0xa6, 0xfd, 0xff, 0xff,
  0x50, 0xfb, 0xff, 0xff, 0x44, 0x03, 0x00, 0x00, 0xdb, 0xff, 0xff, 0xff,
  0xd9, 0x02, 0x00, 0x00, 0xcb, 0xfd, 0xff, 0xff, 0x24, 0x00, 0x00, 0x00,
  0x32, 0xfd, 0xff, 0xff, 0x2c, 0xff, 0xff, 0xff, 0xab, 0xfc, 0xff, 0xff,
  0x4e, 0xff, 0xff, 0xff, 0x0a, 0xee, 0xff, 0xff, 0x04, 0x00, 0x00, 0x00,
  0x00, 0x10, 0x00, 0x00, 0xa6, 0x00, 0x81, 0x00, 0x68, 0x00, 0x64, 0x3f,
  0x3b, 0x4d, 0x6a, 0x00, 0x00, 0x00, 0x43, 0x00, 0x00, 0x00, 0x00, 0x00,
  0xbd, 0x47, 0xc1, 0x00, 0x38, 0x00, 0x00, 0xc2, 0x00, 0x00, 0xb1, 0xc6,
  0x57, 0x00, 0xbb, 0x41, 0x9b, 0x00, 0xc7, 0x00, 0x74, 0x64, 0x00, 0x6c,
  0x00, 0x4c, 0x00, 0x44, 0x00, 0x00, 0x4b, 0x00, 0x52, 0x4e, 0xb2, 0x4f,
  0xa8, 0x00, 0x00, 0x3a, 0xa1, 0x00, 0x3d, 0x38, 0xb6, 0x3a, 0x00, 0x59,
  0x00, 0xac, 0x00, 0x00, 0xc1, 0xa9, 0xa0, 0x39, 0x00, 0x00, 0x00, 0x00,
  0x00, 0x5e, 0x00, 0x00, 0x00, 0x00, 0x00, 0x00, 0x5d, 0x00, 0x00, 0x56,
  0x00, 0x00, 0x00, 0x00, 0x00, 0x00, 0x00, 0x00, 0x00, 0x98, 0x5e, 0x00,
  0xc8, 0x00, 0x00, 0x00, 0x00, 0x00, 0x3a, 0x00, 0x00, 0xbf, 0x00, 0x00,
  0x00, 0x9f, 0x00, 0x00, 0x38, 0xc5, 0x00, 0x00, 0xb2, 0x00, 0x41, 0xba,
  0x00, 0x00, 0xa9, 0x5c, 0x00, 0x00, 0x00, 0x97, 0x00, 0x00, 0x00, 0x00,
  0x00, 0x00, 0x00, 0x00, 0x00, 0x00, 0x00, 0x00, 0x73, 0x9c, 0x61, 0x85,
  0x00, 0x00, 0x00, 0x00, 0x00, 0x00, 0x59, 0x9e, 0x00, 0x8c, 0x56, 0x00,
  0x58, 0x00, 0x9b, 0x9f, 0xa9, 0x00, 0x00, 0xa9, 0x7b, 0x54, 0x00, 0x00,
  0x94, 0x00, 0x00, 0x8e, 0x00, 0x00, 0x00, 0x5e, 0x00, 0x8d, 0xa8, 0x74,
  0x00, 0x00, 0x00, 0x57, 0x00, 0x68, 0x93, 0x00, 0x00, 0x00, 0x62, 0x00,
  0x00, 0x00, 0x00, 0x6a, 0x00, 0x00, 0x81, 0x00, 0x00, 0x00, 0x00, 0x00,
  0x58, 0x9f, 0x6e, 0x00, 0x55, 0x00, 0x00, 0x00, 0x00, 0x88, 0x9e, 0x00,
  0x54, 0x00, 0x00, 0xa1, 0x00, 0x00, 0x00, 0x00, 0x00, 0x00, 0x00, 0x00,
  0x00, 0x00, 0xa7, 0x00, 0x81, 0x00, 0x00, 0x00, 0x00, 0x00, 0x00, 0x00,
  0x51, 0xa4, 0x00, 0x00, 0x00, 0x00, 0x00, 0x00, 0x00, 0x00, 0x00, 0x00,
  0x00, 0x00, 0x00, 0x00, 0x00, 0x00, 0xb4, 0x00, 0xb3, 0xa9, 0x35, 0x00,
  0x00, 0xbb, 0x00, 0x00, 0x47, 0x00, 0x00, 0x35, 0x00, 0x00, 0x51, 0x00,
  0x00, 0xb7, 0xb0, 0x00, 0x00, 0x00, 0x5b, 0x00, 0x47, 0x00, 0x00, 0x00,
  0xc6, 0x00, 0xa2, 0x00, 0x00, 0xc7, 0x00, 0xcb, 0x7f, 0x4d, 0x00, 0xbd,
  0x00, 0x00, 0x00, 0x71, 0x00, 0x6d, 0x00, 0x00, 0x00, 0x58, 0x41, 0x00,
  0x00, 0xbf, 0x00, 0x38, 0x00, 0x4c, 0x00, 0xbd, 0x00, 0x3e, 0x00, 0x00,
  0xc2, 0xc0, 0x44, 0x00, 0x00, 0xc0, 0xae, 0x00, 0x3a, 0x00, 0x4e, 0xbe,
  0x00, 0xa4, 0x00, 0x00, 0xb4, 0x00, 0x3d, 0xba, 0x00, 0x00, 0x00, 0x49,
  0x63, 0x4f, 0xaf, 0x00, 0x00, 0x6d, 0x00, 0x40, 0x00, 0x5d, 0xc9, 0x00,
  0x00, 0x54, 0x4d, 0x00, 0x44, 0x00, 0xcc, 0x00, 0x00, 0x00, 0xc1, 0x3d,
  0x00, 0xae, 0x00, 0x3f, 0xd4, 0x00, 0x00, 0xd3, 0x00, 0x3b, 0x00, 0x00,
  0x00, 0x47, 0x7f, 0x48, 0x00, 0x00, 0x42, 0x00, 0x00, 0x00, 0x00, 0x00,
  0x3c, 0xcd, 0x37, 0x00, 0xca, 0x00, 0xbd, 0x00, 0x00, 0x00, 0x00, 0x3f,
  0xd4, 0xc9, 0x00, 0xc7, 0x00, 0x00, 0x00, 0x42, 0x4a, 0x00, 0x42, 0x3e,
  0x00, 0x00, 0x00, 0x77, 0xc5, 0x00, 0x4a, 0x00, 0x00, 0x3c, 0xd0, 0x29,
  0xb9, 0x00, 0x00, 0x00, 0xcc, 0x00, 0x00, 0x00, 0xd3, 0x00, 0x00, 0x00,
  0x00, 0x37, 0x00, 0x00, 0xbd, 0x00, 0x00, 0x00, 0x28, 0x40, 0xc0, 0x00,
  0x00, 0x00, 0x00, 0x00, 0x00, 0x00, 0x32, 0x00, 0x32, 0x4c, 0x00, 0x2a,
  0x4c, 0x00, 0x2d, 0x00, 0x33, 0xcf, 0x00, 0xc7, 0xd7, 0x00, 0x4f, 0x64,
  0x00, 0x00, 0xd6, 0xc7, 0x43, 0x00, 0x00, 0xbe, 0x00, 0xab, 0xce, 0x00,
  0x00, 0xbc, 0x00, 0x00, 0x41, 0x00, 0x00, 0x28, 0x2a, 0x42, 0x00, 0x00,
  0x77, 0x00, 0x00, 0x51, 0x00, 0x00, 0x00, 0x00, 0x00, 0x00, 0xbf, 0x00,
  0x72, 0x00, 0x3e, 0x00, 0x00, 0x70, 0x70, 0x00, 0x00, 0x00, 0x61, 0x00,
  0x00, 0x70, 0x73, 0x62, 0x00, 0x00, 0x00, 0x00, 0x00, 0x00, 0x00, 0xb6,
  0x43, 0xa0, 0x00, 0x00, 0x81, 0x90, 0xb9, 0x00, 0x00, 0x00, 0x81, 0x00,
  0x00, 0x00, 0x00, 0x9c, 0x47, 0xbf, 0x5b, 0x00, 0x00, 0x87, 0x00, 0x00,
  0x00, 0x8a, 0x9e, 0xb6, 0x00, 0x00, 0xbc, 0x00, 0x00, 0x70, 0x00, 0x68,
  0x00, 0x57, 0x00, 0x00, 0x00, 0x00, 0x4b, 0xba, 0x56, 0x47, 0x00, 0x00,
  0xbc, 0x00, 0xa9, 0x5d, 0x00, 0x00, 0xa9, 0x73, 0x5d, 0x60, 0x5e, 0x9e,
  0x00, 0x00, 0x00, 0x00, 0x00, 0x00, 0x00, 0x93, 0x00, 0x00, 0x00, 0xb2,
  0xb4, 0x00, 0x4b, 0xb6, 0x00, 0x91, 0x00, 0x00, 0x00, 0xbd, 0x00, 0x00,
  0x00, 0x00, 0x00, 0x4d, 0x00, 0x46, 0x00, 0x3f, 0x52, 0x00, 0x00, 0x00,
  0x00, 0x00, 0x00, 0xa1, 0x00, 0x00, 0x00, 0x00, 0x56, 0x00, 0xab, 0x00,
  0x59, 0x55, 0x00, 0x99, 0x00, 0x00, 0x00, 0xaa, 0x9c, 0x00, 0x00, 0x00,
  0x00, 0x81, 0x63, 0x00, 0x00, 0x00, 0x00, 0x00, 0x00, 0x00, 0x00, 0x94,
  0x89, 0x00, 0x00, 0x00, 0x00, 0x56, 0x00, 0x00, 0x6b, 0x00, 0x00, 0x00,
  0x00, 0x00, 0xa3, 0x00, 0x94, 0x00, 0x00, 0x90, 0x00, 0x00, 0x00, 0x00,
  0x00, 0x00, 0x00, 0x00, 0x66, 0x00, 0x58, 0x00, 0x63, 0x00, 0x00, 0x00,
  0x8c, 0x00, 0x00, 0x00, 0x00, 0x00, 0x00, 0x00, 0x00, 0x00, 0x00, 0xa3,
  0x00, 0x00, 0x00, 0x00, 0xab, 0x00, 0x95, 0x00, 0x00, 0x8f, 0xa1, 0xab,
  0x00, 0x00, 0x94, 0x00, 0x92, 0x00, 0x99, 0x00, 0x76, 0x00, 0x00, 0x77,
  0x78, 0x00, 0xaa, 0x96, 0x00, 0x00, 0x00, 0x00, 0x78, 0x82, 0x00, 0xab,
  0xa1, 0x00, 0x00, 0x6c, 0x5d, 0x00, 0x74, 0x4f, 0x3a, 0x37, 0x00, 0x00,
  0xcf, 0x00, 0x00, 0x00, 0xcb, 0x00, 0xc4, 0xba, 0x00, 0x00, 0x38, 0x50,
  0x00, 0x00, 0xcf, 0xa5, 0xc3, 0x48, 0x46, 0x57, 0x00, 0x00, 0x00, 0x00,
  0xb4, 0x00, 0x00, 0x4e, 0x49, 0x00, 0x63, 0x00, 0xb6, 0x00, 0x00, 0xad,
  0x33, 0x00, 0xcc, 0xb4, 0x00, 0x3f, 0x00, 0x00, 0x00, 0x00, 0x00, 0x81,
  0x00, 0xb6, 0x35, 0x51, 0x00, 0xb7, 0x00, 0xcd, 0x00, 0x4b, 0x00, 0x00,
  0x00, 0x35, 0x00, 0x00, 0x00, 0x00, 0x43, 0x00, 0x00, 0x00, 0x63, 0x00,
  0x3d, 0x00, 0x00, 0x00, 0xb8, 0x00, 0x00, 0x00, 0xbb, 0x00, 0x00, 0x00,
  0x00, 0x00, 0x3e, 0xc7, 0x41, 0x34, 0x00, 0x00, 0x00, 0x4c, 0xc8, 0xbd,
  0x00, 0x3f, 0x00, 0x00, 0x00, 0x3a, 0x00, 0xc7, 0x00, 0xc4, 0x00, 0x00,
  0x00, 0x00, 0x00, 0x00, 0x00, 0x00, 0x00, 0xbd, 0xbb, 0xc2, 0x00, 0x00,
  0x00, 0x00, 0x00, 0xb7, 0x00, 0x00, 0x00, 0x3c, 0x00, 0xac, 0xbe, 0x00,
  0x00, 0xc5, 0xc3, 0x9c, 0x00, 0x00, 0x44, 0x50, 0x00, 0xc4, 0xb4, 0x00,
  0x49, 0x37, 0x58, 0x00, 0x00, 0x00, 0xbe, 0x00, 0x00, 0x35, 0x3a, 0x4d,
  0x4d, 0x00, 0x00, 0x81, 0xb7, 0x00, 0x99, 0xbc, 0x00, 0xbe, 0xac, 0x8c,
  0x00, 0x52, 0x41, 0x00, 0x00, 0xab, 0xc5, 0x00, 0x00, 0x00, 0x36, 0x41,
  0x34, 0x46, 0x00, 0x3f, 0x00, 0x00, 0x00, 0x00, 0xa5, 0x00, 0xb0, 0xc2,
  0x34, 0x4f, 0x00, 0x00, 0xc0, 0x00, 0x48, 0x00, 0x00, 0xbc, 0xc7, 0x00,
  0x00, 0xc8, 0x00, 0x00, 0xac, 0xa2, 0x00, 0x00, 0x00, 0x53, 0xc6, 0x00,
  0x00, 0x48, 0x00, 0x00, 0x5e, 0x43, 0x90, 0xb6, 0x47, 0x00, 0x43, 0x62,
  0xac, 0x00, 0x00, 0x66, 0xa5, 0x4e, 0x00, 0xbc, 0x00, 0x00, 0x4e, 0x00,
  0x00, 0x00, 0x00, 0x00, 0x00, 0xab, 0x00, 0x51, 0x00, 0x00, 0x97, 0x53,
  0x00, 0x00, 0xaf, 0x64, 0x00, 0x7f, 0x6c, 0x00, 0x00, 0x62, 0x00, 0x6b,
  0x57, 0x66, 0x8a, 0x5a, 0x95, 0x00, 0x00, 0x62, 0x00, 0xa5, 0x00, 0x00,
  0x00, 0x00, 0x00, 0xaf, 0x00, 0x00, 0x58, 0x00, 0x73, 0x00, 0x00, 0x00,
  0x55, 0x00, 0x98, 0x00, 0x00, 0x00, 0x94, 0x00, 0x00, 0x00, 0x00, 0x00,
  0x00, 0xa3, 0x00, 0x70, 0x00, 0x00, 0x00, 0x00, 0x00, 0xad, 0x6a, 0x00,
  0x00, 0x65, 0x00, 0x00, 0x00, 0x00, 0x00, 0x00, 0x5a, 0x64, 0x65, 0x00,
  0x00, 0x00, 0x00, 0x00, 0x00, 0x00, 0x00, 0x00, 0x00, 0x00, 0x00, 0x00,
  0x00, 0x00, 0x00, 0x00, 0xad, 0x00, 0x00, 0x00, 0x00, 0x00, 0x00, 0x00,
  0x00, 0x00, 0x53, 0x00, 0x00, 0x00, 0x95, 0xaa, 0x00, 0xb2, 0x00, 0x00,
  0x00, 0x70, 0x00, 0x4e, 0x00, 0x00, 0x00, 0x00, 0x00, 0x00, 0x00, 0x56,
  0x00, 0x00, 0x62, 0x00, 0x58, 0xc6, 0x7b, 0x53, 0xc8, 0x00, 0xb1, 0x00,
  0x00, 0x00, 0x00, 0x35, 0x00, 0x00, 0xa5, 0x00, 0xc0, 0x00, 0x00, 0x00,
  0x00, 0xc7, 0x00, 0x99, 0x00, 0x00, 0x4a, 0x6e, 0x00, 0x00, 0x00, 0x00,
  0xc7, 0x45, 0x00, 0xc9, 0x00, 0x00, 0x00, 0xbf, 0xbb, 0x00, 0x00, 0x00,
  0x00, 0x00, 0xb2, 0xbe, 0xb1, 0x00, 0x00, 0x36, 0x00, 0xb9, 0x00, 0x00,
  0x7f, 0xb7, 0x3e, 0x36, 0x42, 0xb4, 0xc3, 0x9f, 0x56, 0x38, 0x00, 0x00,
  0x00, 0x37, 0x00, 0x40, 0x00, 0x00, 0x00, 0x49, 0x00, 0xce, 0x3c, 0x00,
  0xc5, 0x00, 0x00, 0x00, 0x00, 0x42, 0x00, 0x00, 0x00, 0x00, 0x00, 0x00,
  0x00, 0x00, 0x00, 0x00, 0x00, 0x00, 0x00, 0x00, 0x00, 0x54, 0x00, 0xc1,
  0x55, 0x00, 0x4c, 0xcf, 0xca, 0x00, 0x41, 0x00, 0xb1, 0x00, 0x00, 0x00,
  0xcb, 0x30, 0x39, 0xd0, 0x00, 0x00, 0x00, 0x00, 0x00, 0x00, 0x00, 0x00,
  0x00, 0x00, 0x83, 0xc6, 0x51, 0x00, 0x00, 0x54, 0x71, 0x00, 0x00, 0x00,
  0xb3, 0x00, 0x00, 0x00, 0xb8, 0x00, 0xa3, 0x00, 0x00, 0x00, 0xbc, 0x7f,
  0x00, 0x00, 0x00, 0x00, 0x00, 0x38, 0x00, 0x00, 0x46, 0x00, 0x00, 0x00,
  0xc1, 0x57, 0x00, 0x4b, 0x00, 0x00, 0x00, 0x00, 0x50, 0x39, 0x6b, 0x00,
  0x64, 0x00, 0x00, 0x00, 0x00, 0x00, 0x00, 0x79, 0xc6, 0x00, 0x54, 0xac,
  0x00, 0x00, 0x00, 0x65, 0xc2, 0xa8, 0x00, 0xb9, 0x00, 0x00, 0x00, 0x8d,
  0x00, 0x00, 0x00, 0xab, 0x00, 0xbb, 0xc0, 0x3e, 0x00, 0x00, 0x00, 0x49,
  0x00, 0x00, 0xad, 0x00, 0x00, 0x3c, 0x00, 0x3e, 0x00, 0x00, 0x00, 0x3d,
  0x00, 0x00, 0x5f, 0xb5, 0xc7, 0xad, 0xb8, 0x5b, 0x00, 0xbc, 0x00, 0x00,
  0x00, 0x00, 0xad, 0xc1, 0x3e, 0x00, 0x00, 0x00, 0x00, 0xc6, 0xad, 0x3d,
  0xc6, 0x00, 0x60, 0x00, 0x37, 0x00, 0x00, 0x00, 0xc2, 0x33, 0x00, 0x00,
  0x00, 0x00, 0x00, 0x68, 0x00, 0x00, 0xc1, 0xa5, 0x4f, 0x00, 0x00, 0x96,
  0xc1, 0x00, 0x00, 0x00, 0x00, 0x00, 0x36, 0x00, 0x00, 0x41, 0x00, 0x00,
  0x00, 0x00, 0x3f, 0x9c, 0x00, 0x00, 0x00, 0x00, 0x00, 0xbc, 0x00, 0xa9,
  0x00, 0xb5, 0x00, 0x00, 0x42, 0x00, 0x00, 0x81, 0x6a, 0x00, 0x00, 0x85,
  0x00, 0x41, 0x00, 0xaa, 0x00, 0x00, 0x00, 0x00, 0x00, 0x00, 0x00, 0x00,
  0x3a, 0x36, 0x00, 0xc8, 0x00, 0x4b, 0x00, 0x00, 0x00, 0x00, 0x00, 0xcc,
  0xcb, 0xa3, 0x58, 0x4e, 0x00, 0x00, 0x00, 0xab, 0xcc, 0x00, 0x00, 0x5a,
  0x00, 0x00, 0x00, 0x00, 0xcb, 0x38, 0x00, 0x00, 0x00, 0x00, 0xc8, 0x00,
  0x51, 0x44, 0x00, 0x00, 0x00, 0x00, 0x4e, 0x00, 0xb0, 0x00, 0x00, 0x00,
  0x00, 0x4d, 0x00, 0x00, 0x42, 0x35, 0x00, 0x00, 0xa8, 0xc5, 0x00, 0x00,
  0x38, 0x00, 0x00, 0x45, 0xbd, 0xc9, 0xc8, 0x00, 0x00, 0x00, 0x00, 0x3e,
  0x00, 0x00, 0x00, 0x49, 0xc1, 0x00, 0x00, 0x53, 0x00, 0xc1, 0x00, 0x49,
  0xc6, 0x00, 0x31, 0x53, 0x38, 0x00, 0xb1, 0x88, 0x00, 0x3b, 0x00, 0x00,
  0x56, 0x4c, 0x00, 0xb6, 0x00, 0x00, 0x00, 0x00, 0x5c, 0x00, 0x00, 0x32,
  0x00, 0x4d, 0x37, 0x00, 0x00, 0x00, 0x00, 0x4f, 0x00, 0x44, 0x4d, 0x00,
  0xb0, 0x7f, 0x00, 0x00, 0x00, 0x5c, 0xbe, 0x55, 0xaa, 0xbf, 0x00, 0x00,
  0x00, 0x00, 0x00, 0xba, 0x00, 0x00, 0x37, 0x00, 0x00, 0xbb, 0xa8, 0x00,
  0x58, 0x00, 0x00, 0x00, 0x00, 0x00, 0x41, 0x00, 0x00, 0x00, 0x00, 0xbd,
  0x53, 0x00, 0x00, 0x3c, 0x37, 0x00, 0x00, 0x00, 0x00, 0x00, 0x00, 0x00,
  0xab, 0x00, 0x00, 0x00, 0x44, 0xae, 0x00, 0xb2, 0x00, 0x3f, 0x00, 0x39,
  0x00, 0x00, 0x00, 0x00, 0x00, 0x00, 0x00, 0xc4, 0xc0, 0x00, 0xc0, 0xc1,
  0xa0, 0x00, 0x00, 0xad, 0x81, 0xad, 0x93, 0xa8, 0x00, 0x00, 0x00, 0x00,
  0x00, 0x00, 0x96, 0x9e, 0xa9, 0x00, 0x00, 0x95, 0xb0, 0x00, 0x00, 0x00,
  0x00, 0x00, 0x00, 0xab, 0x00, 0x52, 0x00, 0x90, 0x00, 0xa5, 0x00, 0x00,
  0x00, 0x00, 0x00, 0x00, 0x00, 0x00, 0x5a, 0x70, 0x00, 0xae, 0x00, 0x00,
  0x00, 0x00, 0xa3, 0x00, 0x00, 0x00, 0x54, 0x00, 0x00, 0x82, 0x63, 0x00,
  0x5b, 0x00, 0x7c, 0x00, 0x00, 0x5d, 0x00, 0x66, 0x67, 0x9c, 0x00, 0x50,
  0x00, 0x00, 0x77, 0x00, 0x73, 0x00, 0x85, 0x8b, 0x5b, 0xb0, 0x00, 0x59,
  0x57, 0x00, 0x00, 0x00, 0x00, 0x7a, 0x00, 0x00, 0x00, 0x00, 0x00, 0x53,
  0x00, 0x00, 0x59, 0x00, 0x00, 0x00, 0x00, 0x00, 0x00, 0x00, 0x00, 0x00,
  0x00, 0x00, 0x59, 0x93, 0x7e, 0x00, 0x82, 0x00, 0x00, 0x00, 0x00, 0x00,
  0x00, 0x00, 0x8e, 0x00, 0x50, 0x00, 0x6a, 0x00, 0x00, 0x00, 0x00, 0xc9,
  0xda, 0x31, 0x00, 0x00, 0x00, 0x00, 0x00, 0x00, 0x00, 0x00, 0x00, 0x00,
  0xd3, 0x00, 0x00, 0x00, 0x2d, 0x26, 0x00, 0x00, 0x00, 0x00, 0xce, 0x00,
  0x00, 0x00, 0x00, 0x00, 0x3f, 0xd0, 0x3b, 0x00, 0x27, 0x00, 0x00, 0x00,
  0x00, 0x00, 0x00, 0xd3, 0x00, 0x26, 0x5a, 0x38, 0x7f, 0x00, 0x00, 0xd2,
  0x29, 0x00, 0x00, 0x00, 0xb7, 0x39, 0x00, 0x00, 0x00, 0x56, 0xc8, 0x5a,
  0xc4, 0x00, 0xb4, 0x2b, 0x00, 0xc3, 0x37, 0x00, 0x00, 0x2e, 0x00, 0x00,
  0x00, 0xd9, 0x00, 0x00, 0x00, 0x00, 0xd4, 0x00, 0x29, 0x00, 0xc8, 0xbf,
  0x2b, 0xae, 0x00, 0xd9, 0xcc, 0x00, 0xd1, 0x35, 0x00, 0x3e, 0xcd, 0x31,
  0x00, 0x40, 0xd9, 0x30, 0x00, 0x6e, 0x5c, 0x00, 0x00, 0x00, 0x00, 0x00,
  0x2a, 0x59, 0x00, 0x00, 0x00, 0x00, 0x00, 0x00, 0x00, 0x00, 0x00, 0x29,
  0x00, 0xd7, 0xcb, 0x36, 0xcc, 0xc4, 0x00, 0x00, 0x00, 0x00, 0x55, 0xd5,
  0x00, 0x00, 0x00, 0x00, 0x28, 0x00, 0x2a, 0x48, 0x00, 0x00, 0x00, 0x3a,
  0x00, 0xd4, 0x00, 0x00, 0x00, 0x00, 0x00, 0x9b, 0x32, 0x00, 0x00, 0x00,
  0x00, 0x30, 0x30, 0x00, 0x00, 0x00, 0x00, 0x2b, 0x73, 0x56, 0x2c, 0x00,
  0x00, 0x00, 0x00, 0x2e, 0x76, 0xd7, 0x40, 0x36, 0xcd, 0x00, 0x00, 0x7f,
  0xb6, 0x35, 0x00, 0x00, 0x00, 0x00, 0x00, 0x00, 0x00, 0xb9, 0x00, 0x27,
  0x00, 0x00, 0x39, 0x00, 0x00, 0x00, 0x00, 0xb3, 0x00, 0x00, 0x00, 0xb8,
  0x00, 0x26, 0x00, 0x00, 0x38, 0x2d, 0x35, 0x00, 0x29, 0x00, 0x34, 0x00,
  0x00, 0xce, 0x00, 0xbc, 0xcb, 0x00, 0x00, 0x00, 0x41, 0xc7, 0xd1, 0x00,
  0xc7, 0x00, 0x00, 0x43, 0xc4, 0x00, 0xd0, 0x00, 0x00, 0x45, 0x00, 0x3c,
  0x00, 0xd7, 0x00, 0x00, 0x00, 0x00, 0x00, 0x00, 0x00, 0x00, 0x00, 0xbe,
  0x00, 0x00, 0x00, 0x00, 0x9c, 0x00, 0x72, 0x00, 0x00, 0x00, 0xa9, 0xb0,
  0x00, 0x00, 0x00, 0x88, 0x51, 0x81, 0x91, 0xae, 0x76, 0x51, 0xa0, 0x00,
  0x00, 0x00, 0x00, 0x00, 0x00, 0x94, 0x00, 0x00, 0x00, 0x00, 0x9a, 0xaf,
  0x66, 0x98, 0x00, 0xa0, 0x00, 0x00, 0x00, 0x00, 0x00, 0x00, 0x00, 0x97,
  0x00, 0x58, 0x00, 0x00, 0x00, 0x00, 0x5c, 0x00, 0x95, 0x9f, 0x53, 0x00,
  0x00, 0x00, 0x00, 0x00, 0x98, 0x64, 0x00, 0x00, 0x4c, 0x00, 0x00, 0x95,
  0x93, 0x4e, 0x00, 0x00, 0x00, 0x00, 0xa9, 0xb2, 0xa4, 0x00, 0x00, 0x00,
  0x00, 0x00, 0x00, 0x00, 0x71, 0x4c, 0x00, 0x00, 0x98, 0x00, 0xaa, 0x92,
  0x00, 0x00, 0x9f, 0x00, 0xb0, 0x00, 0x00, 0x8d, 0x00, 0x96, 0x00, 0x00,
  0x00, 0x9c, 0x00, 0x63, 0xa4, 0xa3, 0x00, 0x00, 0xb1, 0x00, 0x00, 0xa7,
  0x00, 0x57, 0xa0, 0x00, 0x00, 0x00, 0x86, 0x90, 0x00, 0x00, 0x5e, 0x36,
  0xcf, 0x00, 0x00, 0x00, 0x40, 0x00, 0xcb, 0x00, 0x00, 0x00, 0x00, 0xb1,
  0x00, 0x00, 0x33, 0x00, 0xca, 0x00, 0x4c, 0x00, 0x5e, 0x43, 0x00, 0x52,
  0x00, 0x46, 0x00, 0x00, 0x00, 0x00, 0x00, 0xc7, 0x00, 0xbf, 0x00, 0x00,
  0xc8, 0x00, 0xcd, 0x00, 0xcb, 0x00, 0xa0, 0xbb, 0x00, 0x00, 0xa7, 0x8f,
  0x39, 0x00, 0xb6, 0xb3, 0x00, 0x45, 0x00, 0x51, 0x00, 0x48, 0x45, 0x00,
  0x00, 0x00, 0x00, 0x34, 0x00, 0xb8, 0xc1, 0x32, 0x55, 0x00, 0x00, 0x00,
  0x00, 0x00, 0x00, 0x00, 0xc9, 0xc7, 0x00, 0xc0, 0x00, 0x37, 0x00, 0x57,
  0x35, 0x81, 0x00, 0xae, 0x00, 0xb6, 0x00, 0x00, 0x00, 0xc4, 0xbf, 0x00,
  0x00, 0x00, 0x98, 0xca, 0xc7, 0x00, 0x49, 0x00, 0x3f, 0xbf, 0x00, 0x00,
  0xc5, 0x35, 0x00, 0xa4, 0x00, 0x00, 0x35, 0x00, 0x00, 0x00, 0xcd, 0x00,
  0x3d, 0x00, 0x00, 0x00, 0x00, 0x00, 0x00, 0x00, 0x64, 0x00, 0x00, 0x00,
  0x79, 0x00, 0xa3, 0x75, 0x00, 0x00, 0x00, 0x00, 0x00, 0x00, 0xaa, 0x00,
  0x00, 0x00, 0x4b, 0x00, 0x00, 0x65, 0x00, 0x00, 0x00, 0x00, 0x00, 0x00,
  0xa9, 0x00, 0x00, 0x4f, 0x00, 0x00, 0x00, 0x00, 0x00, 0x4d, 0x54, 0x9d,
  0x00, 0x4f, 0x56, 0x00, 0xae, 0x00, 0x00, 0xa0, 0x52, 0x5a, 0x00, 0x00,
  0x00, 0x4a, 0x00, 0x81, 0x92, 0x67, 0x00, 0x97, 0x60, 0x00, 0x00, 0x00,
  0x00, 0x88, 0x00, 0x6c, 0x00, 0x00, 0x00, 0xab, 0x00, 0x00, 0x00, 0x00,
  0x00, 0x00, 0x00, 0x00, 0x51, 0x00, 0x5d, 0x00, 0x00, 0x00, 0x00, 0xa4,
  0x90, 0x96, 0xac, 0x91, 0x00, 0x93, 0xb6, 0x00, 0x00, 0x00, 0x4f, 0xaa,
  0x87, 0x00, 0x00, 0x00, 0x00, 0x00, 0x81, 0x00, 0x00, 0x9b, 0x00, 0x00,
  0x00, 0x00, 0x6a, 0x00, 0xab, 0xb2, 0x00, 0x00, 0x69, 0x00, 0x00, 0x61,
  0x00, 0x00, 0x00, 0x00, 0x65, 0x2b, 0x47, 0x9f, 0x00, 0x40, 0x7f, 0x61,
  0x00, 0x46, 0x00, 0x2b, 0x00, 0x00, 0x2b, 0x2f, 0xd6, 0xd8, 0xcc, 0x00,
  0xb9, 0x00, 0x00, 0x00, 0xd2, 0x00, 0x00, 0x00, 0x00, 0x00, 0x00, 0x2e,
  0x00, 0x00, 0x3d, 0x3f, 0x00, 0x00, 0x5b, 0x2b, 0xc2, 0x36, 0x31, 0x00,
  0xc1, 0x00, 0x37, 0x57, 0xc9, 0x00, 0x00, 0x00, 0xd3, 0xd3, 0x00, 0x00,
  0x00, 0xb0, 0xd2, 0x00, 0xd1, 0x00, 0x38, 0x34, 0x00, 0x00, 0x00, 0x00,
  0xb1, 0xb9, 0x00, 0x00, 0x00, 0x00, 0x00, 0xc8, 0x00, 0x00, 0x2d, 0x38,
  0x3b, 0xb8, 0x00, 0x00, 0x00, 0x2d, 0x3e, 0x2a, 0x4c, 0x00, 0x00, 0x28,
  0xd4, 0x00, 0x00, 0xc9, 0xc4, 0x00, 0x2c, 0x00, 0xce, 0xa2, 0xc0, 0xb1,
  0x00, 0xab, 0x00, 0xb1, 0x00, 0x00, 0x2a, 0x00, 0x00, 0x00, 0x00, 0x00,
  0x00, 0x48, 0x00, 0x3a, 0x00, 0x42, 0x00, 0x00, 0x00, 0x00, 0xa9, 0xa3,
  0x74, 0x00, 0x79, 0x95, 0x00, 0x00, 0x00, 0x00, 0xa6, 0x00, 0x00, 0x00,
  0x5c, 0x00, 0x60, 0x00, 0x00, 0x00, 0x53, 0x8d, 0xaf, 0x00, 0x00, 0xaa,
  0x00, 0xa1, 0x8c, 0x97, 0x00, 0x5d, 0x00, 0x00, 0x68, 0xa2, 0x00, 0x00,
  0x85, 0x00, 0x75, 0x66, 0x8a, 0x00, 0x00, 0x8a, 0x8b, 0x00, 0x00, 0x00,
  0x00, 0x00, 0x00, 0x00, 0x00, 0x6d, 0xa5, 0x56, 0x9c, 0x00, 0x00, 0xa5,
  0x00, 0x69, 0x00, 0x00, 0x00, 0x00, 0x00, 0x90, 0x00, 0x51, 0x8d, 0xaf,
  0x8f, 0x89, 0x00, 0x7f, 0x5b, 0x59, 0x00, 0x00, 0x00, 0x00, 0x00, 0x53,
  0x66, 0x00, 0x00, 0x00, 0x00, 0x8d, 0x00, 0x00, 0x00, 0x00, 0x77, 0x00,
  0x00, 0x00, 0x00, 0x68, 0x00, 0x00, 0x00, 0x6e, 0x90, 0x00, 0x5b, 0x00,
  0x00, 0xa5, 0x9a, 0x00, 0x00, 0x00, 0x00, 0x00, 0x00, 0x00, 0x00, 0x00,
  0x59, 0x00, 0x90, 0x00, 0xa3, 0x9f, 0x00, 0x00, 0x84, 0x9c, 0x00, 0x54,
  0x72, 0x00, 0x00, 0x00, 0x50, 0x90, 0x00, 0x9f, 0x00, 0x00, 0x00, 0x68,
  0x51, 0x52, 0x00, 0x00, 0x00, 0x81, 0xac, 0x00, 0x00, 0xab, 0x00, 0x00,
  0x60, 0x00, 0x00, 0x00, 0x00, 0x00, 0x00, 0x65, 0x00, 0x91, 0x00, 0x71,
  0x76, 0x00, 0x00, 0x00, 0x00, 0x00, 0x00, 0x00, 0x56, 0x00, 0xae, 0x00,
  0xac, 0x00, 0x00, 0x8a, 0x97, 0x00, 0x00, 0x00, 0x00, 0x00, 0x6d, 0x00,
  0x00, 0x00, 0x00, 0x76, 0x95, 0x00, 0x00, 0x00, 0x00, 0x00, 0x00, 0x00,
  0x00, 0x00, 0x00, 0xa3, 0x00, 0x00, 0x62, 0x9a, 0x00, 0x00, 0x00, 0x00,
  0x00, 0x00, 0x00, 0x00, 0x00, 0x74, 0xa3, 0x8d, 0x6e, 0x84, 0x00, 0x00,
  0x00, 0x9a, 0xae, 0x6d, 0x6f, 0x00, 0x8e, 0x00, 0x00, 0x9a, 0x00, 0x00,
  0x00, 0x00, 0x00, 0x00, 0x98, 0x00, 0x98, 0x00, 0x00, 0x5c, 0x00, 0x00,
  0x4a, 0x00, 0x00, 0x00, 0x00, 0x3a, 0x00, 0x00, 0x00, 0x9e, 0x00, 0x3a,
  0x00, 0x00, 0x00, 0xc8, 0x45, 0x00, 0x38, 0x00, 0x47, 0x00, 0x00, 0x00,
  0x44, 0x00, 0xcf, 0x45, 0x00, 0x34, 0x00, 0x00, 0x00, 0x00, 0x00, 0x37,
  0x56, 0xcb, 0x55, 0x00, 0x81, 0x00, 0xc1, 0x9f, 0x00, 0x34, 0x00, 0x00,
  0x00, 0xcf, 0x00, 0x00, 0x00, 0x00, 0x00, 0xc4, 0x00, 0xa0, 0x00, 0x00,
  0x00, 0xb6, 0xcb, 0xc7, 0x51, 0x00, 0x00, 0xc5, 0xcf, 0x00, 0x00, 0x31,
  0x00, 0x00, 0x30, 0x00, 0x39, 0x00, 0x5d, 0x42, 0xaa, 0xb4, 0x00, 0x00,
  0xcd, 0x33, 0xce, 0x57, 0x00, 0x00, 0x35, 0x00, 0xbc, 0x00, 0x31, 0xab,
  0x46, 0x38, 0xaa, 0x00, 0xc6, 0x44, 0x00, 0x97, 0x00, 0x00, 0x00, 0xc4,
  0x00, 0x31, 0x00, 0x49, 0xa7, 0x00, 0x00, 0x00, 0xcc, 0xc5, 0x00, 0x00,
  0x00, 0x31, 0x00, 0x00, 0xbd, 0xcc, 0x00, 0x46, 0xa7, 0x00, 0x72, 0x7a,
  0x00, 0x00, 0x6c, 0x5c, 0x6c, 0x84, 0x8f, 0x00, 0x00, 0x00, 0x00, 0x94,
  0x00, 0x00, 0x68, 0x00, 0x6f, 0x00, 0x90, 0x6a, 0xb2, 0x00, 0x00, 0x00,
  0x00, 0x00, 0x00, 0x00, 0x00, 0x00, 0x00, 0x00, 0x5a, 0x00, 0x00, 0x00,
  0x00, 0x00, 0x00, 0xa0, 0x7a, 0x6e, 0xaa, 0x65, 0x00, 0x85, 0x89, 0x00,
  0x00, 0x60, 0x77, 0x00, 0x00, 0x00, 0x00, 0xb3, 0x00, 0x00, 0x68, 0x00,
  0x98, 0x5f, 0x00, 0x92, 0x00, 0x00, 0x00, 0x7f, 0x68, 0x94, 0x7b, 0x00,
  0x00, 0x00, 0x00, 0x62, 0x00, 0x00, 0x00, 0xb0, 0x00, 0x00, 0x6b, 0x63,
  0x00, 0x00, 0x00, 0x00, 0x00, 0x00, 0x00, 0x00, 0x00, 0xaf, 0x5e, 0x57,
  0x00, 0x00, 0x71, 0x00, 0xb3, 0x89, 0x57, 0x00, 0x00, 0x00, 0x73, 0x00,
  0x00, 0x8d, 0x00, 0x00, 0x5f, 0x00, 0x00, 0x00, 0xa3, 0x00, 0x00, 0x92,
  0x00, 0xa6, 0x00, 0x00, 0x00, 0x47, 0x00, 0x00, 0xae, 0x47, 0x00, 0x00,
  0xbd, 0x00, 0x94, 0x00, 0x00, 0x00, 0x00, 0xa6, 0x2c, 0xad, 0x00, 0x00,
  0x3f, 0x00, 0x00, 0x00, 0x00, 0x00, 0x00, 0x2b, 0x00, 0x00, 0xc1, 0x00,
  0xc1, 0x4b, 0x00, 0x00, 0x36, 0x00, 0x00, 0x00, 0xd1, 0xb7, 0x00, 0x9e,
  0x00, 0x00, 0xca, 0x82, 0x7f, 0x57, 0x32, 0xaa, 0x00, 0x31, 0x00, 0x30,
  0x42, 0x00, 0x00, 0x00, 0x00, 0x00, 0x00, 0xbc, 0x00, 0x32, 0x00, 0x00,
  0x00, 0x00, 0x00, 0x00, 0x00, 0x00, 0x00, 0x00, 0x00, 0xbf, 0x37, 0x3e,
  0x00, 0xcd, 0x00, 0x00, 0x00, 0x00, 0x00, 0x41, 0x00, 0xb0, 0xcf, 0xb1,
  0x00, 0x00, 0xc8, 0x43, 0xd5, 0x4a, 0x00, 0x00, 0x43, 0x00, 0x00, 0x00,
  0x4d, 0x00, 0x6f, 0x5e, 0x00, 0x00, 0x5a, 0x00, 0xc2, 0x00, 0xc7, 0xcb,
  0x00, 0xd5, 0x00, 0x00, 0xaa, 0x00, 0x00, 0x31, 0xcf, 0x00, 0x00, 0x52,
  0x00, 0x00, 0x00, 0x00, 0x00, 0x00, 0x00, 0x00, 0xa7, 0xb7, 0x42, 0x35,
  0x00, 0xd6, 0x00, 0x00, 0x36, 0x46, 0x2d, 0xc0, 0x00, 0x00, 0xc8, 0xb7,
  0x00, 0x00, 0x00, 0x31, 0x00, 0x00, 0x3e, 0xd5, 0x28, 0x2a, 0xb9, 0x2a,
  0xbd, 0x00, 0x3b, 0x3a, 0xcc, 0xc2, 0x00, 0x2b, 0x2a, 0x00, 0x00, 0x00,
  0x81, 0xcd, 0x00, 0xd1, 0xd0, 0xca, 0x00, 0xa3, 0x00, 0x9c, 0xc3, 0x00,
  0xca, 0x00, 0x31, 0xb8, 0x00, 0x43, 0x00, 0x00, 0x00, 0x00, 0x33, 0x00,
  0x00, 0x00, 0xd7, 0x00, 0x00, 0x4f, 0x00, 0x00, 0x00, 0x00, 0x00, 0x00,
  0x32, 0x00, 0x00, 0x00, 0xc5, 0x4b, 0x00, 0x3b, 0x00, 0x00, 0x29, 0xd2,
  0x4a, 0x00, 0x00, 0x30, 0xbb, 0x33, 0x00, 0x43, 0x00, 0x00, 0xab, 0x00,
  0x45, 0x00, 0x00, 0x00, 0x00, 0xa5, 0x00, 0x00, 0x00, 0x00, 0x29, 0x00,
  0x44, 0x00, 0xd4, 0x00, 0x2d, 0x00, 0x36, 0x00, 0x9d, 0x74, 0x00, 0x00,
  0x9d, 0x00, 0x00, 0x64, 0x00, 0x7a, 0x00, 0x00, 0x00, 0x00, 0x00, 0x86,
  0x00, 0x00, 0x00, 0x00, 0x00, 0x00, 0x00, 0x6f, 0x53, 0x00, 0x00, 0x84,
  0xad, 0x00, 0x00, 0x93, 0x00, 0x00, 0xa5, 0x00, 0x00, 0x00, 0x6a, 0x00,
  0x89, 0x00, 0x00, 0x00, 0x00, 0x00, 0x81, 0x00, 0x00, 0x00, 0x00, 0x00,
  0x00, 0x00, 0x53, 0x00, 0x65, 0x00, 0x00, 0x00, 0xa4, 0x00, 0x00, 0x00,
  0x00, 0x00, 0x79, 0x99, 0x00, 0x00, 0x00, 0x00, 0x94, 0x00, 0x00, 0x60,
  0x8f, 0x00, 0x00, 0x00, 0x00, 0x00, 0x00, 0x00, 0x54, 0x00, 0x83, 0x00,
  0x00, 0x62, 0x00, 0x00, 0x66, 0x00, 0x00, 0x00, 0x75, 0x9d, 0x77, 0x00,
  0x00, 0x8d, 0x00, 0x00, 0x76, 0xa7, 0x92, 0x00, 0x00, 0x00, 0x89, 0x00,
  0x00, 0x00, 0x00, 0x81, 0x00, 0x00, 0x8c, 0x00, 0x00, 0x00, 0x00, 0x00,
  0xae, 0x00, 0x5f, 0x00, 0x00, 0x00, 0x81, 0x00, 0x00, 0x00, 0x00, 0x00,
  0x00, 0x00, 0x00, 0x00, 0x00, 0x00, 0x57, 0x00, 0x00, 0x8a, 0x00, 0x91,
  0x00, 0x00, 0x00, 0x00, 0xa5, 0x00, 0x92, 0x5e, 0x00, 0x8d, 0x00, 0x91,
  0x9d, 0x00, 0x00, 0xaf, 0x00, 0x00, 0x00, 0x00, 0x00, 0x6a, 0x96, 0x9d,
  0x00, 0xa6, 0x00, 0x00, 0x00, 0x00, 0x62, 0x88, 0x00, 0x00, 0x00, 0x9e,
  0xaf, 0xb0, 0x00, 0x00, 0x6e, 0xb2, 0xad, 0x8e, 0x00, 0x00, 0x00, 0x00,
  0x00, 0x4e, 0x00, 0xae, 0x91, 0x00, 0xaa, 0x5b, 0x00, 0x00, 0x00, 0x00,
  0xac, 0x66, 0x00, 0x00, 0x7c, 0x00, 0x00, 0x00, 0xb1, 0x00, 0x00, 0x00,
  0x69, 0x00, 0x00, 0x00, 0x00, 0x94, 0xb2, 0x82, 0x00, 0x00, 0x73, 0x6f,
  0x00, 0x71, 0x9f, 0x00, 0x00, 0xb0, 0x00, 0x00, 0x00, 0x00, 0x00, 0xa3,
  0x00, 0xa1, 0x00, 0x00, 0x70, 0x00, 0x00, 0x00, 0x5e, 0x00, 0x00, 0x00,
  0x5a, 0xc0, 0x00, 0x6b, 0x00, 0x00, 0xaa, 0x60, 0x00, 0x00, 0x00, 0x00,
  0x00, 0xb1, 0x92, 0x00, 0x51, 0x00, 0x61, 0x00, 0x43, 0x4a, 0x00, 0x00,
  0x44, 0x00, 0x00, 0x00, 0x00, 0x00, 0x5d, 0xbc, 0x4a, 0x60, 0x00, 0x00,
  0x00, 0x00, 0x00, 0x00, 0x87, 0x00, 0x8d, 0xac, 0x00, 0x00, 0x87, 0x00,
  0x90, 0x00, 0x00, 0xbd, 0x00, 0x00, 0x00, 0x00, 0x61, 0xab, 0x00, 0x00,
  0x00, 0x00, 0x9d, 0x00, 0x00, 0x47, 0x00, 0x00, 0x00, 0x4e, 0x00, 0x74,
  0x00, 0x7c, 0x00, 0x00, 0x00, 0x00, 0x00, 0x00, 0x00, 0x00, 0x00, 0x51,
  0x00, 0x00, 0x00, 0x43, 0x98, 0x00, 0x00, 0x00, 0x00, 0x00, 0x00, 0x00,
  0x00, 0x3d, 0x00, 0x00, 0x00, 0x73, 0x4d, 0x81, 0xbb, 0x00, 0x00, 0x67,
  0x00, 0x65, 0x00, 0x00, 0x9b, 0x00, 0xaa, 0x00, 0x00, 0x4b, 0x00, 0x4b,
  0xaa, 0xa6, 0x00, 0x00, 0xa4, 0x00, 0x00, 0x6c, 0xc5, 0x00, 0x00, 0x00,
  0x00, 0x35, 0x00, 0x48, 0x3f, 0x48, 0xd2, 0xcd, 0x00, 0x00, 0x00, 0x37,
  0x00, 0xd9, 0x00, 0x31, 0x00, 0x35, 0x00, 0x3b, 0x4d, 0xc6, 0x00, 0xdb,
  0x36, 0x00, 0xd7, 0x00, 0x25, 0x00, 0x00, 0x00, 0x00, 0x00, 0x00, 0x00,
  0x00, 0x33, 0x26, 0x00, 0x00, 0xd5, 0x2e, 0x00, 0x7f, 0x00, 0x00, 0x00,
  0x00, 0x00, 0x24, 0x7c, 0x00, 0x44, 0x3b, 0x00, 0x00, 0x39, 0x00, 0x00,
  0x00, 0xd7, 0xd3, 0x00, 0x00, 0x00, 0x00, 0x00, 0x00, 0x00, 0x00, 0x00,
  0x00, 0x00, 0x00, 0x2d, 0x23, 0xaf, 0x00, 0x00, 0xd8, 0x00, 0xdc, 0xca,
  0x00, 0xb2, 0x00, 0x00, 0x00, 0x00, 0x36, 0x00, 0x00, 0x00, 0x00, 0xda,
  0x4e, 0x00, 0x00, 0x00, 0xd8, 0x3d, 0x25, 0x00, 0x00, 0x00, 0x00, 0x4e,
  0xc9, 0x3b, 0x00, 0x00, 0x00, 0x00, 0x26, 0x00, 0x00, 0x00, 0x24, 0x00,
  0x00, 0xc5, 0x00, 0x24, 0x00, 0x00, 0x00, 0xbf, 0x00, 0x00, 0x39, 0xc7,
  0x00, 0x00, 0x75, 0x00, 0x00, 0x31, 0x45, 0x00, 0x00, 0x00, 0x00, 0xd0,
  0x4b, 0xbb, 0x31, 0x44, 0x00, 0x00, 0x00, 0x41, 0xcd, 0xcd, 0x00, 0x00,
  0x00, 0x00, 0x00, 0x49, 0x00, 0x00, 0x00, 0x46, 0x00, 0x00, 0x55, 0x00,
  0xbe, 0x37, 0x55, 0x7f, 0xb4, 0x00, 0x48, 0x53, 0x00, 0x00, 0x00, 0x00,
  0x00, 0x8e, 0x00, 0x3b, 0x00, 0xcf, 0x00, 0xc9, 0x00, 0x00, 0x45, 0xc7,
  0x00, 0x35, 0x38, 0x00, 0x00, 0x00, 0x00, 0x00, 0xcf, 0x00, 0xc8, 0x00,
  0x00, 0x00, 0x00, 0x00, 0x00, 0x00, 0x00, 0x00, 0xcd, 0x3a, 0x00, 0x00,
  0x00, 0x00, 0x37, 0x00, 0x3b, 0x00, 0x00, 0xc9, 0xa7, 0x00, 0x40, 0x38,
  0x00, 0x00, 0x89, 0xc8, 0x54, 0x00, 0xa7, 0x00, 0x00, 0x00, 0x00, 0x00,
  0x00, 0xa6, 0x00, 0x00, 0x00, 0x00, 0x00, 0x00, 0x00, 0x6b, 0x33, 0x00,
  0x44, 0x00, 0x2c, 0x52, 0x2f, 0x3a, 0x00, 0xd2, 0x9b, 0xaf, 0x66, 0x34,
  0x00, 0x37, 0x00, 0x2c, 0xd1, 0x53, 0x36, 0x00, 0xbe, 0x3d, 0x00, 0x00,
  0xbd, 0x2c, 0x00, 0x44, 0xbd, 0x00, 0x00, 0x00, 0x00, 0x00, 0x9d, 0x00,
  0x00, 0xd4, 0x4f, 0x44, 0xc5, 0xa6, 0x36, 0x00, 0xce, 0x00, 0x00, 0xa5,
  0xc1, 0xd3, 0xb2, 0x00, 0x3a, 0x00, 0x00, 0x95, 0x00, 0x81, 0xb7, 0x00,
  0xb9, 0x00, 0xca, 0xce, 0x00, 0x00, 0x00, 0x40, 0x00, 0x30, 0x00, 0x00,
  0x00, 0x00, 0x00, 0x00, 0xcb, 0x00, 0x00, 0x00, 0x33, 0x5c, 0x00, 0x00,
  0x00, 0x00, 0x00, 0x00, 0x00, 0x00, 0xcc, 0x00, 0x54, 0x00, 0x00, 0x00,
  0x46, 0x00, 0x00, 0x2e, 0x00, 0x00, 0x00, 0x00, 0x00, 0x81, 0x00, 0xd3,
  0x00, 0x00, 0x00, 0x00, 0x00, 0xbc, 0x00, 0x00, 0x00, 0x00, 0x00, 0x00,
  0x00, 0xd6, 0x00, 0x00, 0x00, 0x59, 0x3d, 0xcd, 0x16, 0xfe, 0xff, 0xff,
  0x04, 0x00, 0x00, 0x00, 0x80, 0x00, 0x00, 0x00, 0xc7, 0xff, 0xff, 0xff,
  0xbb, 0xff, 0xff, 0xff, 0x00, 0xff, 0xff, 0xff, 0xd5, 0x00, 0x00, 0x00,
  0x84, 0x01, 0x00, 0x00, 0x00, 0x00, 0x00, 0x00, 0x64, 0x01, 0x00, 0x00,
  0x67, 0x00, 0x00, 0x00, 0xb2, 0x00, 0x00, 0x00, 0x7b, 0x01, 0x00, 0x00,
  0x02, 0x01, 0x00, 0x00, 0x84, 0x00, 0x00, 0x00, 0x59, 0x00, 0x00, 0x00,
  0x00, 0x00, 0x00, 0x00, 0xbf, 0xff, 0xff, 0xff, 0x5f, 0x00, 0x00, 0x00,
  0xb8, 0xfe, 0xff, 0xff, 0x14, 0x01, 0x00, 0x00, 0x77, 0xfe, 0xff, 0xff,
  0xa9, 0x00, 0x00, 0x00, 0x00, 0x00, 0x00, 0x00, 0x0a, 0xff, 0xff, 0xff,
  0x7b, 0xff, 0xff, 0xff, 0xa3, 0x00, 0x00, 0x00, 0x1b, 0x00, 0x00, 0x00,
  0xe6, 0x00, 0x00, 0x00, 0x00, 0x00, 0x00, 0x00, 0xdc, 0xff, 0xff, 0xff,
  0x3e, 0x01, 0x00, 0x00, 0xbb, 0xff, 0xff, 0xff, 0x05, 0xff, 0xff, 0xff,
  0xb1, 0x00, 0x00, 0x00, 0xa2, 0xfe, 0xff, 0xff, 0x04, 0x00, 0x00, 0x00,
  0x60, 0x00, 0x00, 0x00, 0x00, 0x00, 0x4b, 0x00, 0x96, 0x00, 0x91, 0x00,
  0x42, 0x81, 0x6e, 0x00, 0x69, 0x00, 0x00, 0x75, 0xb9, 0xc0, 0x00, 0x00,
  0x4d, 0x00, 0xa9, 0x00, 0x00, 0xaa, 0x00, 0x41, 0xb9, 0x00, 0x43, 0xa6,
  0x00, 0x00, 0x81, 0x00, 0x00, 0x00, 0x48, 0x00, 0x00, 0x00, 0x00, 0x00,
  0x00, 0x00, 0xb8, 0x00, 0xb6, 0x00, 0xa2, 0x00, 0x00, 0x00, 0x00, 0x00,
  0x00, 0x77, 0x00, 0x00, 0x00, 0x00, 0x57, 0x00, 0x81, 0x00, 0x62, 0x8f,
  0x00, 0x00, 0x4f, 0x70, 0x00, 0x00, 0x9b, 0x6c, 0x00, 0x00, 0x00, 0x00,
  0x00, 0x00, 0x47, 0x97, 0x00, 0x00, 0x00, 0x49, 0x55, 0x00, 0x54, 0x00,
  0x00, 0x00, 0x99, 0xa6, 0x0e, 0xff, 0xff, 0xff, 0x04, 0x00, 0x00, 0x00,
  0x0c, 0x00, 0x00, 0x00, 0x47, 0x00, 0x00, 0x00, 0xfa, 0x00, 0x00, 0x00,
  0x89, 0xfe, 0xff, 0xff, 0x26, 0xff, 0xff, 0xff, 0x04, 0x00, 0x00, 0x00,
  0x08, 0x00, 0x00, 0x00, 0xff, 0xff, 0xff, 0xff, 0x80, 0x00, 0x00, 0x00,
  0x00, 0xe8, 0xff, 0xff, 0x04, 0xe8, 0xff, 0xff, 0x0f, 0x00, 0x00, 0x00,
  0x4d, 0x4c, 0x49, 0x52, 0x20, 0x43, 0x6f, 0x6e, 0x76, 0x65, 0x72, 0x74,
  0x65, 0x64, 0x2e, 0x00, 0x01, 0x00, 0x00, 0x00, 0x14, 0x00, 0x00, 0x00,
  0x00, 0x00, 0x0e, 0x00, 0x18, 0x00, 0x14, 0x00, 0x10, 0x00, 0x0c, 0x00,
  0x08, 0x00, 0x04, 0x00, 0x0e, 0x00, 0x00, 0x00, 0x14, 0x00, 0x00, 0x00,
  0x1c, 0x00, 0x00, 0x00, 0x38, 0x03, 0x00, 0x00, 0x3c, 0x03, 0x00, 0x00,
  0x40, 0x03, 0x00, 0x00, 0x04, 0x00, 0x00, 0x00, 0x6d, 0x61, 0x69, 0x6e,
  0x00, 0x00, 0x00, 0x00, 0x0c, 0x00, 0x00, 0x00, 0x00, 0x03, 0x00, 0x00,
  0xa0, 0x02, 0x00, 0x00, 0x3c, 0x02, 0x00, 0x00, 0xe4, 0x01, 0x00, 0x00,
  0xa0, 0x01, 0x00, 0x00, 0x58, 0x01, 0x00, 0x00, 0x14, 0x01, 0x00, 0x00,
  0xec, 0x00, 0x00, 0x00, 0x9c, 0x00, 0x00, 0x00, 0x64, 0x00, 0x00, 0x00,
  0x28, 0x00, 0x00, 0x00, 0x04, 0x00, 0x00, 0x00, 0x32, 0xff, 0xff, 0xff,
  0x0c, 0x00, 0x00, 0x00, 0x10, 0x00, 0x00, 0x00, 0x06, 0x00, 0x00, 0x00,
  0x01, 0x00, 0x00, 0x00, 0x17, 0x00, 0x00, 0x00, 0x01, 0x00, 0x00, 0x00,
  0x16, 0x00, 0x00, 0x00, 0x1a, 0xfe, 0xff, 0xff, 0x1c, 0x00, 0x00, 0x00,
  0x00, 0x00, 0x00, 0x09, 0x1c, 0x00, 0x00, 0x00, 0x20, 0x00, 0x00, 0x00,
  0x05, 0x00, 0x00, 0x00, 0x00, 0x00, 0x06, 0x00, 0x08, 0x00, 0x04, 0x00,
  0x06, 0x00, 0x00, 0x00, 0x00, 0x00, 0x80, 0x3f, 0x01, 0x00, 0x00, 0x00,
  0x16, 0x00, 0x00, 0x00, 0x01, 0x00, 0x00, 0x00, 0x15, 0x00, 0x00, 0x00,
  0xf2, 0xfd, 0xff, 0xff, 0x14, 0x00, 0x00, 0x00, 0x00, 0x00, 0x00, 0x08,
  0x10, 0x00, 0x00, 0x00, 0x14, 0x00, 0x00, 0x00, 0x04, 0x00, 0x00, 0x00,
  0xfc, 0xe8, 0xff, 0xff, 0x01, 0x00, 0x00, 0x00, 0x15, 0x00, 0x00, 0x00,
  0x03, 0x00, 0x00, 0x00, 0x14, 0x00, 0x00, 0x00, 0x03, 0x00, 0x00, 0x00,
  0x02, 0x00, 0x00, 0x00, 0x86, 0xfe, 0xff, 0xff, 0x1c, 0x00, 0x00, 0x00,
  0x00, 0x00, 0x00, 0x08, 0x1c, 0x00, 0x00, 0x00, 0x20, 0x00, 0x00, 0x00,
  0x04, 0x00, 0x00, 0x00, 0x00, 0x00, 0x06, 0x00, 0x08, 0x00, 0x07, 0x00,
  0x06, 0x00, 0x00, 0x00, 0x00, 0x00, 0x00, 0x01, 0x01, 0x00, 0x00, 0x00,
  0x14, 0x00, 0x00, 0x00, 0x03, 0x00, 0x00, 0x00, 0x13, 0x00, 0x00, 0x00,
  0x05, 0x00, 0x00, 0x00, 0x04, 0x00, 0x00, 0x00, 0x00, 0x00, 0x0a, 0x00,
  0x10, 0x00, 0x0c, 0x00, 0x08, 0x00, 0x04, 0x00, 0x0a, 0x00, 0x00, 0x00,
  0x0c, 0x00, 0x00, 0x00, 0x10, 0x00, 0x00, 0x00, 0x03, 0x00, 0x00, 0x00,
  0x01, 0x00, 0x00, 0x00, 0x13, 0x00, 0x00, 0x00, 0x02, 0x00, 0x00, 0x00,
  0x12, 0x00, 0x00, 0x00, 0x01, 0x00, 0x00, 0x00, 0x96, 0xfe, 0xff, 0xff,
  0x14, 0x00, 0x00, 0x00, 0x00, 0x00, 0x00, 0x05, 0x24, 0x00, 0x00, 0x00,
  0x28, 0x00, 0x00, 0x00, 0x02, 0x00, 0x00, 0x00, 0xe6, 0xfe, 0xff, 0xff,
  0x02, 0x00, 0x00, 0x00, 0x02, 0x00, 0x00, 0x00, 0x02, 0x00, 0x00, 0x00,
  0x02, 0x00, 0x00, 0x00, 0x00, 0x00, 0x00, 0x01, 0x01, 0x00, 0x00, 0x00,
  0x12, 0x00, 0x00, 0x00, 0x01, 0x00, 0x00, 0x00, 0x11, 0x00, 0x00, 0x00,
  0xd6, 0xfe, 0xff, 0xff, 0x14, 0x00, 0x00, 0x00, 0x00, 0x00, 0x00, 0x01,
  0x20, 0x00, 0x00, 0x00, 0x24, 0x00, 0x00, 0x00, 0x01, 0x00, 0x00, 0x00,
  0xc8, 0xfe, 0xff, 0xff, 0x00, 0x00, 0x00, 0x01, 0x01, 0x00, 0x00, 0x00,
  0x01, 0x00, 0x00, 0x00, 0x00, 0x00, 0x00, 0x01, 0x01, 0x00, 0x00, 0x00,
  0x11, 0x00, 0x00, 0x00, 0x03, 0x00, 0x00, 0x00, 0x10, 0x00, 0x00, 0x00,
  0x07, 0x00, 0x00, 0x00, 0x06, 0x00, 0x00, 0x00, 0x1a, 0xff, 0xff, 0xff,
  0x14, 0x00, 0x00, 0x00, 0x00, 0x00, 0x00, 0x05, 0x24, 0x00, 0x00, 0x00,
  0x28, 0x00, 0x00, 0x00, 0x02, 0x00, 0x00, 0x00, 0x6a, 0xff, 0xff, 0xff,
  0x02, 0x00, 0x00, 0x00, 0x02, 0x00, 0x00, 0x00, 0x02, 0x00, 0x00, 0x00,
  0x02, 0x00, 0x00, 0x00, 0x00, 0x00, 0x00, 0x01, 0x01, 0x00, 0x00, 0x00,
  0x10, 0x00, 0x00, 0x00, 0x01, 0x00, 0x00, 0x00, 0x0f, 0x00, 0x00, 0x00,
  0x5a, 0xff, 0xff, 0xff, 0x14, 0x00, 0x00, 0x00, 0x00, 0x00, 0x00, 0x01,
  0x20, 0x00, 0x00, 0x00, 0x24, 0x00, 0x00, 0x00, 0x01, 0x00, 0x00, 0x00,
  0x4c, 0xff, 0xff, 0xff, 0x00, 0x00, 0x00, 0x01, 0x01, 0x00, 0x00, 0x00,
  0x01, 0x00, 0x00, 0x00, 0x00, 0x00, 0x00, 0x01, 0x01, 0x00, 0x00, 0x00,
  0x0f, 0x00, 0x00, 0x00, 0x03, 0x00, 0x00, 0x00, 0x0e, 0x00, 0x00, 0x00,
  0x09, 0x00, 0x00, 0x00, 0x08, 0x00, 0x00, 0x00, 0x00, 0x00, 0x0e, 0x00,
  0x1a, 0x00, 0x14, 0x00, 0x10, 0x00, 0x0c, 0x00, 0x0b, 0x00, 0x04, 0x00,
  0x0e, 0x00, 0x00, 0x00, 0x24, 0x00, 0x00, 0x00, 0x00, 0x00, 0x00, 0x05,
  0x34, 0x00, 0x00, 0x00, 0x38, 0x00, 0x00, 0x00, 0x02, 0x00, 0x00, 0x00,
  0x00, 0x00, 0x0e, 0x00, 0x18, 0x00, 0x17, 0x00, 0x10, 0x00, 0x0c, 0x00,
  0x08, 0x00, 0x04, 0x00, 0x0e, 0x00, 0x00, 0x00, 0x02, 0x00, 0x00, 0x00,
  0x02, 0x00, 0x00, 0x00, 0x02, 0x00, 0x00, 0x00, 0x02, 0x00, 0x00, 0x00,
  0x00, 0x00, 0x00, 0x01, 0x01, 0x00, 0x00, 0x00, 0x0e, 0x00, 0x00, 0x00,
  0x01, 0x00, 0x00, 0x00, 0x0d, 0x00, 0x00, 0x00, 0x00, 0x00, 0x0e, 0x00,
  0x18, 0x00, 0x14, 0x00, 0x10, 0x00, 0x0c, 0x00, 0x0b, 0x00, 0x04, 0x00,
  0x0e, 0x00, 0x00, 0x00, 0x20, 0x00, 0x00, 0x00, 0x00, 0x00, 0x00, 0x01,
  0x2c, 0x00, 0x00, 0x00, 0x30, 0x00, 0x00, 0x00, 0x01, 0x00, 0x00, 0x00,
  0x0c, 0x00, 0x14, 0x00, 0x13, 0x00, 0x0c, 0x00, 0x08, 0x00, 0x07, 0x00,
  0x0c, 0x00, 0x00, 0x00, 0x00, 0x00, 0x00, 0x01, 0x01, 0x00, 0x00, 0x00,
  0x01, 0x00, 0x00, 0x00, 0x00, 0x00, 0x00, 0x01, 0x01, 0x00, 0x00, 0x00,
  0x0d, 0x00, 0x00, 0x00, 0x03, 0x00, 0x00, 0x00, 0x0c, 0x00, 0x00, 0x00,
  0x0b, 0x00, 0x00, 0x00, 0x0a, 0x00, 0x00, 0x00, 0x00, 0x00, 0x0a, 0x00,
  0x0c, 0x00, 0x00, 0x00, 0x08, 0x00, 0x04, 0x00, 0x0a, 0x00, 0x00, 0x00,
  0x08, 0x00, 0x00, 0x00, 0x0c, 0x00, 0x00, 0x00, 0x01, 0x00, 0x00, 0x00,
  0x0c, 0x00, 0x00, 0x00, 0x01, 0x00, 0x00, 0x00, 0x00, 0x00, 0x00, 0x00,
  0x01, 0x00, 0x00, 0x00, 0x17, 0x00, 0x00, 0x00, 0x01, 0x00, 0x00, 0x00,
  0x00, 0x00, 0x00, 0x00, 0x18, 0x00, 0x00, 0x00, 0x44, 0x14, 0x00, 0x00,
  0xec, 0x13, 0x00, 0x00, 0x4c, 0x13, 0x00, 0x00, 0xcc, 0x12, 0x00, 0x00,
  0xf8, 0x10, 0x00, 0x00, 0x1c, 0x0f, 0x00, 0x00, 0x48, 0x0d, 0x00, 0x00,
  0x64, 0x0b, 0x00, 0x00, 0x50, 0x0a, 0x00, 0x00, 0x2c, 0x09, 0x00, 0x00,
  0x78, 0x08, 0x00, 0x00, 0xb4, 0x07, 0x00, 0x00, 0x30, 0x07, 0x00, 0x00,
  0x34, 0x06, 0x00, 0x00, 0xa0, 0x05, 0x00, 0x00, 0xb4, 0x04, 0x00, 0x00,
  0x20, 0x04, 0x00, 0x00, 0x34, 0x03, 0x00, 0x00, 0xa0, 0x02, 0x00, 0x00,
  0x24, 0x02, 0x00, 0x00, 0x78, 0x01, 0x00, 0x00, 0xdc, 0x00, 0x00, 0x00,
  0x60, 0x00, 0x00, 0x00, 0x04, 0x00, 0x00, 0x00, 0x32, 0xec, 0xff, 0xff,
  0x00, 0x00, 0x00, 0x01, 0x14, 0x00, 0x00, 0x00, 0x1c, 0x00, 0x00, 0x00,
  0x1c, 0x00, 0x00, 0x00, 0x18, 0x00, 0x00, 0x00, 0x34, 0x00, 0x00, 0x00,
  0x02, 0x00, 0x00, 0x00, 0xff, 0xff, 0xff, 0xff, 0x03, 0x00, 0x00, 0x00,
  0x14, 0xec, 0xff, 0xff, 0x19, 0x00, 0x00, 0x00, 0x53, 0x74, 0x61, 0x74,
  0x65, 0x66, 0x75, 0x6c, 0x50, 0x61, 0x72, 0x74, 0x69, 0x74, 0x69, 0x6f,
  0x6e, 0x65, 0x64, 0x43, 0x61, 0x6c, 0x6c, 0x3a, 0x30, 0x00, 0x00, 0x00,
  0x02, 0x00, 0x00, 0x00, 0x01, 0x00, 0x00, 0x00, 0x03, 0x00, 0x00, 0x00,
  0x6e, 0xf9, 0xff, 0xff, 0x00, 0x00, 0x00, 0x01, 0x18, 0x00, 0x00, 0x00,
  0x20, 0x00, 0x00, 0x00, 0x3c, 0x00, 0x00, 0x00, 0x17, 0x00, 0x00, 0x00,
  0x00, 0x00, 0x00, 0x09, 0x50, 0x00, 0x00, 0x00, 0x02, 0x00, 0x00, 0x00,
  0xff, 0xff, 0xff, 0xff, 0x03, 0x00, 0x00, 0x00, 0x74, 0xed, 0xff, 0xff,
  0x08, 0x00, 0x00, 0x00, 0x10, 0x00, 0x00, 0x00, 0x01, 0x00, 0x00, 0x00,
  0x80, 0xff, 0xff, 0xff, 0xff, 0xff, 0xff, 0xff, 0x01, 0x00, 0x00, 0x00,
  0x00, 0x00, 0x80, 0x3b, 0x1a, 0x00, 0x00, 0x00, 0x53, 0x74, 0x61, 0x74,
  0x65, 0x66, 0x75, 0x6c, 0x50, 0x61, 0x72, 0x74, 0x69, 0x74, 0x69, 0x6f,
  0x6e, 0x65, 0x64, 0x43, 0x61, 0x6c, 0x6c, 0x3a, 0x30, 0x31, 0x00, 0x00,
  0x02, 0x00, 0x00, 0x00, 0x01, 0x00, 0x00, 0x00, 0x03, 0x00, 0x00, 0x00,
  0xe6, 0xf9, 0xff, 0xff, 0x00, 0x00, 0x00, 0x01, 0x18, 0x00, 0x00, 0x00,
  0x20, 0x00, 0x00, 0x00, 0x40, 0x00, 0x00, 0x00, 0x16, 0x00, 0x00, 0x00,
  0x00, 0x00, 0x00, 0x09, 0x70, 0x00, 0x00, 0x00, 0x02, 0x00, 0x00, 0x00,
  0xff, 0xff, 0xff, 0xff, 0x03, 0x00, 0x00, 0x00, 0xec, 0xed, 0xff, 0xff,
  0x08, 0x00, 0x00, 0x00, 0x14, 0x00, 0x00, 0x00, 0x01, 0x00, 0x00, 0x00,
  0x10, 0x00, 0x00, 0x00, 0x00, 0x00, 0x00, 0x00, 0x00, 0x00, 0x00, 0x00,
  0x01, 0x00, 0x00, 0x00, 0x55, 0x22, 0xaa, 0x3d, 0x34, 0x00, 0x00, 0x00,
  0x73, 0x65, 0x71, 0x75, 0x65, 0x6e, 0x74, 0x69, 0x61, 0x6c, 0x2f, 0x64,
  0x65, 0x6e, 0x73, 0x65, 0x5f, 0x31, 0x2f, 0x4d, 0x61, 0x74, 0x4d, 0x75,
  0x6c, 0x3b, 0x73, 0x65, 0x71, 0x75, 0x65, 0x6e, 0x74, 0x69, 0x61, 0x6c,
  0x2f, 0x64, 0x65, 0x6e, 0x73, 0x65, 0x5f, 0x31, 0x2f, 0x42, 0x69, 0x61,
  0x73, 0x41, 0x64, 0x64, 0x00, 0x00, 0x00, 0x00, 0x02, 0x00, 0x00, 0x00,
  0x01, 0x00, 0x00, 0x00, 0x03, 0x00, 0x00, 0x00, 0x7e, 0xfa, 0xff, 0xff,
  0x00, 0x00, 0x00, 0x01, 0x18, 0x00, 0x00, 0x00, 0x20, 0x00, 0x00, 0x00,
  0x40, 0x00, 0x00, 0x00, 0x15, 0x00, 0x00, 0x00, 0x00, 0x00, 0x00, 0x09,
  0x80, 0x00, 0x00, 0x00, 0x02, 0x00, 0x00, 0x00, 0xff, 0xff, 0xff, 0xff,
  0x20, 0x00, 0x00, 0x00, 0x84, 0xee, 0xff, 0xff, 0x08, 0x00, 0x00, 0x00,
  0x14, 0x00, 0x00, 0x00, 0x01, 0x00, 0x00, 0x00, 0x80, 0xff, 0xff, 0xff,
  0xff, 0xff, 0xff, 0xff, 0x00, 0x00, 0x00, 0x00, 0x01, 0x00, 0x00, 0x00,
  0x3b, 0x78, 0xd5, 0x3c, 0x46, 0x00, 0x00, 0x00, 0x73, 0x65, 0x71, 0x75,
  0x65, 0x6e, 0x74, 0x69, 0x61, 0x6c, 0x2f, 0x64, 0x65, 0x6e, 0x73, 0x65,
  0x2f, 0x4d, 0x61, 0x74, 0x4d, 0x75, 0x6c, 0x3b, 0x73, 0x65, 0x71, 0x75,
  0x65, 0x6e, 0x74, 0x69, 0x61, 0x6c, 0x2f, 0x64, 0x65, 0x6e, 0x73, 0x65,
  0x2f, 0x52, 0x65, 0x6c, 0x75, 0x3b, 0x73, 0x65, 0x71, 0x75, 0x65, 0x6e,
  0x74, 0x69, 0x61, 0x6c, 0x2f, 0x64, 0x65, 0x6e, 0x73, 0x65, 0x2f, 0x42,
  0x69, 0x61, 0x73, 0x41, 0x64, 0x64, 0x00, 0x00, 0x02, 0x00, 0x00, 0x00,
  0x01, 0x00, 0x00, 0x00, 0x20, 0x00, 0x00, 0x00, 0x26, 0xfb, 0xff, 0xff,
  0x00, 0x00, 0x00, 0x01, 0x18, 0x00, 0x00, 0x00, 0x20, 0x00, 0x00, 0x00,
  0x3c, 0x00, 0x00, 0x00, 0x14, 0x00, 0x00, 0x00, 0x00, 0x00, 0x00, 0x09,
  0x50, 0x00, 0x00, 0x00, 0x02, 0x00, 0x00, 0x00, 0xff, 0xff, 0xff, 0xff,
  0x80, 0x00, 0x00, 0x00, 0x2c, 0xef, 0xff, 0xff, 0x08, 0x00, 0x00, 0x00,
  0x10, 0x00, 0x00, 0x00, 0x01, 0x00, 0x00, 0x00, 0x80, 0xff, 0xff, 0xff,
  0xff, 0xff, 0xff, 0xff, 0x01, 0x00, 0x00, 0x00, 0x6c, 0x7a, 0x8c, 0x3c,
  0x1a, 0x00, 0x00, 0x00, 0x73, 0x65, 0x71, 0x75, 0x65, 0x6e, 0x74, 0x69,
  0x61, 0x6c, 0x2f, 0x66, 0x6c, 0x61, 0x74, 0x74, 0x65, 0x6e, 0x2f, 0x52,
  0x65, 0x73, 0x68, 0x61, 0x70, 0x65, 0x00, 0x00, 0x02, 0x00, 0x00, 0x00,
  0x01, 0x00, 0x00, 0x00, 0x80, 0x00, 0x00, 0x00, 0x9e, 0xfb, 0xff, 0xff,
  0x00, 0x00, 0x00, 0x01, 0x18, 0x00, 0x00, 0x00, 0x28, 0x00, 0x00, 0x00,
  0x44, 0x00, 0x00, 0x00, 0x13, 0x00, 0x00, 0x00, 0x00, 0x00, 0x00, 0x09,
  0x60, 0x00, 0x00, 0x00, 0x04, 0x00, 0x00, 0x00, 0xff, 0xff, 0xff, 0xff,
  0x02, 0x00, 0x00, 0x00, 0x02, 0x00, 0x00, 0x00, 0x20, 0x00, 0x00, 0x00,
  0xac, 0xef, 0xff, 0xff, 0x08, 0x00, 0x00, 0x00, 0x10, 0x00, 0x00, 0x00,
  0x01, 0x00, 0x00, 0x00, 0x80, 0xff, 0xff, 0xff, 0xff, 0xff, 0xff, 0xff,
  0x01, 0x00, 0x00, 0x00, 0x6c, 0x7a, 0x8c, 0x3c, 0x22, 0x00, 0x00, 0x00,
  0x73, 0x65, 0x71, 0x75, 0x65, 0x6e, 0x74, 0x69, 0x61, 0x6c, 0x2f, 0x6d,
  0x61, 0x78, 0x5f, 0x70, 0x6f, 0x6f, 0x6c, 0x69, 0x6e, 0x67, 0x32, 0x64,
  0x5f, 0x32, 0x2f, 0x4d, 0x61, 0x78, 0x50, 0x6f, 0x6f, 0x6c, 0x00, 0x00,
  0x04, 0x00, 0x00, 0x00, 0x01, 0x00, 0x00, 0x00, 0x02, 0x00, 0x00, 0x00,
  0x02, 0x00, 0x00, 0x00, 0x20, 0x00, 0x00, 0x00, 0x2e, 0xfc, 0xff, 0xff,
  0x00, 0x00, 0x00, 0x01, 0x18, 0x00, 0x00, 0x00, 0x28, 0x00, 0x00, 0x00,
  0x44, 0x00, 0x00, 0x00, 0x12, 0x00, 0x00, 0x00, 0x00, 0x00, 0x00, 0x09,
  0xb8, 0x00, 0x00, 0x00, 0x04, 0x00, 0x00, 0x00, 0xff, 0xff, 0xff, 0xff,
  0x04, 0x00, 0x00, 0x00, 0x04, 0x00, 0x00, 0x00, 0x20, 0x00, 0x00, 0x00,
  0x3c, 0xf0, 0xff, 0xff, 0x08, 0x00, 0x00, 0x00, 0x10, 0x00, 0x00, 0x00,
  0x01, 0x00, 0x00, 0x00, 0x80, 0xff, 0xff, 0xff, 0xff, 0xff, 0xff, 0xff,
  0x01, 0x00, 0x00, 0x00, 0x6c, 0x7a, 0x8c, 0x3c, 0x7a, 0x00, 0x00, 0x00,
  0x73, 0x65, 0x71, 0x75, 0x65, 0x6e, 0x74, 0x69, 0x61, 0x6c, 0x2f, 0x63,
  0x6f, 0x6e, 0x76, 0x32, 0x64, 0x5f, 0x32, 0x2f, 0x52, 0x65, 0x6c, 0x75,
  0x3b, 0x73, 0x65, 0x71, 0x75, 0x65, 0x6e, 0x74, 0x69, 0x61, 0x6c, 0x2f,
  0x63, 0x6f, 0x6e, 0x76, 0x32, 0x64, 0x5f, 0x32, 0x2f, 0x42, 0x69, 0x61,
  0x73, 0x41, 0x64, 0x64, 0x3b, 0x73, 0x65, 0x71, 0x75, 0x65, 0x6e, 0x74,
  0x69, 0x61, 0x6c, 0x2f, 0x63, 0x6f, 0x6e, 0x76, 0x32, 0x64, 0x5f, 0x32,
  0x2f, 0x43, 0x6f, 0x6e, 0x76, 0x32, 0x44, 0x3b, 0x73, 0x65, 0x71, 0x75,
  0x65, 0x6e, 0x74, 0x69, 0x61, 0x6c, 0x2f, 0x63, 0x6f, 0x6e, 0x76, 0x32,
  0x64, 0x5f, 0x32, 0x2f, 0x42, 0x69, 0x61, 0x73, 0x41, 0x64, 0x64, 0x2f,
  0x52, 0x65, 0x61, 0x64, 0x56, 0x61, 0x72, 0x69, 0x61, 0x62, 0x6c, 0x65,
  0x4f, 0x70, 0x00, 0x00, 0x04, 0x00, 0x00, 0x00, 0x01, 0x00, 0x00, 0x00,
  0x04, 0x00, 0x00, 0x00, 0x04, 0x00, 0x00, 0x00, 0x20, 0x00, 0x00, 0x00,
  0x16, 0xfd, 0xff, 0xff, 0x00, 0x00, 0x00, 0x01, 0x18, 0x00, 0x00, 0x00,
  0x28, 0x00, 0x00, 0x00, 0x44, 0x00, 0x00, 0x00, 0x11, 0x00, 0x00, 0x00,
  0x00, 0x00, 0x00, 0x09, 0x60, 0x00, 0x00, 0x00, 0x04, 0x00, 0x00, 0x00,
  0xff, 0xff, 0xff, 0xff, 0x06, 0x00, 0x00, 0x00, 0x06, 0x00, 0x00, 0x00,
  0x10, 0x00, 0x00, 0x00, 0x24, 0xf1, 0xff, 0xff, 0x08, 0x00, 0x00, 0x00,
  0x10, 0x00, 0x00, 0x00, 0x01, 0x00, 0x00, 0x00, 0x80, 0xff, 0xff, 0xff,
  0xff, 0xff, 0xff, 0xff, 0x01, 0x00, 0x00, 0x00, 0x26, 0xb6, 0x22, 0x3c,
  0x22, 0x00, 0x00, 0x00, 0x73, 0x65, 0x71, 0x75, 0x65, 0x6e, 0x74, 0x69,
  0x61, 0x6c, 0x2f, 0x6d, 0x61, 0x78, 0x5f, 0x70, 0x6f, 0x6f, 0x6c, 0x69,
  0x6e, 0x67, 0x32, 0x64, 0x5f, 0x31, 0x2f, 0x4d, 0x61, 0x78, 0x50, 0x6f,
  0x6f, 0x6c, 0x00, 0x00, 0x04, 0x00, 0x00, 0x00, 0x01, 0x00, 0x00, 0x00,
  0x06, 0x00, 0x00, 0x00, 0x06, 0x00, 0x00, 0x00, 0x10, 0x00, 0x00, 0x00,
  0xa6, 0xfd, 0xff, 0xff, 0x00, 0x00, 0x00, 0x01, 0x18, 0x00, 0x00, 0x00,
  0x28, 0x00, 0x00, 0x00, 0x44, 0x00, 0x00, 0x00, 0x10, 0x00, 0x00, 0x00,
  0x00, 0x00, 0x00, 0x09, 0xb8, 0x00, 0x00, 0x00, 0x04, 0x00, 0x00, 0x00,
  0xff, 0xff, 0xff, 0xff, 0x0d, 0x00, 0x00, 0x00, 0x0d, 0x00, 0x00, 0x00,
  0x10, 0x00, 0x00, 0x00, 0xb4, 0xf1, 0xff, 0xff, 0x08, 0x00, 0x00, 0x00,
  0x10, 0x00, 0x00, 0x00, 0x01, 0x00, 0x00, 0x00, 0x80, 0xff, 0xff, 0xff,
  0xff, 0xff, 0xff, 0xff, 0x01, 0x00, 0x00, 0x00, 0x26, 0xb6, 0x22, 0x3c,
  0x7a, 0x00, 0x00, 0x00, 0x73, 0x65, 0x71, 0x75, 0x65, 0x6e, 0x74, 0x69,
  0x61, 0x6c, 0x2f, 0x63, 0x6f, 0x6e, 0x76, 0x32, 0x64, 0x5f, 0x31, 0x2f,
  0x52, 0x65, 0x6c, 0x75, 0x3b, 0x73, 0x65, 0x71, 0x75, 0x65, 0x6e, 0x74,
  0x69, 0x61, 0x6c, 0x2f, 0x63, 0x6f, 0x6e, 0x76, 0x32, 0x64, 0x5f, 0x31,
  0x2f, 0x42, 0x69, 0x61, 0x73, 0x41, 0x64, 0x64, 0x3b, 0x73, 0x65, 0x71,
  0x75, 0x65, 0x6e, 0x74, 0x69, 0x61, 0x6c, 0x2f, 0x63, 0x6f, 0x6e, 0x76,
  0x32, 0x64, 0x5f, 0x31, 0x2f, 0x43, 0x6f, 0x6e, 0x76, 0x32, 0x44, 0x3b,
  0x73, 0x65, 0x71, 0x75, 0x65, 0x6e, 0x74, 0x69, 0x61, 0x6c, 0x2f, 0x63,
  0x6f, 0x6e, 0x76, 0x32, 0x64, 0x5f, 0x31, 0x2f, 0x42, 0x69, 0x61, 0x73,
  0x41, 0x64, 0x64, 0x2f, 0x52, 0x65, 0x61, 0x64, 0x56, 0x61, 0x72, 0x69,
  0x61, 0x62, 0x6c, 0x65, 0x4f, 0x70, 0x00, 0x00, 0x04, 0x00, 0x00, 0x00,
  0x01, 0x00, 0x00, 0x00, 0x0d, 0x00, 0x00, 0x00, 0x0d, 0x00, 0x00, 0x00,
  0x10, 0x00, 0x00, 0x00, 0x8e, 0xfe, 0xff, 0xff, 0x00, 0x00, 0x00, 0x01,
  0x18, 0x00, 0x00, 0x00, 0x28, 0x00, 0x00, 0x00, 0x44, 0x00, 0x00, 0x00,
  0x0f, 0x00, 0x00, 0x00, 0x00, 0x00, 0x00, 0x09, 0x60, 0x00, 0x00, 0x00,
  0x04, 0x00, 0x00, 0x00, 0xff, 0xff, 0xff, 0xff, 0x0f, 0x00, 0x00, 0x00,
  0x0f, 0x00, 0x00, 0x00, 0x08, 0x00, 0x00, 0x00, 0x9c, 0xf2, 0xff, 0xff,
  0x08, 0x00, 0x00, 0x00, 0x10, 0x00, 0x00, 0x00, 0x01, 0x00, 0x00, 0x00,
  0x80, 0xff, 0xff, 0xff, 0xff, 0xff, 0xff, 0xff, 0x01, 0x00, 0x00, 0x00,
  0x06, 0x47, 0xb7, 0x3b, 0x20, 0x00, 0x00, 0x00, 0x73, 0x65, 0x71, 0x75,
  0x65, 0x6e, 0x74, 0x69, 0x61, 0x6c, 0x2f, 0x6d, 0x61, 0x78, 0x5f, 0x70,
  0x6f, 0x6f, 0x6c, 0x69, 0x6e, 0x67, 0x32, 0x64, 0x2f, 0x4d, 0x61, 0x78,
  0x50, 0x6f, 0x6f, 0x6c, 0x00, 0x00, 0x00, 0x00, 0x04, 0x00, 0x00, 0x00,
  0x01, 0x00, 0x00, 0x00, 0x0f, 0x00, 0x00, 0x00, 0x0f, 0x00, 0x00, 0x00,
  0x08, 0x00, 0x00, 0x00, 0x1e, 0xff, 0xff, 0xff, 0x00, 0x00, 0x00, 0x01,
  0x18, 0x00, 0x00, 0x00, 0x28, 0x00, 0x00, 0x00, 0x44, 0x00, 0x00, 0x00,
  0x0e, 0x00, 0x00, 0x00, 0x00, 0x00, 0x00, 0x09, 0xb0, 0x00, 0x00, 0x00,
  0x04, 0x00, 0x00, 0x00, 0xff, 0xff, 0xff, 0xff, 0x1e, 0x00, 0x00, 0x00,
  0x1e, 0x00, 0x00, 0x00, 0x08, 0x00, 0x00, 0x00, 0x2c, 0xf3, 0xff, 0xff,
  0x08, 0x00, 0x00, 0x00, 0x10, 0x00, 0x00, 0x00, 0x01, 0x00, 0x00, 0x00,
  0x80, 0xff, 0xff, 0xff, 0xff, 0xff, 0xff, 0xff, 0x01, 0x00, 0x00, 0x00,
  0x06, 0x47, 0xb7, 0x3b, 0x73, 0x00, 0x00, 0x00, 0x73, 0x65, 0x71, 0x75,
  0x65, 0x6e, 0x74, 0x69, 0x61, 0x6c, 0x2f, 0x63, 0x6f, 0x6e, 0x76, 0x32,
  0x64, 0x2f, 0x52, 0x65, 0x6c, 0x75, 0x3b, 0x73, 0x65, 0x71, 0x75, 0x65,
  0x6e, 0x74, 0x69, 0x61, 0x6c, 0x2f, 0x63, 0x6f, 0x6e, 0x76, 0x32, 0x64,
  0x2f, 0x42, 0x69, 0x61, 0x73, 0x41, 0x64, 0x64, 0x3b, 0x73, 0x65, 0x71,
  0x75, 0x65, 0x6e, 0x74, 0x69, 0x61, 0x6c, 0x2f, 0x63, 0x6f, 0x6e, 0x76,
  0x32, 0x64, 0x2f, 0x43, 0x6f, 0x6e, 0x76, 0x32, 0x44, 0x3b, 0x73, 0x65,
  0x71, 0x75, 0x65, 0x6e, 0x74, 0x69, 0x61, 0x6c, 0x2f, 0x63, 0x6f, 0x6e,
  0x76, 0x32, 0x64, 0x2f, 0x42, 0x69, 0x61, 0x73, 0x41, 0x64, 0x64, 0x2f,
  0x52, 0x65, 0x61, 0x64, 0x56, 0x61, 0x72, 0x69, 0x61, 0x62, 0x6c, 0x65,
  0x4f, 0x70, 0x31, 0x00, 0x04, 0x00, 0x00, 0x00, 0x01, 0x00, 0x00, 0x00,
  0x1e, 0x00, 0x00, 0x00, 0x1e, 0x00, 0x00, 0x00, 0x08, 0x00, 0x00, 0x00,
  0x00, 0x00, 0x16, 0x00, 0x20, 0x00, 0x1c, 0x00, 0x1b, 0x00, 0x14, 0x00,
  0x10, 0x00, 0x0c, 0x00, 0x00, 0x00, 0x00, 0x00, 0x08, 0x00, 0x07, 0x00,
  0x16, 0x00, 0x00, 0x00, 0x00, 0x00, 0x00, 0x01, 0x18, 0x00, 0x00, 0x00,
  0x28, 0x00, 0x00, 0x00, 0x48, 0x00, 0x00, 0x00, 0x0d, 0x00, 0x00, 0x00,
  0x00, 0x00, 0x00, 0x09, 0x50, 0x00, 0x00, 0x00, 0x04, 0x00, 0x00, 0x00,
  0xff, 0xff, 0xff, 0xff, 0x20, 0x00, 0x00, 0x00, 0x20, 0x00, 0x00, 0x00,
  0x01, 0x00, 0x00, 0x00, 0x24, 0xf4, 0xff, 0xff, 0x08, 0x00, 0x00, 0x00,
  0x14, 0x00, 0x00, 0x00, 0x01, 0x00, 0x00, 0x00, 0x80, 0xff, 0xff, 0xff,
  0xff, 0xff, 0xff, 0xff, 0x00, 0x00, 0x00, 0x00, 0x01, 0x00, 0x00, 0x00,
  0x37, 0x7d, 0x80, 0x3b, 0x0c, 0x00, 0x00, 0x00, 0x74, 0x66, 0x6c, 0x2e,
  0x71, 0x75, 0x61, 0x6e, 0x74, 0x69, 0x7a, 0x65, 0x00, 0x00, 0x00, 0x00,
  0x04, 0x00, 0x00, 0x00, 0x01, 0x00, 0x00, 0x00, 0x20, 0x00, 0x00, 0x00,
  0x20, 0x00, 0x00, 0x00, 0x01, 0x00, 0x00, 0x00, 0x06, 0xf4, 0xff, 0xff,
  0x00, 0x00, 0x00, 0x01, 0x14, 0x00, 0x00, 0x00, 0x88, 0x00, 0x00, 0x00,
  0x0c, 0x00, 0x00, 0x00, 0x00, 0x00, 0x00, 0x09, 0x94, 0x00, 0x00, 0x00,
  0x8c, 0xf4, 0xff, 0xff, 0x08, 0x00, 0x00, 0x00, 0x4c, 0x00, 0x00, 0x00,
  0x08, 0x00, 0x00, 0x00, 0x00, 0x00, 0x00, 0x00, 0x00, 0x00, 0x00, 0x00,
  0x00, 0x00, 0x00, 0x00, 0x00, 0x00, 0x00, 0x00, 0x00, 0x00, 0x00, 0x00,
  0x00, 0x00, 0x00, 0x00, 0x00, 0x00, 0x00, 0x00, 0x00, 0x00, 0x00, 0x00,
  0x00, 0x00, 0x00, 0x00, 0x00, 0x00, 0x00, 0x00, 0x00, 0x00, 0x00, 0x00,
  0x00, 0x00, 0x00, 0x00, 0x00, 0x00, 0x00, 0x00, 0x00, 0x00, 0x00, 0x00,
  0x00, 0x00, 0x00, 0x00, 0x00, 0x00, 0x00, 0x00, 0x00, 0x00, 0x00, 0x00,
  0x08, 0x00, 0x00, 0x00, 0x7e, 0x17, 0x4f, 0x3b, 0x05, 0xb8, 0x2b, 0x3b,
  0xad, 0x5f, 0x4f, 0x3b, 0x48, 0x4b, 0x5d, 0x3b, 0xcf, 0x17, 0x43, 0x3b,
  0xf4, 0x88, 0x3d, 0x3b, 0x9b, 0xd5, 0x4c, 0x3b, 0xe9, 0x11, 0x0c, 0x3b,
  0x12, 0x00, 0x00, 0x00, 0x74, 0x66, 0x6c, 0x2e, 0x70, 0x73, 0x65, 0x75,
  0x64, 0x6f, 0x5f, 0x71, 0x63, 0x6f, 0x6e, 0x73, 0x74, 0x39, 0x00, 0x00,
  0x04, 0x00, 0x00, 0x00, 0x08, 0x00, 0x00, 0x00, 0x03, 0x00, 0x00, 0x00,
  0x03, 0x00, 0x00, 0x00, 0x01, 0x00, 0x00, 0x00, 0xc6, 0xf4, 0xff, 0xff,
  0x00, 0x00, 0x00, 0x01, 0x14, 0x00, 0x00, 0x00, 0x84, 0x00, 0x00, 0x00,
  0x0b, 0x00, 0x00, 0x00, 0x00, 0x00, 0x00, 0x02, 0x90, 0x00, 0x00, 0x00,
  0x4c, 0xf5, 0xff, 0xff, 0x08, 0x00, 0x00, 0x00, 0x48, 0x00, 0x00, 0x00,
  0x08, 0x00, 0x00, 0x00, 0x00, 0x00, 0x00, 0x00, 0x00, 0x00, 0x00, 0x00,
  0x00, 0x00, 0x00, 0x00, 0x00, 0x00, 0x00, 0x00, 0x00, 0x00, 0x00, 0x00,
  0x00, 0x00, 0x00, 0x00, 0x00, 0x00, 0x00, 0x00, 0x00, 0x00, 0x00, 0x00,
  0x00, 0x00, 0x00, 0x00, 0x00, 0x00, 0x00, 0x00, 0x00, 0x00, 0x00, 0x00,
  0x00, 0x00, 0x00, 0x00, 0x00, 0x00, 0x00, 0x00, 0x00, 0x00, 0x00, 0x00,
  0x00, 0x00, 0x00, 0x00, 0x00, 0x00, 0x00, 0x00, 0x08, 0x00, 0x00, 0x00,
  0x14, 0xe2, 0x4f, 0x37, 0x00, 0x60, 0x2c, 0x37, 0x8a, 0x2a, 0x50, 0x37,
  0xc3, 0x23, 0x5e, 0x37, 0xa8, 0xd6, 0x43, 0x37, 0x5d, 0x42, 0x3e, 0x37,
  0xfc, 0x9d, 0x4d, 0x37, 0xef, 0x9a, 0x0c, 0x37, 0x12, 0x00, 0x00, 0x00,
  0x74, 0x66, 0x6c, 0x2e, 0x70, 0x73, 0x65, 0x75, 0x64, 0x6f, 0x5f, 0x71,
  0x63, 0x6f, 0x6e, 0x73, 0x74, 0x38, 0x00, 0x00, 0x01, 0x00, 0x00, 0x00,
  0x08, 0x00, 0x00, 0x00, 0x76, 0xf5, 0xff, 0xff, 0x00, 0x00, 0x00, 0x01,
  0x14, 0x00, 0x00, 0x00, 0xe8, 0x00, 0x00, 0x00, 0x0a, 0x00, 0x00, 0x00,
  0x00, 0x00, 0x00, 0x09, 0xf4, 0x00, 0x00, 0x00, 0xfc, 0xf5, 0xff, 0xff,
  0x08, 0x00, 0x00, 0x00, 0x8c, 0x00, 0x00, 0x00, 0x10, 0x00, 0x00, 0x00,
  0x00, 0x00, 0x00, 0x00, 0x00, 0x00, 0x00, 0x00, 0x00, 0x00, 0x00, 0x00,
  0x00, 0x00, 0x00, 0x00, 0x00, 0x00, 0x00, 0x00, 0x00, 0x00, 0x00, 0x00,
  0x00, 0x00, 0x00, 0x00, 0x00, 0x00, 0x00, 0x00, 0x00, 0x00, 0x00, 0x00,
  0x00, 0x00, 0x00, 0x00, 0x00, 0x00, 0x00, 0x00, 0x00, 0x00, 0x00, 0x00,
  0x00, 0x00, 0x00, 0x00, 0x00, 0x00, 0x00, 0x00, 0x00, 0x00, 0x00, 0x00,
  0x00, 0x00, 0x00, 0x00, 0x00, 0x00, 0x00, 0x00, 0x00, 0x00, 0x00, 0x00,
  0x00, 0x00, 0x00, 0x00, 0x00, 0x00, 0x00, 0x00, 0x00, 0x00, 0x00, 0x00,
  0x00, 0x00, 0x00, 0x00, 0x00, 0x00, 0x00, 0x00, 0x00, 0x00, 0x00, 0x00,
  0x00, 0x00, 0x00, 0x00, 0x00, 0x00, 0x00, 0x00, 0x00, 0x00, 0x00, 0x00,
  0x00, 0x00, 0x00, 0x00, 0x00, 0x00, 0x00, 0x00, 0x00, 0x00, 0x00, 0x00,
  0x00, 0x00, 0x00, 0x00, 0x00, 0x00, 0x00, 0x00, 0x00, 0x00, 0x00, 0x00,
  0x10, 0x00, 0x00, 0x00, 0x68, 0x42, 0x2c, 0x3b, 0xca, 0x2e, 0x4b, 0x3b,
  0xda, 0x83, 0x46, 0x3b, 0x06, 0x18, 0x27, 0x3b, 0xcf, 0x83, 0x05, 0x3b,
  0xf7, 0x4e, 0x3f, 0x3b, 0xe8, 0xf3, 0x18, 0x3b, 0xe1, 0x9d, 0x4b, 0x3b,
  0x28, 0x9f, 0x1f, 0x3b, 0xed, 0x36, 0x33, 0x3b, 0x77, 0x96, 0x20, 0x3b,
  0x69, 0x65, 0x0f, 0x3b, 0xc4, 0xc8, 0xff, 0x3a, 0x33, 0x5b, 0x21, 0x3b,
  0x14, 0x09, 0xfa, 0x3a, 0xba, 0x49, 0x23, 0x3b, 0x12, 0x00, 0x00, 0x00,
  0x74, 0x66, 0x6c, 0x2e, 0x70, 0x73, 0x65, 0x75, 0x64, 0x6f, 0x5f, 0x71,
  0x63, 0x6f, 0x6e, 0x73, 0x74, 0x37, 0x00, 0x00, 0x04, 0x00, 0x00, 0x00,
  0x10, 0x00, 0x00, 0x00, 0x03, 0x00, 0x00, 0x00, 0x03, 0x00, 0x00, 0x00,
  0x08, 0x00, 0x00, 0x00, 0x96, 0xf6, 0xff, 0xff, 0x00, 0x00, 0x00, 0x01,
  0x14, 0x00, 0x00, 0x00, 0xe4, 0x00, 0x00, 0x00, 0x09, 0x00, 0x00, 0x00,
  0x00, 0x00, 0x00, 0x02, 0xf0, 0x00, 0x00, 0x00, 0x1c, 0xf7, 0xff, 0xff,
  0x08, 0x00, 0x00, 0x00, 0x88, 0x00, 0x00, 0x00, 0x10, 0x00, 0x00, 0x00,
  0x00, 0x00, 0x00, 0x00, 0x00, 0x00, 0x00, 0x00, 0x00, 0x00, 0x00, 0x00,
  0x00, 0x00, 0x00, 0x00, 0x00, 0x00, 0x00, 0x00, 0x00, 0x00, 0x00, 0x00,
  0x00, 0x00, 0x00, 0x00, 0x00, 0x00, 0x00, 0x00, 0x00, 0x00, 0x00, 0x00,
  0x00, 0x00, 0x00, 0x00, 0x00, 0x00, 0x00, 0x00, 0x00, 0x00, 0x00, 0x00,
  0x00, 0x00, 0x00, 0x00, 0x00, 0x00, 0x00, 0x00, 0x00, 0x00, 0x00, 0x00,
  0x00, 0x00, 0x00, 0x00, 0x00, 0x00, 0x00, 0x00, 0x00, 0x00, 0x00, 0x00,
  0x00, 0x00, 0x00, 0x00, 0x00, 0x00, 0x00, 0x00, 0x00, 0x00, 0x00, 0x00,
  0x00, 0x00, 0x00, 0x00, 0x00, 0x00, 0x00, 0x00, 0x00, 0x00, 0x00, 0x00,
  0x00, 0x00, 0x00, 0x00, 0x00, 0x00, 0x00, 0x00, 0x00, 0x00, 0x00, 0x00,
  0x00, 0x00, 0x00, 0x00, 0x00, 0x00, 0x00, 0x00, 0x00, 0x00, 0x00, 0x00,
  0x00, 0x00, 0x00, 0x00, 0x00, 0x00, 0x00, 0x00, 0x10, 0x00, 0x00, 0x00,
  0x86, 0xa6, 0x76, 0x37, 0xd1, 0x76, 0x91, 0x37, 0x54, 0x1f, 0x8e, 0x37,
  0x10, 0x41, 0x6f, 0x37, 0x87, 0x2c, 0x3f, 0x37, 0x86, 0xf6, 0x88, 0x37,
  0x94, 0x01, 0x5b, 0x37, 0x59, 0xc6, 0x91, 0x37, 0x1d, 0x8e, 0x64, 0x37,
  0xfc, 0x4d, 0x80, 0x37, 0x39, 0xf0, 0x65, 0x37, 0x8d, 0x52, 0x4d, 0x37,
  0x7b, 0x1f, 0x37, 0x37, 0xeb, 0x09, 0x67, 0x37, 0xdc, 0x01, 0x33, 0x37,
  0x02, 0xce, 0x69, 0x37, 0x12, 0x00, 0x00, 0x00, 0x74, 0x66, 0x6c, 0x2e,
  0x70, 0x73, 0x65, 0x75, 0x64, 0x6f, 0x5f, 0x71, 0x63, 0x6f, 0x6e, 0x73,
  0x74, 0x36, 0x00, 0x00, 0x01, 0x00, 0x00, 0x00, 0x10, 0x00, 0x00, 0x00,
  0xa6, 0xf7, 0xff, 0xff, 0x00, 0x00, 0x00, 0x01, 0x14, 0x00, 0x00, 0x00,
  0xa8, 0x01, 0x00, 0x00, 0x08, 0x00, 0x00, 0x00, 0x00, 0x00, 0x00, 0x09,
  0xb4, 0x01, 0x00, 0x00, 0x2c, 0xf8, 0xff, 0xff, 0x08, 0x00, 0x00, 0x00,
  0x0c, 0x01, 0x00, 0x00, 0x20, 0x00, 0x00, 0x00, 0x00, 0x00, 0x00, 0x00,
  0x00, 0x00, 0x00, 0x00, 0x00, 0x00, 0x00, 0x00, 0x00, 0x00, 0x00, 0x00,
  0x00, 0x00, 0x00, 0x00, 0x00, 0x00, 0x00, 0x00, 0x00, 0x00, 0x00, 0x00,
  0x00, 0x00, 0x00, 0x00, 0x00, 0x00, 0x00, 0x00, 0x00, 0x00, 0x00, 0x00,
  0x00, 0x00, 0x00, 0x00, 0x00, 0x00, 0x00, 0x00, 0x00, 0x00, 0x00, 0x00,
  0x00, 0x00, 0x00, 0x00, 0x00, 0x00, 0x00, 0x00, 0x00, 0x00, 0x00, 0x00,
  0x00, 0x00, 0x00, 0x00, 0x00, 0x00, 0x00, 0x00, 0x00, 0x00, 0x00, 0x00,
  0x00, 0x00, 0x00, 0x00, 0x00, 0x00, 0x00, 0x00, 0x00, 0x00, 0x00, 0x00,
  0x00, 0x00, 0x00, 0x00, 0x00, 0x00, 0x00, 0x00, 0x00, 0x00, 0x00, 0x00,
  0x00, 0x00, 0x00, 0x00, 0x00, 0x00, 0x00, 0x00, 0x00, 0x00, 0x00, 0x00,
  0x00, 0x00, 0x00, 0x00, 0x00, 0x00, 0x00, 0x00, 0x00, 0x00, 0x00, 0x00,
  0x00, 0x00, 0x00, 0x00, 0x00, 0x00, 0x00, 0x00, 0x00, 0x00, 0x00, 0x00,
  0x00, 0x00, 0x00, 0x00, 0x00, 0x00, 0x00, 0x00, 0x00, 0x00, 0x00, 0x00,
  0x00, 0x00, 0x00, 0x00, 0x00, 0x00, 0x00, 0x00, 0x00, 0x00, 0x00, 0x00,
  0x00, 0x00, 0x00, 0x00, 0x00, 0x00, 0x00, 0x00, 0x00, 0x00, 0x00, 0x00,
  0x00, 0x00, 0x00, 0x00, 0x00, 0x00, 0x00, 0x00, 0x00, 0x00, 0x00, 0x00,
  0x00, 0x00, 0x00, 0x00, 0x00, 0x00, 0x00, 0x00, 0x00, 0x00, 0x00, 0x00,
  0x00, 0x00, 0x00, 0x00, 0x00, 0x00, 0x00, 0x00, 0x00, 0x00, 0x00, 0x00,
  0x00, 0x00, 0x00, 0x00, 0x00, 0x00, 0x00, 0x00, 0x00, 0x00, 0x00, 0x00,
  0x00, 0x00, 0x00, 0x00, 0x00, 0x00, 0x00, 0x00, 0x00, 0x00, 0x00, 0x00,
  0x00, 0x00, 0x00, 0x00, 0x00, 0x00, 0x00, 0x00, 0x00, 0x00, 0x00, 0x00,
  0x00, 0x00, 0x00, 0x00, 0x00, 0x00, 0x00, 0x00, 0x00, 0x00, 0x00, 0x00,
  0x00, 0x00, 0x00, 0x00, 0x20, 0x00, 0x00, 0x00, 0x7d, 0x0d, 0xc4, 0x3a,
  0x18, 0x83, 0xb7, 0x3a, 0x21, 0x3d, 0x01, 0x3b, 0x8b, 0x72, 0xb2, 0x3a,
  0x99, 0x04, 0x19, 0x3b, 0x4d, 0xdb, 0xce, 0x3a, 0xa0, 0x40, 0x9c, 0x3a,
  0x12, 0x70, 0xeb, 0x3a, 0x85, 0x9c, 0x05, 0x3b, 0x6a, 0x38, 0x00, 0x3b,
  0x04, 0xdd, 0x34, 0x3b, 0x86, 0xc2, 0x14, 0x3b, 0x28, 0xa4, 0xd0, 0x3a,
  0xff, 0xac, 0xbd, 0x3a, 0xc8, 0x45, 0x39, 0x3b, 0x3e, 0xdb, 0xfe, 0x3a,
  0x0b, 0x98, 0x0c, 0x3b, 0xb2, 0x94, 0xd6, 0x3a, 0x16, 0x6d, 0xde, 0x3a,
  0xa5, 0x8f, 0xe6, 0x3a, 0x86, 0x8d, 0x87, 0x3a, 0x5d, 0xd3, 0xf7, 0x3a,
  0x89, 0x71, 0x83, 0x3a, 0x09, 0xfb, 0x07, 0x3b, 0x24, 0x77, 0x3b, 0x3b,
  0x9a, 0xfc, 0x0f, 0x3b, 0x3a, 0xf3, 0xa6, 0x3a, 0x48, 0x52, 0x05, 0x3b,
  0x24, 0x63, 0x0a, 0x3b, 0xc3, 0x7a, 0x31, 0x3b, 0x00, 0xbf, 0x8b, 0x3a,
  0x27, 0xac, 0x13, 0x3b, 0x12, 0x00, 0x00, 0x00, 0x74, 0x66, 0x6c, 0x2e,
  0x70, 0x73, 0x65, 0x75, 0x64, 0x6f, 0x5f, 0x71, 0x63, 0x6f, 0x6e, 0x73,
  0x74, 0x35, 0x00, 0x00, 0x04, 0x00, 0x00, 0x00, 0x20, 0x00, 0x00, 0x00,
  0x03, 0x00, 0x00, 0x00, 0x03, 0x00, 0x00, 0x00, 0x10, 0x00, 0x00, 0x00,
  0x86, 0xf9, 0xff, 0xff, 0x00, 0x00, 0x00, 0x01, 0x14, 0x00, 0x00, 0x00,
  0xa4, 0x01, 0x00, 0x00, 0x07, 0x00, 0x00, 0x00, 0x00, 0x00, 0x00, 0x02,
  0xb0, 0x01, 0x00, 0x00, 0x0c, 0xfa, 0xff, 0xff, 0x08, 0x00, 0x00, 0x00,
  0x08, 0x01, 0x00, 0x00, 0x20, 0x00, 0x00, 0x00, 0x00, 0x00, 0x00, 0x00,
  0x00, 0x00, 0x00, 0x00, 0x00, 0x00, 0x00, 0x00, 0x00, 0x00, 0x00, 0x00,
  0x00, 0x00, 0x00, 0x00, 0x00, 0x00, 0x00, 0x00, 0x00, 0x00, 0x00, 0x00,
  0x00, 0x00, 0x00, 0x00, 0x00, 0x00, 0x00, 0x00, 0x00, 0x00, 0x00, 0x00,
  0x00, 0x00, 0x00, 0x00, 0x00, 0x00, 0x00, 0x00, 0x00, 0x00, 0x00, 0x00,
  0x00, 0x00, 0x00, 0x00, 0x00, 0x00, 0x00, 0x00, 0x00, 0x00, 0x00, 0x00,
  0x00, 0x00, 0x00, 0x00, 0x00, 0x00, 0x00, 0x00, 0x00, 0x00, 0x00, 0x00,
  0x00, 0x00, 0x00, 0x00, 0x00, 0x00, 0x00, 0x00, 0x00, 0x00, 0x00, 0x00,
  0x00, 0x00, 0x00, 0x00, 0x00, 0x00, 0x00, 0x00, 0x00, 0x00, 0x00, 0x00,
  0x00, 0x00, 0x00, 0x00, 0x00, 0x00, 0x00, 0x00, 0x00, 0x00, 0x00, 0x00,
  0x00, 0x00, 0x00, 0x00, 0x00, 0x00, 0x00, 0x00, 0x00, 0x00, 0x00, 0x00,
  0x00, 0x00, 0x00, 0x00, 0x00, 0x00, 0x00, 0x00, 0x00, 0x00, 0x00, 0x00,
  0x00, 0x00, 0x00, 0x00, 0x00, 0x00, 0x00, 0x00, 0x00, 0x00, 0x00, 0x00,
  0x00, 0x00, 0x00, 0x00, 0x00, 0x00, 0x00, 0x00, 0x00, 0x00, 0x00, 0x00,
  0x00, 0x00, 0x00, 0x00, 0x00, 0x00, 0x00, 0x00, 0x00, 0x00, 0x00, 0x00,
  0x00, 0x00, 0x00, 0x00, 0x00, 0x00, 0x00, 0x00, 0x00, 0x00, 0x00, 0x00,
  0x00, 0x00, 0x00, 0x00, 0x00, 0x00, 0x00, 0x00, 0x00, 0x00, 0x00, 0x00,
  0x00, 0x00, 0x00, 0x00, 0x00, 0x00, 0x00, 0x00, 0x00, 0x00, 0x00, 0x00,
  0x00, 0x00, 0x00, 0x00, 0x00, 0x00, 0x00, 0x00, 0x00, 0x00, 0x00, 0x00,
  0x00, 0x00, 0x00, 0x00, 0x00, 0x00, 0x00, 0x00, 0x00, 0x00, 0x00, 0x00,
  0x00, 0x00, 0x00, 0x00, 0x00, 0x00, 0x00, 0x00, 0x00, 0x00, 0x00, 0x00,
  0x00, 0x00, 0x00, 0x00, 0x00, 0x00, 0x00, 0x00, 0x00, 0x00, 0x00, 0x00,
  0x20, 0x00, 0x00, 0x00, 0x10, 0x38, 0x79, 0x37, 0x0f, 0x47, 0x69, 0x37,
  0x47, 0x49, 0xa4, 0x37, 0xe8, 0xd6, 0x62, 0x37, 0x92, 0x83, 0xc2, 0x37,
  0xf5, 0x79, 0x83, 0x37, 0x25, 0xa0, 0x46, 0x37, 0x70, 0xa4, 0x95, 0x37,
  0x3b, 0xd8, 0xa9, 0x37, 0xdc, 0xfd, 0xa2, 0x37, 0x19, 0xe9, 0xe5, 0x37,
  0xe2, 0x19, 0xbd, 0x37, 0x55, 0x9c, 0x84, 0x37, 0xdd, 0x1c, 0x71, 0x37,
  0xf7, 0x83, 0xeb, 0x37, 0x13, 0xfc, 0xa1, 0x37, 0x80, 0xb8, 0xb2, 0x37,
  0xc6, 0x62, 0x88, 0x37, 0x4a, 0x5f, 0x8d, 0x37, 0xf3, 0x8a, 0x92, 0x37,
  0x03, 0x50, 0x2c, 0x37, 0x16, 0x84, 0x9d, 0x37, 0xbe, 0x16, 0x27, 0x37,
  0x39, 0xdb, 0xac, 0x37, 0x8f, 0x4d, 0xee, 0x37, 0x99, 0x08, 0xb7, 0x37,
  0x69, 0x39, 0x54, 0x37, 0xdc, 0x79, 0xa9, 0x37, 0x68, 0xea, 0xaf, 0x37,
  0xee, 0x9b, 0xe1, 0x37, 0x99, 0xa4, 0x31, 0x37, 0x06, 0xb8, 0xbb, 0x37,
  0x12, 0x00, 0x00, 0x00, 0x74, 0x66, 0x6c, 0x2e, 0x70, 0x73, 0x65, 0x75,
  0x64, 0x6f, 0x5f, 0x71, 0x63, 0x6f, 0x6e, 0x73, 0x74, 0x34, 0x00, 0x00,
  0x01, 0x00, 0x00, 0x00, 0x20, 0x00, 0x00, 0x00, 0x56, 0xfb, 0xff, 0xff,
  0x00, 0x00, 0x00, 0x01, 0x14, 0x00, 0x00, 0x00, 0xa8, 0x01, 0x00, 0x00,
  0x06, 0x00, 0x00, 0x00, 0x00, 0x00, 0x00, 0x09, 0xb4, 0x01, 0x00, 0x00,
  0xdc, 0xfb, 0xff, 0xff, 0x08, 0x00, 0x00, 0x00, 0x0c, 0x01, 0x00, 0x00,
  0x20, 0x00, 0x00, 0x00, 0x00, 0x00, 0x00, 0x00, 0x00, 0x00, 0x00, 0x00,
  0x00, 0x00, 0x00, 0x00, 0x00, 0x00, 0x00, 0x00, 0x00, 0x00, 0x00, 0x00,
  0x00, 0x00, 0x00, 0x00, 0x00, 0x00, 0x00, 0x00, 0x00, 0x00, 0x00, 0x00,
  0x00, 0x00, 0x00, 0x00, 0x00, 0x00, 0x00, 0x00, 0x00, 0x00, 0x00, 0x00,
  0x00, 0x00, 0x00, 0x00, 0x00, 0x00, 0x00, 0x00, 0x00, 0x00, 0x00, 0x00,
  0x00, 0x00, 0x00, 0x00, 0x00, 0x00, 0x00, 0x00, 0x00, 0x00, 0x00, 0x00,
  0x00, 0x00, 0x00, 0x00, 0x00, 0x00, 0x00, 0x00, 0x00, 0x00, 0x00, 0x00,
  0x00, 0x00, 0x00, 0x00, 0x00, 0x00, 0x00, 0x00, 0x00, 0x00, 0x00, 0x00,
  0x00, 0x00, 0x00, 0x00, 0x00, 0x00, 0x00, 0x00, 0x00, 0x00, 0x00, 0x00,
  0x00, 0x00, 0x00, 0x00, 0x00, 0x00, 0x00, 0x00, 0x00, 0x00, 0x00, 0x00,
  0x00, 0x00, 0x00, 0x00, 0x00, 0x00, 0x00, 0x00, 0x00, 0x00, 0x00, 0x00,
  0x00, 0x00, 0x00, 0x00, 0x00, 0x00, 0x00, 0x00, 0x00, 0x00, 0x00, 0x00,
  0x00, 0x00, 0x00, 0x00, 0x00, 0x00, 0x00, 0x00, 0x00, 0x00, 0x00, 0x00,
  0x00, 0x00, 0x00, 0x00, 0x00, 0x00, 0x00, 0x00, 0x00, 0x00, 0x00, 0x00,
  0x00, 0x00, 0x00, 0x00, 0x00, 0x00, 0x00, 0x00, 0x00, 0x00, 0x00, 0x00,
  0x00, 0x00, 0x00, 0x00, 0x00, 0x00, 0x00, 0x00, 0x00, 0x00, 0x00, 0x00,
  0x00, 0x00, 0x00, 0x00, 0x00, 0x00, 0x00, 0x00, 0x00, 0x00, 0x00, 0x00,
