const unsigned char model[] = {
  0x20, 0x00, 0x00, 0x00, 0x54, 0x46, 0x4c, 0x33, 0x00, 0x00, 0x00, 0x00,
  0x14, 0x00, 0x20, 0x00, 0x1c, 0x00, 0x18, 0x00, 0x14, 0x00, 0x10, 0x00,
  0x0c, 0x00, 0x00, 0x00, 0x08, 0x00, 0x04, 0x00, 0x14, 0x00, 0x00, 0x00,
  0x1c, 0x00, 0x00, 0x00, 0x88, 0x00, 0x00, 0x00, 0xe0, 0x00, 0x00, 0x00,
  0x1c, 0x2b, 0x00, 0x00, 0x2c, 0x2b, 0x00, 0x00, 0x24, 0x42, 0x00, 0x00,
  0x03, 0x00, 0x00, 0x00, 0x01, 0x00, 0x00, 0x00, 0x04, 0x00, 0x00, 0x00,
  0xd2, 0xd3, 0xff, 0xff, 0x0c, 0x00, 0x00, 0x00, 0x1c, 0x00, 0x00, 0x00,
  0x38, 0x00, 0x00, 0x00, 0x0f, 0x00, 0x00, 0x00, 0x73, 0x65, 0x72, 0x76,
  0x69, 0x6e, 0x67, 0x5f, 0x64, 0x65, 0x66, 0x61, 0x75, 0x6c, 0x74, 0x00,
  0x01, 0x00, 0x00, 0x00, 0x04, 0x00, 0x00, 0x00, 0x94, 0xff, 0xff, 0xff,
  0x15, 0x00, 0x00, 0x00, 0x04, 0x00, 0x00, 0x00, 0x07, 0x00, 0x00, 0x00,
  0x64, 0x65, 0x6e, 0x73, 0x65, 0x5f, 0x31, 0x00, 0x01, 0x00, 0x00, 0x00,
  0x04, 0x00, 0x00, 0x00, 0xb2, 0xd4, 0xff, 0xff, 0x04, 0x00, 0x00, 0x00,
  0x0c, 0x00, 0x00, 0x00, 0x63, 0x6f, 0x6e, 0x76, 0x32, 0x64, 0x5f, 0x69,
  0x6e, 0x70, 0x75, 0x74, 0x00, 0x00, 0x00, 0x00, 0x02, 0x00, 0x00, 0x00,
  0x34, 0x00, 0x00, 0x00, 0x04, 0x00, 0x00, 0x00, 0xdc, 0xff, 0xff, 0xff,
  0x18, 0x00, 0x00, 0x00, 0x04, 0x00, 0x00, 0x00, 0x13, 0x00, 0x00, 0x00,
  0x43, 0x4f, 0x4e, 0x56, 0x45, 0x52, 0x53, 0x49, 0x4f, 0x4e, 0x5f, 0x4d,
  0x45, 0x54, 0x41, 0x44, 0x41, 0x54, 0x41, 0x00, 0x08, 0x00, 0x0c, 0x00,
  0x08, 0x00, 0x04, 0x00, 0x08, 0x00, 0x00, 0x00, 0x17, 0x00, 0x00, 0x00,
  0x04, 0x00, 0x00, 0x00, 0x13, 0x00, 0x00, 0x00, 0x6d, 0x69, 0x6e, 0x5f,
  0x72, 0x75, 0x6e, 0x74, 0x69, 0x6d, 0x65, 0x5f, 0x76, 0x65, 0x72, 0x73,
  0x69, 0x6f, 0x6e, 0x00, 0x19, 0x00, 0x00, 0x00, 0x38, 0x2a, 0x00, 0x00,
  0x30, 0x2a, 0x00, 0x00, 0x18, 0x2a, 0x00, 0x00, 0xfc, 0x29, 0x00, 0x00,
  0x8c, 0x29, 0x00, 0x00, 0xfc, 0x28, 0x00, 0x00, 0xec, 0x18, 0x00, 0x00,
  0x5c, 0x18, 0x00, 0x00, 0x4c, 0x06, 0x00, 0x00, 0xfc, 0x05, 0x00, 0x00,
  0x6c, 0x01, 0x00, 0x00, 0x3c, 0x01, 0x00, 0x00, 0xe4, 0x00, 0x00, 0x00,
  0xdc, 0x00, 0x00, 0x00, 0xd4, 0x00, 0x00, 0x00, 0xcc, 0x00, 0x00, 0x00,
  0xc4, 0x00, 0x00, 0x00, 0xbc, 0x00, 0x00, 0x00, 0xb4, 0x00, 0x00, 0x00,
  0xac, 0x00, 0x00, 0x00, 0xa4, 0x00, 0x00, 0x00, 0x9c, 0x00, 0x00, 0x00,
  0x94, 0x00, 0x00, 0x00, 0x74, 0x00, 0x00, 0x00, 0x04, 0x00, 0x00, 0x00,
  0x92, 0xd5, 0xff, 0xff, 0x04, 0x00, 0x00, 0x00, 0x60, 0x00, 0x00, 0x00,
  0x0c, 0x00, 0x00, 0x00, 0x08, 0x00, 0x0e, 0x00, 0x08, 0x00, 0x04, 0x00,
  0x08, 0x00, 0x00, 0x00, 0x10, 0x00, 0x00, 0x00, 0x28, 0x00, 0x00, 0x00,
  0x00, 0x00, 0x06, 0x00, 0x08, 0x00, 0x04, 0x00, 0x06, 0x00, 0x00, 0x00,
  0x04, 0x00, 0x00, 0x00, 0x01, 0x00, 0x00, 0x00, 0xeb, 0x03, 0x00, 0x00,
  0x0c, 0x00, 0x18, 0x00, 0x14, 0x00, 0x10, 0x00, 0x0c, 0x00, 0x04, 0x00,
  0x0c, 0x00, 0x00, 0x00, 0xcc, 0xc8, 0x99, 0x98, 0xcf, 0xcc, 0xbd, 0x79,
  0x02, 0x00, 0x00, 0x00, 0x02, 0x00, 0x00, 0x00, 0x04, 0x00, 0x00, 0x00,
  0x06, 0x00, 0x00, 0x00, 0x32, 0x2e, 0x32, 0x30, 0x2e, 0x30, 0x00, 0x00,
  0xfe, 0xd5, 0xff, 0xff, 0x04, 0x00, 0x00, 0x00, 0x10, 0x00, 0x00, 0x00,
  0x31, 0x2e, 0x31, 0x34, 0x2e, 0x30, 0x00, 0x00, 0x00, 0x00, 0x00, 0x00,
  0x00, 0x00, 0x00, 0x00, 0x78, 0xc0, 0xff, 0xff, 0x7c, 0xc0, 0xff, 0xff,
  0x80, 0xc0, 0xff, 0xff, 0x84, 0xc0, 0xff, 0xff, 0x88, 0xc0, 0xff, 0xff,
  0x8c, 0xc0, 0xff, 0xff, 0x90, 0xc0, 0xff, 0xff, 0x94, 0xc0, 0xff, 0xff,
  0x98, 0xc0, 0xff, 0xff, 0x9c, 0xc0, 0xff, 0xff, 0x42, 0xd6, 0xff, 0xff,
  0x04, 0x00, 0x00, 0x00, 0x48, 0x00, 0x00, 0x00, 0x8f, 0x54, 0x00, 0x81,
  0x6b, 0x00, 0x00, 0x58, 0x00, 0x00, 0x00, 0x00, 0x53, 0x81, 0x00, 0x5a,
  0x00, 0x70, 0x00, 0x00, 0x7f, 0x00, 0x00, 0x8a, 0x00, 0x00, 0x00, 0x00,
  0x00, 0x00, 0xba, 0x00, 0xbd, 0x7f, 0x00, 0x00, 0x4c, 0x00, 0x47, 0x00,
  0x7f, 0x00, 0x6e, 0x00, 0x00, 0x00, 0x00, 0x7f, 0x00, 0x60, 0x00, 0x00,
  0x00, 0x9b, 0xb0, 0x00, 0x00, 0x00, 0x00, 0x00, 0x00, 0x7f, 0x00, 0x8b,
  0x7c, 0x67, 0x81, 0x56, 0x00, 0x00, 0x93, 0x00, 0x96, 0xd6, 0xff, 0xff,
  0x04, 0x00, 0x00, 0x00, 0x20, 0x00, 0x00, 0x00, 0xae, 0x01, 0x00, 0x00,
  0x74, 0xfe, 0xff, 0xff, 0x51, 0x03, 0x00, 0x00, 0xed, 0x1b, 0x00, 0x00,
  0x6f, 0xef, 0xff, 0xff, 0xf2, 0x2a, 0x00, 0x00, 0xbc, 0x10, 0x00, 0x00,
  0x42, 0xf7, 0xff, 0xff, 0xc2, 0xd6, 0xff, 0xff, 0x04, 0x00, 0x00, 0x00,
  0x80, 0x04, 0x00, 0x00, 0x42, 0x00, 0x00, 0x00, 0x00, 0x5b, 0x00, 0x00,
  0x81, 0x00, 0xc0, 0xad, 0x00, 0x8e, 0x83, 0x00, 0xb4, 0x78, 0x00, 0x00,
  0xc8, 0x44, 0x74, 0x00, 0x00, 0x38, 0x00, 0x00, 0xc9, 0x76, 0x00, 0x66,
  0x00, 0x00, 0x00, 0x00, 0x00, 0xad, 0x37, 0xc4, 0x00, 0x00, 0x00, 0x00,
  0x4a, 0x00, 0x44, 0x00, 0x00, 0x00, 0x00, 0x00, 0x00, 0x70, 0x4f, 0x4d,
  0x00, 0xb8, 0xaf, 0xa5, 0x00, 0x00, 0x41, 0x00, 0xcb, 0x00, 0x00, 0x00,
  0x00, 0xbe, 0x00, 0x00, 0x00, 0x00, 0xc4, 0x8b, 0x00, 0x00, 0x00, 0x00,
  0xc9, 0xcc, 0x00, 0xb0, 0x00, 0x00, 0xad, 0xcb, 0xa0, 0xb3, 0x00, 0x00,
  0x49, 0x3b, 0xbc, 0x44, 0x00, 0xc5, 0x00, 0xd0, 0x00, 0x00, 0x35, 0x00,
  0x00, 0xb7, 0x00, 0xa9, 0x54, 0x00, 0x00, 0xce, 0xa8, 0xb0, 0x3e, 0x00,
  0x00, 0xaa, 0x92, 0xae, 0x00, 0x00, 0x53, 0x7f, 0x00, 0x53, 0x7c, 0x72,
  0x91, 0x00, 0x45, 0x00, 0x50, 0x36, 0x00, 0x36, 0x85, 0x00, 0xce, 0x96,
  0x00, 0x00, 0x99, 0x00, 0xa9, 0x94, 0x3f, 0x00, 0x00, 0x00, 0x00, 0x00,
  0x8d, 0x00, 0x00, 0x00, 0x59, 0x7f, 0x00, 0x49, 0x00, 0x98, 0x00, 0xac,
  0x52, 0x73, 0x00, 0x00, 0xc4, 0x00, 0x00, 0x48, 0x00, 0x43, 0x00, 0x00,
  0xbd, 0xbc, 0x00, 0x4d, 0x54, 0x7b, 0x00, 0x00, 0xac, 0xa0, 0x00, 0x00,
  0x00, 0x00, 0x00, 0x00, 0xc1, 0xbd, 0x00, 0x00, 0x00, 0x3a, 0x00, 0x00,
  0x00, 0x00, 0x00, 0x00, 0xc6, 0x00, 0xb0, 0xaf, 0x00, 0x00, 0x00, 0x00,
  0xc5, 0x00, 0x40, 0x00, 0x00, 0x00, 0x00, 0xa4, 0x71, 0x00, 0x00, 0x00,
  0xc0, 0x00, 0x61, 0x00, 0x00, 0x00, 0x00, 0x00, 0xbe, 0x00, 0x62, 0x00,
  0x00, 0x55, 0xb3, 0x00, 0xc2, 0xbd, 0x41, 0x00, 0x51, 0x00, 0xc1, 0x00,
  0xb8, 0x00, 0x4b, 0x4c, 0x00, 0x00, 0x00, 0xad, 0x00, 0x00, 0x00, 0x00,
  0x00, 0x4e, 0x00, 0x00, 0x00, 0x00, 0x00, 0x00, 0xbb, 0x7f, 0x00, 0x55,
  0x00, 0x00, 0x00, 0x00, 0xb9, 0x00, 0x00, 0x00, 0x00, 0x00, 0x00, 0xc3,
  0x3b, 0x00, 0x00, 0xb4, 0x00, 0x00, 0x00, 0x00, 0x00, 0xc8, 0xcf, 0x00,
  0x00, 0xd0, 0x31, 0x00, 0xcd, 0x00, 0x00, 0x00, 0xb4, 0x39, 0x38, 0x32,
  0x00, 0x00, 0x00, 0xc0, 0xb1, 0x00, 0x00, 0xba, 0x00, 0x00, 0x00, 0x39,
  0xb4, 0x00, 0x00, 0x00, 0x4c, 0x00, 0x00, 0x00, 0x81, 0xca, 0x00, 0x00,
  0x40, 0x00, 0xb2, 0x00, 0x00, 0x36, 0x44, 0x00, 0x00, 0x4d, 0x57, 0x00,
  0x00, 0xb6, 0x00, 0x00, 0x48, 0x00, 0x00, 0x00, 0x00, 0x00, 0x00, 0xba,
  0x2f, 0x00, 0xca, 0xc2, 0x50, 0x00, 0xc4, 0xcf, 0x44, 0xa7, 0x35, 0x58,
  0x37, 0x45, 0x00, 0x00, 0x00, 0x00, 0x00, 0x00, 0x00, 0x00, 0x00, 0x00,
  0xc5, 0x00, 0x00, 0x00, 0x32, 0x4b, 0x00, 0x5b, 0x00, 0x00, 0x00, 0x53,
  0x00, 0x00, 0x00, 0x39, 0x00, 0x00, 0xbe, 0x3f, 0x00, 0x66, 0x00, 0x00,
  0x3f, 0xa8, 0x00, 0x00, 0x59, 0x67, 0x58, 0x7f, 0x37, 0x00, 0xce, 0x00,
  0x00, 0x00, 0x00, 0x00, 0x00, 0x33, 0x00, 0x4b, 0x48, 0x38, 0x00, 0x00,
  0x3b, 0xb5, 0x00, 0xcb, 0xb3, 0xc8, 0x4b, 0x2e, 0x00, 0x00, 0x00, 0x00,
  0xce, 0x00, 0x51, 0x00, 0x35, 0x29, 0x00, 0x3f, 0x00, 0x9f, 0x00, 0x00,
  0x36, 0x00, 0x00, 0x00, 0x00, 0x00, 0x00, 0x61, 0xd3, 0x3d, 0x00, 0x00,
  0x00, 0x31, 0x00, 0x00, 0xcb, 0x4d, 0x00, 0x00, 0xce, 0xd7, 0x45, 0x55,
  0x00, 0x7f, 0x3f, 0x4f, 0x00, 0xd7, 0x00, 0xd3, 0x00, 0x2d, 0x00, 0x00,
  0x00, 0x00, 0x00, 0x2f, 0x26, 0x00, 0x00, 0x00, 0x00, 0x00, 0x00, 0x73,
  0x00, 0x2a, 0x37, 0x00, 0x74, 0x67, 0x00, 0x00, 0x00, 0xc8, 0x00, 0xc7,
  0x00, 0x71, 0x00, 0x55, 0x00, 0x8e, 0x5c, 0x00, 0x77, 0x55, 0x00, 0x00,
  0x00, 0x00, 0x00, 0x00, 0x7f, 0x4f, 0x00, 0x39, 0xbc, 0xc7, 0x00, 0x54,
  0x00, 0x7e, 0x00, 0x00, 0x00, 0xbb, 0x00, 0x00, 0x64, 0x56, 0x00, 0x4e,
  0x00, 0x00, 0x00, 0x00, 0x4d, 0x00, 0x00, 0x4b, 0x43, 0x00, 0x00, 0x00,
  0x68, 0x00, 0x00, 0x00, 0x00, 0x00, 0x00, 0x42, 0x00, 0x43, 0x00, 0x36,
  0x00, 0xac, 0x00, 0x00, 0xa1, 0x72, 0x00, 0x00, 0x00, 0x62, 0x00, 0x00,
  0x73, 0x00, 0x00, 0x00, 0x00, 0x00, 0x7f, 0x00, 0xb7, 0x9a, 0x00, 0x00,
  0x00, 0x00, 0xba, 0xa4, 0x95, 0x00, 0x41, 0x73, 0x00, 0x00, 0x00, 0x8f,
  0x00, 0x3d, 0x00, 0x00, 0xc1, 0x00, 0x4a, 0x00, 0xb4, 0x00, 0x00, 0x00,
  0x4c, 0x90, 0x00, 0xaa, 0x00, 0x00, 0x00, 0x00, 0x00, 0xa4, 0x00, 0x00,
  0x00, 0x00, 0x00, 0x00, 0x00, 0x00, 0x00, 0x3f, 0x00, 0xae, 0x00, 0xaa,
  0x4c, 0x00, 0x00, 0x00, 0xc7, 0x00, 0x48, 0x2e, 0x00, 0x00, 0x2e, 0x00,
  0x00, 0xd0, 0x52, 0x00, 0x3a, 0x00, 0x00, 0x00, 0x00, 0xba, 0x49, 0x00,
  0x00, 0x7f, 0x40, 0x00, 0x00, 0x4a, 0x00, 0x00, 0x00, 0x00, 0xb5, 0x00,
  0x34, 0x00, 0x00, 0x3b, 0xcc, 0x43, 0x00, 0x00, 0x00, 0x00, 0x00, 0x31,
  0x00, 0x5c, 0x00, 0x00, 0x00, 0x00, 0xc5, 0x00, 0x00, 0x00, 0x34, 0xbb,
  0x00, 0xcb, 0x00, 0x00, 0x00, 0x00, 0x00, 0x00, 0xbb, 0x00, 0x00, 0x00,
  0x36, 0x00, 0x00, 0xac, 0x00, 0x00, 0x00, 0x7f, 0x00, 0x00, 0x00, 0xbf,
  0x00, 0x00, 0x00, 0x4e, 0x00, 0xc4, 0x70, 0x00, 0x53, 0x00, 0x00, 0x49,
  0x00, 0x00, 0x00, 0x45, 0x5e, 0x4d, 0x00, 0x00, 0x00, 0x4d, 0x00, 0x49,
  0x38, 0x6b, 0x00, 0x4f, 0x00, 0x54, 0x6a, 0x38, 0x41, 0x00, 0xc3, 0xc5,
  0x00, 0x00, 0x62, 0x6b, 0x00, 0xb5, 0x00, 0x00, 0x00, 0x00, 0x00, 0x64,
  0x00, 0x00, 0x00, 0x00, 0x00, 0x00, 0x00, 0x00, 0x00, 0x00, 0x00, 0x40,
  0x00, 0x00, 0x00, 0x00, 0x4e, 0x6d, 0x00, 0x00, 0x00, 0xd0, 0x00, 0x00,
  0x7f, 0x00, 0xc6, 0xc9, 0x00, 0x00, 0x00, 0x34, 0x00, 0x3e, 0x2d, 0x00,
  0x00, 0x00, 0x00, 0x00, 0x00, 0x5a, 0x00, 0x00, 0x27, 0x00, 0x49, 0x00,
  0x5c, 0x00, 0x00, 0xa5, 0x31, 0x00, 0x2e, 0x60, 0x00, 0x00, 0x00, 0xcc,
  0x3a, 0x00, 0x00, 0x00, 0xd9, 0x00, 0x00, 0x00, 0x00, 0x00, 0x00, 0x00,
  0x57, 0xb9, 0x00, 0x00, 0x00, 0x00, 0x00, 0x4b, 0x00, 0x00, 0x00, 0xd1,
  0x00, 0x2c, 0x00, 0x00, 0x3a, 0x00, 0x00, 0x7a, 0x00, 0x00, 0x00, 0x40,
  0x3a, 0x5c, 0x00, 0x00, 0xc4, 0xc3, 0x00, 0x00, 0x6e, 0x00, 0x00, 0xa6,
  0x00, 0x00, 0x73, 0x00, 0x00, 0x00, 0x00, 0x65, 0x00, 0x00, 0x00, 0x00,
  0x00, 0x7b, 0x00, 0x65, 0x00, 0xb6, 0x00, 0x00, 0x4a, 0x37, 0x00, 0x00,
  0x00, 0x00, 0x6c, 0x68, 0x4e, 0x00, 0x00, 0x3e, 0x00, 0x00, 0x00, 0x00,
  0x00, 0x4b, 0x00, 0x6c, 0x00, 0x00, 0x00, 0x3f, 0x78, 0x00, 0x00, 0x40,
  0x00, 0x45, 0x7f, 0x00, 0x00, 0x00, 0x72, 0x00, 0x00, 0x00, 0x39, 0x00,
  0xb0, 0x00, 0x4d, 0x00, 0x00, 0x00, 0xc6, 0x38, 0x00, 0x00, 0x00, 0xbc,
  0x45, 0x00, 0x00, 0x00, 0x40, 0x00, 0xc1, 0x7f, 0x00, 0x87, 0x40, 0x00,
  0x35, 0x00, 0x00, 0x4a, 0x00, 0x00, 0x36, 0x00, 0x5c, 0x00, 0x5d, 0x4c,
  0x00, 0x42, 0x54, 0x00, 0x00, 0x00, 0xba, 0x00, 0x00, 0xa6, 0x39, 0x97,
  0xb4, 0x60, 0x00, 0x00, 0x00, 0x00, 0x59, 0x00, 0x7b, 0x00, 0x00, 0x00,
  0x00, 0x00, 0xc2, 0x63, 0x00, 0x00, 0xc0, 0x00, 0x00, 0xb3, 0x00, 0xa5,
  0x7f, 0x00, 0x00, 0x46, 0x00, 0x00, 0x00, 0x00, 0x00, 0x61, 0x00, 0x88,
  0x00, 0x00, 0x00, 0xb2, 0x00, 0x00, 0x00, 0x00, 0x4e, 0x00, 0x00, 0x00,
  0x6c, 0x00, 0xbd, 0x00, 0x00, 0x00, 0x5b, 0x00, 0x4b, 0x00, 0x46, 0x00,
  0x4e, 0xab, 0x00, 0x00, 0x00, 0x00, 0x00, 0x00, 0x00, 0xc2, 0x00, 0x63,
  0x7e, 0x00, 0x00, 0x79, 0x6c, 0xb8, 0x67, 0x00, 0x55, 0x4c, 0x00, 0x00,
  0x5c, 0x00, 0xac, 0x6f, 0x68, 0x00, 0xbd, 0x00, 0x00, 0x00, 0x00, 0x58,
  0x7f, 0x00, 0x00, 0x00, 0xc1, 0x00, 0x00, 0x00, 0x5e, 0x41, 0x00, 0x00,
  0x00, 0x00, 0x00, 0x4a, 0x45, 0x3d, 0x00, 0x64, 0xc5, 0x00, 0x00, 0x64,
  0x00, 0x00, 0x3e, 0x50, 0x3c, 0x00, 0x00, 0x00, 0x7a, 0x00, 0x3f, 0x00,
  0x00, 0x00, 0x4b, 0x5a, 0x00, 0x00, 0x00, 0x00, 0x00, 0x00, 0x43, 0x00,
  0x49, 0x00, 0xcb, 0x4b, 0x00, 0x00, 0x00, 0x00, 0x00, 0x00, 0x54, 0x00,
  0x00, 0x00, 0x4f, 0x00, 0x4e, 0xdb, 0xff, 0xff, 0x04, 0x00, 0x00, 0x00,
  0x40, 0x00, 0x00, 0x00, 0xb2, 0x0d, 0x00, 0x00, 0xb1, 0x08, 0x00, 0x00,
  0x73, 0x0e, 0x00, 0x00, 0x0e, 0x0e, 0x00, 0x00, 0xde, 0x06, 0x00, 0x00,
  0xe3, 0xf3, 0xff, 0xff, 0x72, 0x0e, 0x00, 0x00, 0x6b, 0xf9, 0xff, 0xff,
  0xfb, 0x01, 0x00, 0x00, 0x70, 0x17, 0x00, 0x00, 0x81, 0xf1, 0xff, 0xff,
  0x5f, 0xeb, 0xff, 0xff, 0x90, 0x07, 0x00, 0x00, 0x0f, 0x03, 0x00, 0x00,
  0x30, 0xe0, 0xff, 0xff, 0xb8, 0xee, 0xff, 0xff, 0x9a, 0xdb, 0xff, 0xff,
  0x04, 0x00, 0x00, 0x00, 0x00, 0x12, 0x00, 0x00, 0x00, 0x00, 0x90, 0x00,
  0x00, 0x00, 0x00, 0x7f, 0x00, 0x00, 0x00, 0x00, 0x00, 0xcd, 0xbd, 0x5f,
  0x00, 0xaa, 0x00, 0x00, 0xc3, 0x57, 0x00, 0x6d, 0x00, 0xb4, 0x00, 0x00,
  0x00, 0x00, 0x00, 0x37, 0x00, 0xca, 0x00, 0xca, 0x43, 0x00, 0x00, 0x72,
  0x00, 0x00, 0x00, 0x47, 0x3e, 0x00, 0x60, 0x7b, 0x00, 0x00, 0x00, 0x00,
  0xb3, 0x00, 0x00, 0x56, 0x00, 0x00, 0x00, 0x00, 0x00, 0x00, 0x00, 0x00,
  0x00, 0x00, 0x00, 0xc2, 0x00, 0x00, 0x00, 0x39, 0xca, 0x00, 0x00, 0x49,
  0x61, 0x00, 0x00, 0x00, 0xb3, 0x32, 0xb0, 0x47, 0x00, 0x48, 0x00, 0x3c,
  0x59, 0x00, 0x4b, 0x3e, 0xc3, 0x00, 0x00, 0x00, 0x00, 0xc7, 0xcd, 0x9e,
  0xc3, 0x00, 0x00, 0x00, 0x00, 0x00, 0x00, 0x00, 0xb9, 0xc1, 0xc8, 0x00,
  0x00, 0x00, 0x00, 0x00, 0x00, 0x00, 0x00, 0x54, 0x00, 0x00, 0x52, 0x00,
  0x69, 0x36, 0x00, 0x00, 0x00, 0x00, 0xaa, 0x00, 0x00, 0x00, 0x3f, 0x44,
  0x00, 0xaa, 0x00, 0x00, 0xc5, 0x00, 0x00, 0x3d, 0x00, 0xcf, 0xa7, 0xb4,
  0xc3, 0x00, 0x00, 0x00, 0x00, 0x00, 0x00, 0x66, 0x00, 0x36, 0x00, 0x00,
  0x62, 0x00, 0x00, 0x00, 0xcf, 0x49, 0x00, 0x4b, 0x00, 0x00, 0x00, 0x00,
  0x00, 0x00, 0x36, 0x00, 0x00, 0xc2, 0xb0, 0x00, 0xc3, 0x00, 0x00, 0x00,
  0x00, 0x00, 0xc9, 0x3f, 0x00, 0x00, 0x47, 0x00, 0x5c, 0x00, 0x00, 0x00,
  0x00, 0x00, 0x44, 0x00, 0x00, 0x00, 0x7f, 0xd3, 0x00, 0x00, 0x00, 0x77,
  0x00, 0x00, 0x00, 0x00, 0x00, 0x40, 0x00, 0x00, 0x4a, 0x00, 0x00, 0x00,
  0xb6, 0xd0, 0x00, 0x3e, 0x00, 0x00, 0x00, 0x00, 0x00, 0x00, 0x00, 0xaa,
  0x49, 0xc8, 0x94, 0x00, 0xca, 0x00, 0x00, 0x00, 0x3c, 0x00, 0x00, 0x41,
  0x00, 0x00, 0x00, 0x00, 0x00, 0x00, 0x00, 0x00, 0xbe, 0x32, 0x00, 0x44,
  0x00, 0x00, 0x62, 0x00, 0x00, 0x00, 0x00, 0x00, 0xcd, 0x00, 0x00, 0x3e,
  0x00, 0x7f, 0x00, 0x00, 0x5a, 0x00, 0x00, 0xc4, 0x00, 0x00, 0x00, 0xd0,
  0x00, 0x00, 0x00, 0x00, 0xa9, 0x00, 0x00, 0x00, 0x90, 0x2e, 0x40, 0x00,
  0x00, 0x00, 0x00, 0x00, 0x00, 0x00, 0xd3, 0x00, 0x00, 0x00, 0x00, 0xba,
  0xd0, 0x00, 0x4b, 0x2f, 0x00, 0x00, 0x00, 0xb8, 0x00, 0x00, 0x00, 0x00,
  0x00, 0x00, 0x00, 0x00, 0x00, 0x4a, 0x6b, 0x00, 0x55, 0x00, 0x3f, 0xce,
  0x00, 0x00, 0xb4, 0x00, 0x00, 0xcc, 0x00, 0x00, 0xc5, 0x00, 0x2b, 0x37,
  0x00, 0x00, 0x00, 0x00, 0x00, 0x4a, 0xbe, 0x00, 0xd1, 0x4b, 0x00, 0x00,
  0x57, 0xc0, 0x00, 0x3e, 0x00, 0x00, 0x46, 0x2f, 0xc8, 0x74, 0xd2, 0x00,
  0x00, 0x41, 0xc1, 0xc0, 0x37, 0xbc, 0x4f, 0x36, 0x00, 0xab, 0x7f, 0x2f,
  0x00, 0x65, 0x00, 0x00, 0x4a, 0x00, 0xc1, 0x00, 0x00, 0xcb, 0x00, 0x00,
  0x32, 0x00, 0x00, 0x00, 0x00, 0x00, 0x2c, 0x36, 0x00, 0x00, 0x31, 0x00,
  0x48, 0xca, 0x00, 0xc6, 0x00, 0x00, 0xcb, 0x00, 0x00, 0x00, 0x37, 0x00,
  0x2f, 0x30, 0x00, 0x00, 0x00, 0x00, 0xc4, 0x00, 0x00, 0x00, 0xcb, 0x2e,
  0x32, 0x00, 0x00, 0x00, 0x32, 0xcb, 0xc1, 0x00, 0x00, 0x00, 0x3e, 0xd7,
  0x00, 0x00, 0x00, 0x00, 0x35, 0x00, 0x00, 0x26, 0x00, 0xb7, 0x00, 0x00,
  0x47, 0x00, 0x00, 0x00, 0x00, 0x25, 0x29, 0xc3, 0x00, 0x00, 0x00, 0x00,
  0x00, 0xce, 0x00, 0xd3, 0xd6, 0x00, 0x3d, 0x00, 0x00, 0x00, 0x00, 0xb4,
  0x00, 0x00, 0xa3, 0x00, 0x97, 0x21, 0x2e, 0x00, 0x7f, 0x34, 0x00, 0x00,
  0x22, 0x00, 0x26, 0x00, 0x2d, 0x31, 0x00, 0x00, 0x28, 0xd7, 0x2d, 0x36,
  0x00, 0x38, 0x4f, 0x4a, 0x00, 0x00, 0x39, 0x00, 0x00, 0x3c, 0xd1, 0xd7,
  0x00, 0x00, 0x00, 0xb8, 0x00, 0x29, 0x00, 0x00, 0x00, 0x00, 0x00, 0xb5,
  0x00, 0x00, 0xc0, 0x00, 0xaf, 0x00, 0xd6, 0xda, 0x5a, 0x00, 0x00, 0x31,
  0x00, 0x00, 0x3d, 0x26, 0x42, 0x62, 0x00, 0x00, 0x28, 0x64, 0x00, 0x00,
  0x54, 0x28, 0x4b, 0x2b, 0x24, 0xd3, 0x00, 0xb5, 0x00, 0x49, 0xdd, 0x2a,
  0x00, 0x00, 0x00, 0xb1, 0x00, 0xcb, 0x00, 0x00, 0x00, 0xd9, 0x49, 0x00,
  0x00, 0x00, 0xca, 0x00, 0x00, 0x00, 0x00, 0xd1, 0x00, 0x00, 0x00, 0x00,
  0x00, 0x00, 0x25, 0x00, 0x00, 0x00, 0xd5, 0x00, 0x00, 0x00, 0xda, 0xdb,
  0x00, 0x26, 0x25, 0x3f, 0x4a, 0x00, 0x3c, 0x00, 0x39, 0x2f, 0x00, 0x2f,
  0x00, 0x00, 0x39, 0x25, 0xd4, 0x4f, 0x00, 0x00, 0x49, 0x00, 0x34, 0x00,
  0x00, 0x2f, 0x00, 0x3c, 0xc6, 0xcf, 0x00, 0x00, 0x23, 0x00, 0x40, 0x00,
  0x38, 0x36, 0x5e, 0x00, 0x00, 0x59, 0x34, 0x00, 0x00, 0x2a, 0x2b, 0x00,
  0x59, 0x00, 0x00, 0x72, 0x00, 0xda, 0x00, 0x00, 0x2d, 0x3c, 0x00, 0x00,
  0x00, 0x28, 0x00, 0x00, 0x00, 0x25, 0x5e, 0x24, 0xd3, 0xc2, 0x7f, 0xc2,
  0xcb, 0x6d, 0x00, 0xdb, 0x29, 0x00, 0xc5, 0x00, 0xc1, 0xb6, 0x00, 0x00,
  0x25, 0x00, 0x00, 0x34, 0x00, 0x00, 0x00, 0x00, 0x00, 0x00, 0x00, 0x3d,
  0x5d, 0x00, 0xd3, 0x2c, 0x00, 0x00, 0x00, 0x00, 0x00, 0x00, 0xd0, 0xd9,
  0x00, 0x00, 0xd1, 0x00, 0x2e, 0x00, 0xcf, 0x4b, 0xc6, 0x00, 0x00, 0xb9,
  0x00, 0x23, 0xc9, 0xd1, 0xc3, 0xc1, 0x00, 0xc3, 0x00, 0xb8, 0x00, 0x00,
  0x00, 0x4e, 0x00, 0x00, 0x00, 0x81, 0x68, 0x4f, 0x00, 0x36, 0x37, 0x3f,
  0x00, 0xad, 0xae, 0x00, 0x00, 0x00, 0xba, 0x00, 0x00, 0x00, 0x77, 0x00,
  0x00, 0x9e, 0x00, 0x61, 0xb9, 0xb0, 0x87, 0x00, 0xb5, 0x00, 0xa5, 0x40,
  0x00, 0x8a, 0x00, 0x00, 0x3c, 0x00, 0x00, 0x5c, 0x00, 0x00, 0x00, 0x00,
  0x00, 0x00, 0x00, 0x00, 0x00, 0x00, 0x00, 0x00, 0x00, 0xa9, 0xc6, 0x60,
  0x92, 0x00, 0x00, 0x00, 0x00, 0x36, 0x00, 0x00, 0x00, 0x00, 0x00, 0x00,
  0x00, 0x00, 0x00, 0x00, 0xa9, 0xb7, 0x00, 0x00, 0x00, 0x00, 0x00, 0x45,
  0xcf, 0x00, 0x3d, 0xd1, 0x00, 0x00, 0x00, 0x4d, 0x72, 0x00, 0x00, 0x68,
  0x00, 0x00, 0x00, 0x3d, 0x00, 0x00, 0x5d, 0x00, 0x4d, 0x00, 0x00, 0x00,
  0x00, 0x00, 0xb9, 0x3f, 0xc1, 0x00, 0x00, 0x00, 0x00, 0x6b, 0x69, 0x00,
  0x00, 0x00, 0x00, 0x00, 0x00, 0xc2, 0xb5, 0xba, 0x3b, 0x00, 0x00, 0x00,
  0x00, 0x4c, 0x00, 0x00, 0x00, 0x00, 0x00, 0x00, 0x92, 0x9d, 0x88, 0x00,
  0x00, 0x00, 0x8b, 0x00, 0x00, 0x90, 0x79, 0x00, 0x00, 0x5c, 0x00, 0x99,
  0x00, 0x00, 0x00, 0x00, 0x5d, 0x95, 0x00, 0x00, 0x00, 0x00, 0x00, 0x57,
  0x00, 0x8c, 0x81, 0xa6, 0x00, 0x00, 0x6e, 0x00, 0x00, 0xa9, 0x9f, 0x00,
  0x00, 0x00, 0x00, 0xa9, 0x00, 0x00, 0x00, 0x60, 0x00, 0x00, 0x8a, 0x00,
  0x00, 0x00, 0x00, 0x00, 0x00, 0x73, 0x00, 0x8c, 0x72, 0x00, 0x5a, 0x00,
  0x00, 0x58, 0x00, 0x6f, 0x00, 0x61, 0x00, 0x66, 0x00, 0x90, 0x00, 0x00,
  0xaa, 0x00, 0x00, 0x69, 0x00, 0x00, 0x00, 0x00, 0xa7, 0x8a, 0x00, 0x5b,
  0x00, 0x00, 0x53, 0x00, 0x00, 0x62, 0x00, 0xaa, 0x62, 0x00, 0x00, 0x00,
  0x00, 0x00, 0x00, 0xa3, 0x00, 0x00, 0xa5, 0x00, 0x00, 0x00, 0x00, 0x9a,
  0x8a, 0x82, 0x00, 0x00, 0x9b, 0x9f, 0x00, 0x00, 0x00, 0x6a, 0x00, 0x00,
  0x00, 0x88, 0x91, 0x9f, 0x00, 0x63, 0x00, 0x00, 0x00, 0x00, 0x00, 0x00,
  0x00, 0x00, 0x00, 0x00, 0x94, 0x00, 0x00, 0x00, 0x7d, 0x00, 0x00, 0x63,
  0x00, 0x56, 0x00, 0x7f, 0x00, 0x00, 0x00, 0x3b, 0x00, 0x5d, 0x00, 0x6b,
  0x00, 0x3e, 0x00, 0x00, 0x00, 0x29, 0x00, 0x2d, 0x00, 0x31, 0x00, 0x00,
  0x00, 0xc6, 0x00, 0x00, 0x00, 0x00, 0x45, 0x00, 0x00, 0x00, 0x00, 0xd5,
  0xd8, 0x00, 0xab, 0x00, 0x9a, 0x00, 0xd3, 0x00, 0x4b, 0x00, 0x00, 0x33,
  0x00, 0x00, 0xd9, 0x65, 0x00, 0xd8, 0x3d, 0x00, 0x00, 0x43, 0x41, 0x58,
  0x00, 0x00, 0xb9, 0x00, 0x38, 0x00, 0xc0, 0x00, 0x00, 0x00, 0xd6, 0x4d,
  0x00, 0x00, 0x00, 0x00, 0xcd, 0x00, 0x00, 0x00, 0x00, 0x37, 0xc3, 0x00,
  0x00, 0x9e, 0x00, 0x00, 0xbd, 0x8d, 0xc3, 0xca, 0x00, 0x00, 0x00, 0x3a,
  0x00, 0x00, 0x00, 0x00, 0xcc, 0x00, 0x00, 0x00, 0x00, 0x00, 0x00, 0x00,
  0x2f, 0x00, 0x00, 0x00, 0x00, 0x00, 0x00, 0x00, 0x00, 0x00, 0x00, 0x3a,
  0x00, 0x2b, 0x00, 0xd1, 0x4a, 0x00, 0xc9, 0x00, 0x00, 0x00, 0x00, 0x00,
  0x3f, 0x00, 0xc4, 0x33, 0xc4, 0x00, 0x00, 0x00, 0xd4, 0x39, 0x00, 0x00,
  0x00, 0x00, 0x28, 0x00, 0x32, 0x00, 0x00, 0x00, 0x00, 0x00, 0x33, 0x2f,
  0x21, 0x00, 0x2a, 0x00, 0x00, 0x00, 0x00, 0x00, 0x00, 0x00, 0x00, 0x24,
  0x00, 0xd6, 0x22, 0x00, 0xc8, 0x39, 0x3a, 0x4b, 0x00, 0x00, 0x00, 0xbf,
  0x00, 0xd7, 0x3d, 0x3c, 0x00, 0xc6, 0x00, 0x00, 0x3f, 0x3d, 0x00, 0x43,
  0x2d, 0xdc, 0x00, 0x00, 0x41, 0x00, 0x2d, 0x00, 0x2f, 0x00, 0x2c, 0x25,
  0x33, 0x3a, 0x00, 0x33, 0x00, 0x00, 0x4a, 0xd5, 0x00, 0x00, 0x00, 0xdb,
  0xb1, 0x00, 0xc8, 0x00, 0xd4, 0x00, 0x3d, 0x7f, 0x00, 0xcb, 0x00, 0x00,
  0x00, 0x5d, 0x00, 0xda, 0x00, 0x00, 0x00, 0xd6, 0x3d, 0x00, 0x00, 0x49,
  0xdc, 0x00, 0x00, 0x00, 0x00, 0x00, 0x35, 0x24, 0x2a, 0x00, 0x21, 0x00,
  0x72, 0x00, 0x3f, 0x00, 0x00, 0x00, 0xc7, 0xd4, 0x2d, 0xd3, 0x00, 0x00,
  0x00, 0xd0, 0x21, 0x00, 0x28, 0x00, 0xdc, 0x00, 0x00, 0xc7, 0xcd, 0x00,
  0x00, 0x00, 0xde, 0x00, 0xc0, 0x00, 0x00, 0x00, 0x00, 0x30, 0x42, 0x7f,
  0x00, 0x00, 0x00, 0x00, 0x00, 0x4e, 0x00, 0x46, 0x00, 0x5c, 0x30, 0x00,
  0x00, 0x00, 0x00, 0x45, 0x00, 0x00, 0x00, 0xbd, 0xc2, 0x00, 0x00, 0x00,
  0xb6, 0x00, 0x00, 0xc0, 0x00, 0x00, 0x60, 0x00, 0xcd, 0x00, 0x6e, 0x00,
  0x00, 0x71, 0x00, 0x00, 0x00, 0x4d, 0x35, 0x00, 0x00, 0x00, 0x00, 0x00,
  0x2a, 0x2c, 0x00, 0x00, 0x00, 0x00, 0x00, 0x32, 0x00, 0x3d, 0x00, 0x00,
  0x00, 0x00, 0x00, 0x00, 0x00, 0xc4, 0xcb, 0x39, 0x2b, 0x00, 0x2a, 0xc5,
  0x00, 0x00, 0x00, 0x00, 0x00, 0x00, 0x00, 0xc3, 0x00, 0xc9, 0x00, 0x00,
  0x00, 0x00, 0x00, 0x00, 0x00, 0x00, 0x00, 0x00, 0x00, 0x29, 0x3d, 0x00,
  0x00, 0xd4, 0x00, 0x00, 0x00, 0xa2, 0xd1, 0x00, 0x3d, 0x00, 0x3d, 0x00,
  0x00, 0x00, 0x00, 0x00, 0x00, 0x00, 0xa5, 0x00, 0x00, 0xd0, 0x00, 0x00,
  0x00, 0x00, 0x00, 0x00, 0x2d, 0x00, 0x00, 0xcd, 0x00, 0xcd, 0x00, 0x00,
  0x3e, 0x00, 0x00, 0x00, 0xa2, 0x8c, 0x00, 0xbc, 0xbb, 0x00, 0x4c, 0x00,
  0x5a, 0x4d, 0x00, 0x93, 0x3d, 0x52, 0xc6, 0x00, 0x00, 0xa6, 0x00, 0x00,
  0x00, 0x00, 0x66, 0x67, 0x00, 0x00, 0x00, 0x84, 0x00, 0x55, 0x00, 0x00,
  0x00, 0x94, 0x3f, 0x00, 0x00, 0x00, 0x00, 0x00, 0x00, 0xba, 0x72, 0x94,
  0x00, 0x00, 0xa0, 0x00, 0x00, 0x00, 0x00, 0xb2, 0x00, 0x3f, 0x00, 0x3e,
  0x00, 0x4b, 0x00, 0x00, 0x00, 0x00, 0x00, 0x37, 0x00, 0x00, 0x00, 0x00,
  0x32, 0xc7, 0x00, 0x00, 0x00, 0x00, 0x00, 0xc2, 0xb2, 0x7f, 0x00, 0x00,
  0x00, 0x4f, 0xbd, 0xa3, 0x00, 0x00, 0x00, 0x00, 0x00, 0xc7, 0x4b, 0x00,
  0x00, 0x41, 0x00, 0x00, 0xbf, 0x47, 0x00, 0xa7, 0x00, 0x00, 0x00, 0x00,
  0x00, 0x00, 0x68, 0x00, 0x41, 0x00, 0x00, 0x00, 0x3d, 0x3b, 0x00, 0x00,
  0x79, 0x00, 0x3e, 0x00, 0x53, 0x00, 0x00, 0x00, 0x34, 0x00, 0x00, 0x00,
  0x00, 0x48, 0x00, 0x00, 0x00, 0x00, 0xca, 0x00, 0x00, 0x46, 0x00, 0x00,
  0xcc, 0x00, 0xbc, 0x00, 0x00, 0xc0, 0xc5, 0xb4, 0x3f, 0x9c, 0x00, 0x3d,
  0xb3, 0x00, 0x00, 0xbf, 0x00, 0x00, 0x00, 0x00, 0x00, 0x00, 0x00, 0x00,
  0x4e, 0x00, 0x00, 0x00, 0x00, 0x00, 0x00, 0xbc, 0x42, 0x9c, 0x00, 0x33,
  0x00, 0x8d, 0x00, 0x00, 0xb9, 0xbe, 0xba, 0x00, 0x00, 0x00, 0x00, 0x00,
  0x00, 0xab, 0x00, 0x00, 0x4c, 0x00, 0x54, 0x00, 0x00, 0x00, 0xbd, 0x00,
  0x00, 0x38, 0x3b, 0x00, 0x00, 0x35, 0x00, 0x00, 0x00, 0x00, 0xd3, 0x51,
  0x52, 0x66, 0x4a, 0x9c, 0x00, 0x00, 0x00, 0xb3, 0x00, 0xc4, 0xcb, 0x00,
  0x00, 0x8b, 0x00, 0x00, 0x00, 0x48, 0x00, 0x7b, 0x00, 0x00, 0x42, 0x00,
  0xd4, 0x41, 0x00, 0x00, 0x00, 0x00, 0x00, 0xc9, 0x3a, 0xc0, 0x00, 0x34,
  0x00, 0x36, 0x79, 0x00, 0x00, 0x00, 0x00, 0x00, 0x6b, 0x4c, 0x00, 0x42,
  0x00, 0x00, 0x35, 0x00, 0x37, 0x00, 0x7f, 0xc3, 0x4a, 0x00, 0x00, 0x00,
  0x00, 0xa9, 0x3c, 0x00, 0x00, 0x00, 0x58, 0x00, 0x00, 0x00, 0x00, 0xd1,
  0xae, 0x47, 0x00, 0x00, 0x5f, 0x2f, 0x00, 0x3d, 0x5d, 0xd3, 0xa1, 0xbf,
  0x00, 0x36, 0x00, 0x64, 0x00, 0xa8, 0x2d, 0x00, 0x2d, 0x00, 0x00, 0x2c,
  0x00, 0x00, 0xce, 0x00, 0x2f, 0x00, 0xca, 0x7f, 0x4c, 0x00, 0x00, 0x00,
  0x00, 0x33, 0x00, 0x6f, 0x00, 0x00, 0x00, 0x45, 0x00, 0x00, 0xd5, 0x00,
  0x00, 0x00, 0x00, 0x00, 0x00, 0x00, 0x00, 0x00, 0x5d, 0x00, 0xb2, 0x00,
  0x35, 0x00, 0x29, 0x39, 0x42, 0x91, 0x00, 0x30, 0x39, 0x00, 0x00, 0x3b,
  0x00, 0x00, 0x00, 0x6e, 0x00, 0x00, 0xc3, 0x00, 0x39, 0x00, 0x39, 0x00,
  0x2e, 0x2b, 0x31, 0x00, 0x00, 0x35, 0x00, 0x51, 0x2b, 0x00, 0xc0, 0x00,
  0x00, 0xd8, 0x00, 0x00, 0xd2, 0x8f, 0x00, 0x00, 0x00, 0x00, 0x00, 0x38,
  0xd8, 0x2e, 0x30, 0x00, 0x00, 0x00, 0x00, 0xc6, 0x00, 0x00, 0xd6, 0x00,
  0xac, 0x00, 0xd8, 0x3e, 0x00, 0x30, 0x4f, 0x00, 0x00, 0x00, 0x39, 0x00,
  0x00, 0x00, 0x00, 0x00, 0x3b, 0x00, 0x32, 0x00, 0xd1, 0x00, 0xbb, 0x00,
  0x00, 0x3f, 0x00, 0x00, 0x00, 0x00, 0x00, 0x00, 0x00, 0x00, 0x4f, 0x00,
  0x00, 0x00, 0x7d, 0x00, 0x00, 0x00, 0x00, 0x00, 0x00, 0x00, 0xd1, 0x00,
  0x00, 0x4e, 0x48, 0x74, 0x00, 0x00, 0x2f, 0xbc, 0x00, 0x61, 0x00, 0x00,
  0xc4, 0xd1, 0x00, 0x00, 0x00, 0x00, 0x00, 0x4f, 0x00, 0x00, 0x57, 0x00,
  0x00, 0x00, 0x00, 0x2b, 0x00, 0x00, 0x00, 0xba, 0x3f, 0x00, 0x00, 0x4b,
  0x00, 0x35, 0x7f, 0x00, 0x00, 0x54, 0x00, 0x00, 0x44, 0x6e, 0x00, 0x3a,
  0x00, 0xb0, 0x60, 0x00, 0x00, 0xbf, 0x00, 0x00, 0x00, 0x43, 0xc3, 0xca,
  0x30, 0x00, 0xce, 0x00, 0x00, 0xd2, 0x6b, 0x48, 0x00, 0x00, 0x4d, 0x00,
  0xbb, 0x00, 0x00, 0x00, 0x00, 0x3c, 0x00, 0x00, 0x00, 0x00, 0x00, 0x00,
  0x00, 0x00, 0x00, 0x00, 0xcc, 0x00, 0x2a, 0x00, 0x00, 0x00, 0xb4, 0xc3,
  0x00, 0xb1, 0x00, 0x00, 0x00, 0xb1, 0x00, 0x00, 0x2c, 0x00, 0xb8, 0x00,
  0x00, 0x00, 0x00, 0x00, 0x00, 0xb8, 0x00, 0x00, 0x00, 0xd0, 0x4c, 0x4c,
  0x00, 0x00, 0x31, 0x42, 0x00, 0x00, 0x00, 0x00, 0x6b, 0xc4, 0xb5, 0x00,
  0x00, 0x00, 0x00, 0x32, 0x33, 0x8d, 0x6d, 0x36, 0x3c, 0x00, 0x00, 0x36,
  0x00, 0xb0, 0x84, 0x41, 0x00, 0x53, 0xd0, 0x77, 0x00, 0x00, 0x40, 0x52,
  0x00, 0x00, 0x3d, 0x54, 0xc2, 0xc2, 0x81, 0x00, 0xcc, 0x00, 0xa2, 0x58,
  0x00, 0x00, 0x00, 0x00, 0xc1, 0xc4, 0x00, 0x00, 0x00, 0x00, 0x00, 0x31,
  0x00, 0x48, 0x00, 0x48, 0x32, 0x87, 0x00, 0x4c, 0x3c, 0x44, 0x00, 0x00,
  0x00, 0xbb, 0x00, 0x00, 0x00, 0x47, 0xa6, 0x52, 0x3a, 0xc0, 0x00, 0x00,
  0x00, 0x35, 0x4e, 0x2d, 0xb8, 0x00, 0xce, 0x00, 0x00, 0x00, 0x00, 0x00,
  0x00, 0x00, 0x00, 0x34, 0xc8, 0x9b, 0x2e, 0x00, 0x00, 0x00, 0x00, 0x00,
  0x00, 0x53, 0x00, 0x46, 0x00, 0x67, 0x69, 0x00, 0x37, 0x00, 0x00, 0x00,
  0x00, 0x00, 0xbd, 0x00, 0x00, 0x3e, 0x00, 0x46, 0x00, 0x44, 0x5d, 0x00,
  0x4f, 0x00, 0x00, 0x00, 0x00, 0x00, 0xbf, 0xc6, 0x00, 0x00, 0x60, 0x00,
  0x00, 0x00, 0x00, 0x00, 0x00, 0x00, 0x00, 0x00, 0x00, 0xd2, 0xd3, 0xba,
  0x00, 0x00, 0x00, 0x4d, 0x00, 0x00, 0x00, 0x00, 0x4b, 0x00, 0x00, 0x3d,
  0x50, 0x00, 0x00, 0x92, 0x00, 0xd3, 0xcc, 0x00, 0x00, 0x95, 0x56, 0x00,
  0x30, 0x00, 0x00, 0x4b, 0x00, 0x00, 0x00, 0x00, 0x00, 0x00, 0xbd, 0x37,
  0x00, 0xc8, 0x00, 0x44, 0x69, 0x00, 0x34, 0x4f, 0x00, 0x00, 0xa1, 0x86,
  0x00, 0xc6, 0x00, 0x2e, 0x00, 0x50, 0xca, 0xd0, 0x49, 0x00, 0x00, 0x42,
  0x00, 0x00, 0x00, 0x00, 0x00, 0x33, 0x2a, 0x34, 0x00, 0xb2, 0x63, 0x2b,
  0x00, 0x00, 0x00, 0x5d, 0x00, 0x00, 0x88, 0x00, 0x00, 0x00, 0x00, 0x30,
  0x00, 0xcc, 0x65, 0x00, 0x56, 0x00, 0x3f, 0x00, 0x00, 0xd2, 0x00, 0xca,
  0x00, 0xce, 0x35, 0x00, 0x00, 0x00, 0x00, 0x00, 0xb7, 0x81, 0x00, 0x00,
  0x00, 0x31, 0x2f, 0x00, 0x00, 0x00, 0x00, 0x00, 0xce, 0x00, 0x00, 0x00,
  0x00, 0x39, 0x00, 0x64, 0x3e, 0x40, 0x00, 0x3b, 0x00, 0x4c, 0x00, 0x42,
  0x00, 0x00, 0x5a, 0x00, 0x00, 0x00, 0x3b, 0x58, 0xb9, 0xd3, 0x00, 0x00,
  0xd1, 0x00, 0x5e, 0x00, 0xbc, 0x7f, 0x32, 0xc0, 0x00, 0x2a, 0x00, 0x00,
  0x00, 0x26, 0x00, 0xb7, 0xda, 0xda, 0x3a, 0x00, 0xc2, 0x00, 0x00, 0xd6,
  0x00, 0x38, 0x00, 0x3c, 0xd9, 0x2b, 0x00, 0x3b, 0x33, 0x33, 0x00, 0x45,
  0x00, 0x00, 0x29, 0x00, 0x44, 0x48, 0x00, 0x2a, 0x00, 0xc3, 0x00, 0xb4,
  0x00, 0x00, 0x00, 0x38, 0x00, 0x35, 0x00, 0xcd, 0x00, 0x5e, 0x00, 0x00,
  0xbb, 0x00, 0x00, 0xb3, 0xcc, 0x00, 0x2d, 0x00, 0xd2, 0xd7, 0x00, 0x00,
  0x00, 0x00, 0xda, 0x00, 0xbc, 0x00, 0xa2, 0xc1, 0x2c, 0x00, 0x00, 0x00,
  0x00, 0x00, 0x00, 0x00, 0x37, 0x00, 0x2a, 0x55, 0x38, 0x00, 0x00, 0xa3,
  0xca, 0x00, 0xb5, 0x00, 0x00, 0x00, 0x00, 0x00, 0xc0, 0xcc, 0x00, 0x00,
  0x2b, 0xd2, 0x00, 0x94, 0x00, 0x00, 0xb8, 0x00, 0x00, 0xa6, 0x00, 0x00,
  0xd4, 0x00, 0x00, 0x3c, 0x00, 0x00, 0x00, 0x00, 0x00, 0x00, 0xd0, 0x4b,
  0x00, 0x00, 0x2e, 0x00, 0x00, 0x00, 0x3f, 0x00, 0x7f, 0x30, 0xa8, 0x00,
  0x2d, 0x00, 0xc4, 0x00, 0xd5, 0x00, 0x31, 0x00, 0x61, 0x2d, 0x00, 0x3b,
  0x00, 0x00, 0x00, 0x35, 0x00, 0x00, 0x00, 0x70, 0x00, 0x8a, 0x6f, 0x00,
  0x4b, 0x00, 0x32, 0x4c, 0x00, 0x00, 0x00, 0x39, 0xbc, 0x31, 0xca, 0x3f,
  0x00, 0xba, 0x47, 0x00, 0x00, 0x00, 0x00, 0x00, 0x52, 0x00, 0x00, 0x00,
  0x00, 0x32, 0x4d, 0x6e, 0x00, 0x81, 0x00, 0x39, 0x53, 0x00, 0x00, 0x49,
  0x00, 0x3e, 0xbd, 0x00, 0x00, 0x00, 0x00, 0x00, 0x00, 0x97, 0x3f, 0x00,
  0x00, 0x00, 0x00, 0x00, 0x00, 0x00, 0xd4, 0x41, 0x00, 0x00, 0x00, 0x00,
  0x00, 0xbd, 0x00, 0x00, 0x2d, 0xd1, 0x00, 0x3e, 0x00, 0x00, 0x00, 0x00,
  0x00, 0x39, 0x00, 0x32, 0x30, 0x6a, 0x48, 0x00, 0x00, 0x00, 0x00, 0x6e,
  0x00, 0x00, 0x00, 0x2f, 0x00, 0x00, 0x00, 0x00, 0x00, 0x00, 0x00, 0x00,
  0x00, 0x00, 0xb8, 0x37, 0x3f, 0x00, 0xb4, 0x4f, 0x00, 0x00, 0x00, 0x2e,
  0x00, 0x60, 0x2f, 0x00, 0xc3, 0x00, 0xcb, 0x00, 0x00, 0x39, 0x59, 0x53,
  0x00, 0x00, 0x3b, 0xa5, 0x00, 0x00, 0x00, 0x3e, 0xcb, 0x00, 0x00, 0x28,
  0x00, 0x34, 0x4e, 0x5a, 0xd3, 0x00, 0x67, 0x00, 0xc9, 0x4d, 0x00, 0x00,
  0xb0, 0x00, 0xcb, 0xd3, 0x00, 0x48, 0x3e, 0xcc, 0x00, 0xca, 0x62, 0xb7,
  0x34, 0x39, 0x00, 0x00, 0x00, 0x00, 0x00, 0xca, 0xbb, 0x00, 0x00, 0x00,
  0x00, 0x00, 0x69, 0x00, 0x00, 0x7f, 0xc2, 0x00, 0x47, 0x72, 0x00, 0x00,
  0xca, 0xb5, 0x00, 0x00, 0xd1, 0x00, 0x00, 0x00, 0xbe, 0x74, 0x00, 0x00,
  0x00, 0x67, 0x00, 0x00, 0x00, 0x00, 0x48, 0x00, 0x32, 0xd0, 0x00, 0x00,
  0x00, 0x72, 0x3d, 0x29, 0x00, 0x00, 0x00, 0x27, 0x9d, 0x00, 0xc5, 0x00,
  0x00, 0x00, 0xb0, 0x3a, 0x00, 0x00, 0x00, 0x00, 0x00, 0x00, 0x00, 0x00,
  0x6e, 0x00, 0xc1, 0x00, 0x26, 0x29, 0xa8, 0x39, 0x00, 0x00, 0xbe, 0x00,
  0x00, 0x00, 0x00, 0x00, 0x3d, 0x00, 0x00, 0xaf, 0x2d, 0x00, 0x37, 0x00,
  0x00, 0x00, 0x00, 0x00, 0x3d, 0x00, 0x00, 0x2f, 0x00, 0x29, 0x00, 0x00,
  0x00, 0x00, 0xc6, 0x00, 0x35, 0x00, 0xbf, 0x00, 0x00, 0x00, 0x00, 0xae,
  0x33, 0x39, 0x37, 0x00, 0x2a, 0x00, 0x00, 0xcd, 0x34, 0xa8, 0x00, 0x00,
  0x00, 0x00, 0x00, 0x00, 0x00, 0x00, 0x00, 0x2c, 0x00, 0x00, 0x00, 0x00,
  0x00, 0xc2, 0xd1, 0x00, 0x00, 0x00, 0x00, 0x00, 0x36, 0x51, 0x00, 0x00,
  0x00, 0x00, 0x29, 0x00, 0x00, 0x4e, 0x00, 0x00, 0x36, 0xce, 0x00, 0x00,
  0x00, 0x57, 0x41, 0xc8, 0x00, 0x00, 0x00, 0x00, 0x00, 0x00, 0xd0, 0x34,
  0xa8, 0xcd, 0x00, 0xc9, 0x00, 0x34, 0x51, 0x40, 0x00, 0xd1, 0x00, 0x00,
  0x00, 0x00, 0x39, 0x00, 0xbf, 0x00, 0x00, 0x00, 0x00, 0x00, 0x33, 0x00,
  0x2f, 0x2b, 0x00, 0x00, 0x33, 0x37, 0x2b, 0x00, 0x00, 0x65, 0x00, 0xd4,
  0x49, 0x00, 0x00, 0x58, 0x00, 0x00, 0x58, 0xbd, 0x00, 0x00, 0x00, 0x00,
  0xcc, 0x00, 0x29, 0x00, 0x4e, 0x00, 0x00, 0x7f, 0x00, 0x2b, 0x00, 0xd6,
  0xca, 0x00, 0x00, 0x00, 0x00, 0x00, 0x00, 0x00, 0x00, 0x00, 0x54, 0x00,
  0x00, 0x81, 0x00, 0x6e, 0x00, 0x00, 0x00, 0x00, 0x00, 0x6d, 0x00, 0x00,
  0x00, 0x92, 0x8a, 0x00, 0x92, 0x00, 0x52, 0x64, 0x95, 0x70, 0xa3, 0x87,
  0x00, 0x00, 0x91, 0x00, 0x00, 0x00, 0x00, 0x00, 0x00, 0x00, 0x94, 0x00,
  0x00, 0x00, 0x68, 0x9c, 0xa5, 0xab, 0x92, 0x00, 0x00, 0x60, 0xa4, 0x00,
  0x00, 0x9c, 0x00, 0x64, 0x00, 0x00, 0x00, 0x59, 0x00, 0x00, 0x98, 0xa8,
  0x72, 0x97, 0x00, 0x00, 0x00, 0x00, 0x00, 0x00, 0x00, 0x00, 0xad, 0x00,
  0x00, 0x00, 0x00, 0x00, 0x5b, 0x9a, 0x00, 0x63, 0x00, 0x00, 0x00, 0x00,
  0x9e, 0x00, 0x00, 0x00, 0x00, 0x00, 0x00, 0x00, 0x00, 0x57, 0xae, 0x00,
  0x5a, 0x8e, 0x00, 0x00, 0x61, 0x00, 0x00, 0x00, 0x95, 0x71, 0x00, 0x00,
  0x87, 0x00, 0x53, 0x00, 0x00, 0x00, 0x6e, 0x52, 0x8e, 0x5b, 0x00, 0x54,
  0x00, 0x00, 0x00, 0x00, 0x66, 0x5e, 0x69, 0x00, 0x00, 0x00, 0x00, 0xaa,
  0x00, 0x8a, 0x85, 0x00, 0x00, 0x00, 0x00, 0xa6, 0x67, 0x31, 0xdc, 0xca,
  0x1d, 0x00, 0x00, 0x31, 0x00, 0xc5, 0x00, 0x00, 0x21, 0x00, 0x00, 0x36,
  0x00, 0x00, 0xc4, 0xce, 0x00, 0x00, 0x00, 0x47, 0x00, 0x00, 0x3c, 0x00,
  0x4a, 0x00, 0x00, 0x00, 0x40, 0x00, 0x00, 0x00, 0xdc, 0x00, 0x00, 0x34,
  0x00, 0xc6, 0x00, 0x34, 0x2c, 0x00, 0x00, 0x21, 0x7f, 0x00, 0x00, 0x00,
  0x00, 0x00, 0x00, 0x00, 0x44, 0xbd, 0x25, 0x00, 0x1e, 0x30, 0x2c, 0x44,
  0x00, 0x00, 0xd4, 0x2d, 0x00, 0x00, 0x00, 0x00, 0x29, 0xc9, 0x20, 0x21,
  0x00, 0x00, 0x00, 0x00, 0x00, 0x00, 0x00, 0x36, 0x00, 0x00, 0xd6, 0x00,
  0x00, 0xc5, 0x39, 0x00, 0x00, 0xd4, 0x00, 0x2c, 0x00, 0x31, 0x2a, 0x39,
  0x00, 0x00, 0x22, 0xe5, 0x00, 0x00, 0x33, 0x2c, 0x00, 0x00, 0x00, 0x22,
  0x00, 0x00, 0x00, 0x40, 0x00, 0x00, 0x34, 0x00, 0xe2, 0x45, 0x00, 0x00,
  0x00, 0x00, 0x00, 0x46, 0x27, 0x00, 0x00, 0x00, 0xdd, 0x1e, 0x1d, 0x00,
  0x1e, 0x00, 0x00, 0x00, 0xe5, 0x00, 0xda, 0x00, 0x98, 0xaf, 0x00, 0x00,
  0x9e, 0x00, 0x00, 0x82, 0x56, 0x54, 0x66, 0x00, 0x9e, 0x61, 0x00, 0x00,
  0x00, 0x00, 0x55, 0x00, 0x00, 0x00, 0x00, 0x00, 0x00, 0x00, 0x00, 0x00,
  0x8b, 0x00, 0x00, 0x00, 0xa1, 0x99, 0xab, 0xab, 0x82, 0x00, 0x00, 0x00,
  0x81, 0x00, 0x5a, 0x00, 0x00, 0x00, 0xa2, 0x00, 0xa3, 0x00, 0x00, 0x9b,
  0xa1, 0xa2, 0x00, 0x57, 0x00, 0x00, 0x00, 0x00, 0x00, 0x00, 0x00, 0x00,
  0xa1, 0x00, 0x00, 0x00, 0x64, 0x00, 0x00, 0x00, 0x87, 0x54, 0x00, 0x00,
  0x00, 0x94, 0x67, 0x00, 0x00, 0x00, 0x00, 0x00, 0x00, 0x00, 0x00, 0x00,
  0x00, 0x00, 0x00, 0x00, 0x00, 0x00, 0x00, 0xa7, 0x91, 0x00, 0x00, 0x00,
  0x00, 0x00, 0x00, 0x52, 0x56, 0x90, 0x00, 0x00, 0xa3, 0x00, 0x52, 0x00,
  0x00, 0x5d, 0x00, 0xa7, 0x00, 0x6b, 0x00, 0x00, 0x00, 0x00, 0x6e, 0x8e,
  0x9a, 0x00, 0x00, 0x00, 0x9b, 0xa9, 0x00, 0x00, 0x00, 0x00, 0x67, 0x00,
  0x54, 0x00, 0x00, 0x00, 0x00, 0xa2, 0x00, 0x00, 0x53, 0x00, 0x00, 0x3f,
  0x00, 0x4d, 0x39, 0x00, 0x00, 0x00, 0x00, 0x00, 0x00, 0x00, 0x00, 0x00,
  0x96, 0x00, 0x00, 0x7f, 0x00, 0x00, 0x3a, 0x3c, 0xc6, 0x46, 0x41, 0xca,
  0x00, 0x00, 0x00, 0x00, 0x00, 0x00, 0xd4, 0x00, 0x00, 0x00, 0x33, 0x2a,
  0x91, 0x32, 0x00, 0xbd, 0x00, 0x2b, 0xba, 0x6c, 0x00, 0x00, 0x00, 0x00,
  0x00, 0x56, 0x00, 0x75, 0x2c, 0x4f, 0x59, 0x00, 0x00, 0x00, 0x2e, 0x3a,
  0x00, 0xa8, 0xd0, 0xd2, 0x00, 0x00, 0xbe, 0x00, 0x00, 0xcb, 0x3a, 0x00,
  0x00, 0x00, 0x00, 0x00, 0x95, 0xa2, 0x00, 0x99, 0xc7, 0xd7, 0x00, 0x65,
  0x00, 0x00, 0x00, 0xd4, 0x47, 0x00, 0x00, 0x2f, 0x00, 0x00, 0xc8, 0x00,
  0x00, 0x00, 0x8e, 0xc3, 0x00, 0x92, 0x00, 0x00, 0x00, 0xbf, 0x00, 0x3e,
  0x00, 0x00, 0xc6, 0x00, 0x00, 0x00, 0xc2, 0x3e, 0xc2, 0xcb, 0x00, 0x00,
  0x00, 0x95, 0x00, 0x00, 0x00, 0xca, 0xb9, 0x85, 0x00, 0x00, 0xcb, 0x00,
  0x00, 0xb4, 0x00, 0x00, 0x00, 0x00, 0x00, 0x00, 0x3d, 0xd9, 0xc4, 0xa3,
  0xdd, 0x00, 0x00, 0x00, 0xc2, 0x9f, 0xc6, 0x00, 0xd8, 0x99, 0xd8, 0xda,
  0x00, 0x00, 0xc9, 0xc0, 0x2a, 0x28, 0xd5, 0x00, 0x00, 0xa2, 0x00, 0x00,
  0x00, 0xbd, 0x00, 0xd6, 0x2d, 0xd0, 0x00, 0x00, 0x00, 0x39, 0x26, 0x53,
  0x22, 0x00, 0x6f, 0x3b, 0x57, 0x25, 0x00, 0x00, 0xb5, 0x00, 0x00, 0x81,
  0x00, 0x00, 0xda, 0x00, 0x00, 0x00, 0xbb, 0xde, 0x00, 0x00, 0x00, 0x00,
  0x00, 0x00, 0x00, 0x00, 0x00, 0x00, 0x00, 0xd4, 0xc9, 0x00, 0x00, 0x00,
  0x25, 0xb3, 0x00, 0x32, 0x00, 0x00, 0xa3, 0x00, 0x00, 0x00, 0x28, 0x00,
  0x4b, 0xb7, 0x34, 0x4b, 0x6b, 0x5c, 0x37, 0x2b, 0x00, 0x00, 0xca, 0x90,
  0x00, 0x00, 0x00, 0x29, 0xda, 0x00, 0xd8, 0x00, 0x00, 0x00, 0xd7, 0x41,
  0x00, 0x3f, 0x39, 0x00, 0x3c, 0x34, 0xd8, 0x23, 0xcc, 0xaf, 0x00, 0x00,
  0xcd, 0x00, 0xd6, 0x00, 0xd6, 0x31, 0x24, 0x6e, 0x00, 0x00, 0x00, 0x00,
  0x00, 0x48, 0x39, 0x32, 0x00, 0x3c, 0x41, 0x4f, 0x6b, 0x00, 0x62, 0x57,
  0x00, 0x00, 0x53, 0x52, 0x00, 0x00, 0x00, 0x63, 0x00, 0xa7, 0x00, 0x98,
  0x00, 0x00, 0x00, 0x66, 0x00, 0x00, 0x00, 0x00, 0x00, 0x00, 0x8d, 0x00,
  0x89, 0x00, 0x00, 0x00, 0xab, 0x00, 0x85, 0x00, 0x62, 0xaa, 0x55, 0xae,
  0x00, 0x00, 0x00, 0xac, 0x00, 0x00, 0x8d, 0x00, 0x00, 0x84, 0x87, 0x00,
  0x00, 0x00, 0xa4, 0x00, 0x96, 0x00, 0x00, 0x64, 0x00, 0x00, 0x00, 0x00,
  0x00, 0x00, 0x00, 0x51, 0x8b, 0xaa, 0x00, 0x98, 0xa8, 0x5a, 0x00, 0x00,
  0x00, 0x00, 0x68, 0x00, 0x86, 0x00, 0x62, 0x00, 0x00, 0x00, 0xa9, 0x81,
  0x92, 0x91, 0x00, 0x96, 0x00, 0x69, 0x8e, 0x00, 0x00, 0x00, 0x00, 0x00,
  0xac, 0x00, 0x93, 0x00, 0x52, 0x9e, 0x59, 0x00, 0x00, 0x00, 0x00, 0x00,
  0x00, 0x00, 0x00, 0x00, 0x00, 0x00, 0xa0, 0x00, 0x00, 0x00, 0x00, 0x00,
  0x00, 0x5f, 0x65, 0xa6, 0x00, 0x00, 0x00, 0x00, 0x69, 0x00, 0x00, 0xaa,
  0x00, 0x9b, 0x52, 0x6c, 0x00, 0x00, 0x00, 0x00, 0x50, 0x2f, 0xdd, 0x94,
  0x28, 0x24, 0xc4, 0x00, 0x00, 0xc1, 0x00, 0x00, 0x00, 0xb6, 0x00, 0xd8,
  0x00, 0xda, 0x00, 0xd5, 0x00, 0xdb, 0x00, 0x40, 0x31, 0x00, 0x27, 0x34,
  0x54, 0xc7, 0x2a, 0x00, 0x00, 0x00, 0xb3, 0xd7, 0xbc, 0x00, 0x00, 0x50,
  0x34, 0xba, 0x00, 0x00, 0x57, 0x00, 0x00, 0x00, 0x5e, 0x32, 0x00, 0x99,
  0x00, 0x2b, 0x00, 0x00, 0x00, 0xc9, 0x00, 0x00, 0x29, 0x28, 0xd6, 0x00,
  0x00, 0x00, 0xd8, 0x00, 0x2d, 0xd6, 0xce, 0x00, 0x00, 0xdb, 0x5d, 0x2e,
  0x00, 0xa2, 0x00, 0x50, 0x34, 0x00, 0x00, 0x34, 0x00, 0x00, 0x00, 0x23,
  0x00, 0xb6, 0x38, 0x3c, 0x00, 0x00, 0x00, 0x3a, 0x26, 0x00, 0x00, 0x00,
  0x00, 0x00, 0x7f, 0x00, 0xd7, 0x4f, 0x27, 0xde, 0x00, 0x40, 0x00, 0x2a,
  0x3f, 0x23, 0x00, 0x41, 0xce, 0x30, 0x00, 0xd3, 0x00, 0x34, 0x00, 0xdc,
  0x00, 0x00, 0x00, 0x2b, 0x00, 0x00, 0x00, 0x51, 0xd2, 0x00, 0x41, 0x28,
  0x00, 0x49, 0x00, 0x00, 0x00, 0x00, 0x00, 0x31, 0x00, 0x00, 0x00, 0x00,
  0x00, 0x28, 0x00, 0x9f, 0x00, 0x4d, 0x00, 0x00, 0x00, 0x00, 0x00, 0x00,
  0x00, 0x00, 0x4c, 0x39, 0x36, 0x00, 0x00, 0xbf, 0x00, 0x00, 0x00, 0x00,
  0x00, 0xcc, 0x3b, 0x00, 0x00, 0x72, 0x46, 0x55, 0x52, 0x00, 0x00, 0xc4,
  0x00, 0x00, 0x00, 0x00, 0xcc, 0x00, 0x00, 0x00, 0x4f, 0x00, 0x00, 0x00,
  0x00, 0x00, 0x4f, 0xce, 0x00, 0x66, 0x00, 0x00, 0x00, 0x6d, 0x00, 0xd0,
  0x5e, 0x00, 0x27, 0x4c, 0x00, 0xcb, 0x63, 0x00, 0x00, 0x7f, 0x2d, 0x00,
  0x00, 0x00, 0xc8, 0xd2, 0x00, 0x00, 0x00, 0x24, 0xd7, 0x00, 0x7e, 0x00,
  0xcd, 0x48, 0x00, 0xc7, 0x00, 0x00, 0x00, 0x00, 0x00, 0xb6, 0x00, 0xc1,
  0x00, 0xd5, 0xc0, 0x2a, 0x00, 0x3a, 0xd2, 0x00, 0x00, 0x00, 0x00, 0x00,
  0x56, 0x00, 0x00, 0xcb, 0x00, 0x00, 0xce, 0x00, 0x00, 0xd8, 0xb9, 0xca,
  0x00, 0x00, 0x00, 0xba, 0x37, 0xcf, 0x00, 0x2d, 0x00, 0xbd, 0x00, 0x2c,
  0x00, 0x00, 0x00, 0x00, 0x41, 0x00, 0x00, 0xd5, 0x00, 0xc7, 0x00, 0x00,
  0x00, 0x00, 0x00, 0x00, 0x00, 0x56, 0x00, 0x00, 0x00, 0x00, 0x58, 0x00,
  0x00, 0x7f, 0x00, 0x5c, 0x78, 0x00, 0x00, 0x58, 0x55, 0x6b, 0x00, 0x00,
  0x00, 0x4c, 0x00, 0x00, 0x00, 0x00, 0xad, 0x00, 0x00, 0x00, 0x00, 0x00,
  0x00, 0x5a, 0x4f, 0x00, 0x00, 0x00, 0x00, 0x00, 0x00, 0x00, 0x00, 0x00,
  0x00, 0x00, 0x00, 0x00, 0x00, 0x00, 0x00, 0xaf, 0x00, 0x58, 0x00, 0xa1,
  0x00, 0xac, 0x00, 0x00, 0x9d, 0x55, 0x00, 0x00, 0x00, 0x00, 0x00, 0x00,
  0x95, 0x00, 0x00, 0x00, 0x54, 0x00, 0xbe, 0x00, 0x00, 0x52, 0x00, 0x00,
  0x60, 0x00, 0x97, 0x00, 0x00, 0x00, 0x00, 0x00, 0x00, 0x00, 0x00, 0x00,
  0x00, 0x00, 0xad, 0x00, 0x00, 0x00, 0x00, 0x6a, 0x00, 0x00, 0xab, 0x00,
  0x00, 0x00, 0x00, 0x00, 0x00, 0xa4, 0x00, 0xa9, 0x00, 0x00, 0x00, 0x00,
  0x00, 0x00, 0xa2, 0x00, 0xac, 0x9c, 0xae, 0x00, 0x00, 0x00, 0x00, 0x9d,
  0x00, 0x00, 0x5c, 0x00, 0x5d, 0xad, 0xaf, 0x00, 0x9d, 0x00, 0x00, 0x00,
  0x00, 0x00, 0x00, 0xa5, 0x00, 0x00, 0x00, 0x00, 0x00, 0x60, 0x00, 0x59,
  0x00, 0x00, 0x00, 0x00, 0x00, 0x00, 0x00, 0x87, 0x89, 0x00, 0x00, 0x00,
  0x00, 0x75, 0x6d, 0x00, 0x00, 0x00, 0x00, 0x9f, 0x00, 0x00, 0x00, 0x00,
  0x00, 0x00, 0x00, 0x6d, 0x5e, 0x00, 0x00, 0x00, 0x00, 0x00, 0x00, 0x00,
  0x00, 0x00, 0x00, 0x00, 0x00, 0x5b, 0x00, 0x00, 0x5f, 0x00, 0x00, 0x00,
  0x00, 0x71, 0x92, 0x00, 0x8c, 0x00, 0x8c, 0xa3, 0x00, 0x67, 0x00, 0x00,
  0x00, 0x00, 0x00, 0x00, 0x00, 0x84, 0xa4, 0x93, 0x5c, 0x00, 0x00, 0x83,
  0x81, 0x00, 0x00, 0x9b, 0x00, 0xa7, 0x00, 0x00, 0x00, 0x00, 0x00, 0x00,
  0x00, 0x8c, 0x00, 0x65, 0x00, 0x00, 0x84, 0x00, 0x00, 0x00, 0x00, 0x00,
  0x00, 0x00, 0x5e, 0x00, 0x00, 0xa6, 0x9d, 0x00, 0x00, 0x00, 0x00, 0x64,
  0x00, 0x85, 0xa0, 0x00, 0x00, 0x00, 0x00, 0x5e, 0x00, 0xa6, 0x00, 0x64,
  0x00, 0x00, 0xa5, 0x64, 0x00, 0x00, 0xaa, 0x00, 0x00, 0x00, 0x93, 0x00,
  0x63, 0x84, 0xa3, 0x00, 0x00, 0x00, 0x00, 0x00, 0x69, 0x99, 0x59, 0x00,
  0x00, 0x00, 0x62, 0x00, 0x00, 0x00, 0x5d, 0xa0, 0x00, 0x00, 0x98, 0x00,
  0x00, 0x6a, 0x00, 0x00, 0x55, 0xaf, 0x00, 0x00, 0x00, 0x00, 0x53, 0x99,
  0x00, 0x91, 0xa2, 0xaa, 0x00, 0x9c, 0x00, 0x00, 0x8f, 0x00, 0x00, 0x00,
  0xaf, 0x00, 0x00, 0x95, 0x00, 0x96, 0x93, 0x00, 0x00, 0x00, 0x00, 0x00,
  0x00, 0x00, 0x00, 0x94, 0x00, 0x00, 0x00, 0x00, 0x00, 0x54, 0x81, 0x00,
  0x00, 0x00, 0x00, 0xaf, 0x52, 0x00, 0x00, 0x00, 0x61, 0x00, 0x00, 0x91,
  0x00, 0x00, 0x00, 0x81, 0x00, 0x00, 0x87, 0x00, 0x00, 0x00, 0x7d, 0x51,
  0x00, 0x00, 0x00, 0x5d, 0x00, 0x62, 0x6c, 0x86, 0x00, 0x00, 0x94, 0x5a,
  0x9a, 0x84, 0x9c, 0x00, 0x00, 0x00, 0x00, 0x6a, 0x00, 0x00, 0x00, 0x60,
  0x5c, 0xac, 0x00, 0x5e, 0x00, 0x00, 0x00, 0x00, 0x00, 0x00, 0x55, 0x00,
  0xa0, 0x00, 0x00, 0x00, 0xaf, 0x6b, 0x00, 0x00, 0x91, 0x00, 0x00, 0xc8,
  0xda, 0xcf, 0xa2, 0xd1, 0xc0, 0x00, 0xd8, 0x00, 0xc5, 0x88, 0x31, 0xb4,
  0xc6, 0x00, 0xd8, 0x00, 0x00, 0x00, 0xb5, 0xd1, 0x00, 0x98, 0x8e, 0x00,
  0x00, 0xcf, 0x2e, 0xa4, 0x00, 0x3d, 0x36, 0x00, 0x42, 0x00, 0x00, 0x00,
  0x00, 0x00, 0x00, 0x33, 0x2d, 0x00, 0x32, 0x00, 0x8f, 0x00, 0x3c, 0x00,
  0x00, 0x00, 0x00, 0xa2, 0xd4, 0xc5, 0xa1, 0x00, 0x00, 0xd6, 0x00, 0xb6,
  0xa5, 0x45, 0x00, 0x00, 0x00, 0x00, 0x00, 0x00, 0x00, 0x00, 0xcd, 0x00,
  0x00, 0xbb, 0x00, 0x00, 0x47, 0x00, 0x38, 0x00, 0x43, 0x00, 0x51, 0x00,
  0x00, 0xcd, 0x00, 0x00, 0x49, 0x71, 0x4b, 0x45, 0xcd, 0x00, 0xdb, 0x81,
  0x3d, 0x00, 0xd6, 0x00, 0x00, 0xcf, 0x00, 0x00, 0x00, 0x00, 0x45, 0x00,
  0x4a, 0x00, 0x00, 0x00, 0x00, 0x2a, 0x43, 0x47, 0x00, 0x00, 0x36, 0x00,
  0x00, 0x00, 0x00, 0x00, 0x00, 0x00, 0x00, 0x34, 0x00, 0x32, 0x00, 0x00,
  0x37, 0x34, 0x00, 0x00, 0x61, 0x5a, 0x48, 0x3b, 0xa6, 0xed, 0xff, 0xff,
  0x04, 0x00, 0x00, 0x00, 0x80, 0x00, 0x00, 0x00, 0x05, 0x05, 0x00, 0x00,
  0xce, 0xf7, 0xff, 0xff, 0xc0, 0x0c, 0x00, 0x00, 0xd1, 0x07, 0x00, 0x00,
  0x31, 0x03, 0x00, 0x00, 0xbf, 0xfa, 0xff, 0xff, 0xaf, 0xfb, 0xff, 0xff,
  0xdc, 0xfb, 0xff, 0xff, 0x24, 0xfd, 0xff, 0xff, 0xd4, 0x06, 0x00, 0x00,
  0xa0, 0x16, 0x00, 0x00, 0x9e, 0x02, 0x00, 0x00, 0x76, 0xf7, 0xff, 0xff,
  0xb5, 0x06, 0x00, 0x00, 0xc7, 0xfa, 0xff, 0xff, 0x20, 0xfa, 0xff, 0xff,
  0xd3, 0x05, 0x00, 0x00, 0x12, 0xf5, 0xff, 0xff, 0xce, 0x0a, 0x00, 0x00,
  0x93, 0x09, 0x00, 0x00, 0x9a, 0xf6, 0xff, 0xff, 0x9b, 0xf6, 0xff, 0xff,
  0x7d, 0xf8, 0xff, 0xff, 0x27, 0x07, 0x00, 0x00, 0xf5, 0x06, 0x00, 0x00,
  0x65, 0xf6, 0xff, 0xff, 0xb1, 0xf7, 0xff, 0xff, 0x64, 0x08, 0x00, 0x00,
  0xfe, 0x02, 0x00, 0x00, 0x6d, 0xfa, 0xff, 0xff, 0x19, 0xf7, 0xff, 0xff,
  0x06, 0x0f, 0x00, 0x00, 0x32, 0xee, 0xff, 0xff, 0x04, 0x00, 0x00, 0x00,
  0x00, 0x10, 0x00, 0x00, 0xf8, 0xa6, 0x29, 0x42, 0xe9, 0xca, 0xc1, 0xfa,
  0xcb, 0x4c, 0x3c, 0x32, 0x9f, 0x5e, 0x0f, 0xf5, 0x31, 0xd6, 0x01, 0xab,
  0xe8, 0x32, 0x37, 0x28, 0x1a, 0x2c, 0xd5, 0x69, 0x43, 0x3b, 0x31, 0xc4,
  0xc2, 0x2c, 0x55, 0x24, 0x62, 0xaa, 0x45, 0x9f, 0xdb, 0x7f, 0x26, 0x37,
  0xf7, 0x7e, 0xf6, 0x20, 0x0e, 0xb6, 0x2d, 0x13, 0x13, 0xd5, 0xe0, 0xe8,
  0x3f, 0xe8, 0x21, 0x5c, 0x3e, 0xd2, 0xbd, 0x0c, 0xe1, 0xf2, 0xf6, 0xc3,
  0x2d, 0xef, 0x43, 0x04, 0xbc, 0xe6, 0xd6, 0xb2, 0xfa, 0xb1, 0xc8, 0xfa,
  0xc6, 0x13, 0x05, 0x19, 0x0b, 0xf9, 0x33, 0x24, 0xe6, 0x0c, 0x0c, 0x07,
  0xd4, 0xd7, 0x08, 0x5d, 0xde, 0xf4, 0xfe, 0x09, 0xfb, 0xf3, 0xb9, 0xd3,
  0xf9, 0xe6, 0x24, 0xca, 0x45, 0x30, 0xbf, 0x4d, 0xe2, 0x36, 0xe8, 0x44,
  0xbf, 0x3f, 0x0e, 0xa0, 0xf0, 0xd2, 0xd2, 0xe0, 0x1c, 0xd8, 0xe1, 0x52,
  0x21, 0x8a, 0x1c, 0x5a, 0x58, 0x42, 0x92, 0x8b, 0xb3, 0xeb, 0x51, 0xca,
  0xf1, 0xd5, 0xf7, 0x0e, 0xac, 0x1b, 0xff, 0xd9, 0xd8, 0x98, 0xaa, 0x88,
  0xe8, 0x23, 0x51, 0x15, 0x66, 0x32, 0x2f, 0x4c, 0xea, 0x4e, 0xf6, 0x6d,
  0xd6, 0xcb, 0xd4, 0xfb, 0x83, 0x31, 0x71, 0x9e, 0x9b, 0x5e, 0xee, 0xaf,
  0xed, 0x5b, 0xd0, 0x94, 0xf7, 0xad, 0xfe, 0xc4, 0x87, 0xfd, 0x4d, 0xb5,
  0xbb, 0xc8, 0xe5, 0xd4, 0x56, 0x64, 0x1e, 0x60, 0xcf, 0xb5, 0x8e, 0x34,
  0xb6, 0xad, 0x9e, 0xa4, 0xd8, 0x0f, 0xa4, 0x16, 0x5c, 0xd4, 0x07, 0xc1,
  0x15, 0xd8, 0x20, 0x41, 0x64, 0x71, 0xca, 0x53, 0x03, 0xcb, 0x19, 0x2c,
  0x19, 0x81, 0xd8, 0x95, 0x20, 0xd7, 0x2c, 0x4e, 0x75, 0xa9, 0xc6, 0x8f,
  0x70, 0x6f, 0x82, 0x4d, 0xea, 0x26, 0x2b, 0x23, 0x16, 0xc3, 0x9e, 0xa1,
  0xe4, 0x8c, 0xbe, 0x08, 0x14, 0x01, 0x9d, 0xd1, 0xdb, 0x33, 0x18, 0xe7,
  0x2e, 0xd1, 0xdd, 0xc2, 0x2d, 0xbf, 0xdc, 0x28, 0x2a, 0xf5, 0xda, 0xff,
  0x10, 0x25, 0xed, 0x13, 0xd4, 0x2b, 0xe0, 0xf5, 0x1a, 0xd4, 0xe0, 0x03,
  0x1e, 0x21, 0xe9, 0x43, 0xb5, 0x20, 0xef, 0x3f, 0x3f, 0xe5, 0xea, 0x37,
  0x31, 0xdd, 0x08, 0x15, 0xda, 0xfa, 0xe1, 0x08, 0xa6, 0xe6, 0xd9, 0x4c,
  0xca, 0x40, 0x39, 0xb2, 0x14, 0xe1, 0x29, 0x4b, 0xf4, 0xff, 0xee, 0xf4,
  0xd0, 0xfb, 0x31, 0x07, 0x10, 0xea, 0x05, 0xeb, 0xe7, 0x24, 0xc6, 0xba,
  0x0e, 0xef, 0x1f, 0xc6, 0x15, 0x08, 0xd7, 0xcb, 0x26, 0x0b, 0xd9, 0x3d,
  0x25, 0x35, 0x03, 0x09, 0xfb, 0xfd, 0x30, 0x38, 0xed, 0xd4, 0xfb, 0x02,
  0x21, 0xe2, 0xef, 0x2c, 0x38, 0x7f, 0x2b, 0x13, 0xd5, 0x36, 0x04, 0xe3,
  0xd8, 0x19, 0x4a, 0x17, 0x18, 0xf4, 0x2d, 0xe7, 0xd7, 0x09, 0x15, 0x4d,
  0x13, 0xe5, 0x06, 0xc1, 0x23, 0x1b, 0x43, 0x5b, 0x1d, 0x9c, 0xe2, 0xe2,
  0x56, 0x04, 0xe4, 0xfa, 0xdc, 0xee, 0x2d, 0xca, 0xf8, 0xd2, 0x64, 0xc4,
  0xca, 0xaa, 0x00, 0xe4, 0xbd, 0x0f, 0xe5, 0x55, 0xcf, 0x0b, 0xc3, 0xd1,
  0x0a, 0xe9, 0x2c, 0x1c, 0x32, 0xde, 0xe6, 0xa8, 0x34, 0xf5, 0x4a, 0xe6,
  0xa0, 0x20, 0x9d, 0xbd, 0x71, 0xb3, 0x28, 0xdf, 0xc1, 0xbf, 0xb9, 0x4d,
  0xf0, 0xc1, 0x38, 0x7f, 0xd2, 0xf3, 0xdf, 0x45, 0x0d, 0xbb, 0xdb, 0x06,
  0xe1, 0xfb, 0xf6, 0xe4, 0xef, 0xd7, 0x21, 0x01, 0x0f, 0xe7, 0xef, 0xfc,
  0xea, 0xd7, 0x24, 0x21, 0x3b, 0x29, 0x10, 0x0c, 0xec, 0x4d, 0xf4, 0xc2,
  0xd0, 0xef, 0xd5, 0x41, 0x30, 0x24, 0x10, 0xf7, 0xcd, 0x4c, 0x46, 0xec,
  0x57, 0x2c, 0x16, 0x0a, 0x34, 0xb0, 0x1f, 0x52, 0x2a, 0x4a, 0xc8, 0x2b,
  0x1c, 0x37, 0x44, 0xfe, 0x5b, 0xbd, 0x3c, 0x2f, 0xc0, 0xf8, 0x28, 0x54,
  0xe5, 0x3d, 0xda, 0x20, 0xb1, 0xe9, 0xf8, 0x25, 0x18, 0x05, 0x25, 0x2c,
  0x11, 0x26, 0x28, 0xd7, 0x34, 0x40, 0xde, 0xe4, 0x30, 0xe1, 0xcd, 0x72,
  0x1e, 0x3b, 0x03, 0x05, 0x13, 0xea, 0xec, 0xf9, 0x08, 0x19, 0xce, 0xb6,
  0xc1, 0x5b, 0x3e, 0x3f, 0xc0, 0xca, 0x9a, 0x02, 0x12, 0x9b, 0xe3, 0x3a,
  0x61, 0xfd, 0x04, 0xb9, 0xf9, 0xe5, 0xf8, 0xfe, 0x0f, 0x05, 0xe0, 0xc2,
  0xce, 0x03, 0xfd, 0x06, 0x21, 0x34, 0x1a, 0xd1, 0x39, 0x39, 0x08, 0x1d,
  0xd5, 0x4a, 0x12, 0x45, 0x37, 0x26, 0xda, 0xe7, 0x25, 0xcd, 0x41, 0xf3,
  0xe9, 0xd1, 0xe8, 0xef, 0x17, 0xd8, 0x4f, 0xb4, 0x15, 0x20, 0x06, 0xcf,
  0x4b, 0x41, 0xd0, 0x0d, 0x81, 0x0d, 0xe1, 0xdd, 0xee, 0xc9, 0x04, 0x1b,
  0x2d, 0xa0, 0x22, 0x09, 0x32, 0x07, 0xaf, 0xdc, 0x2c, 0x0d, 0xfe, 0xed,
  0x40, 0x32, 0x1d, 0xb6, 0xf1, 0xee, 0xe2, 0x35, 0x8f, 0x49, 0xd7, 0x8c,
  0x62, 0x96, 0x92, 0xf0, 0x67, 0x54, 0xee, 0x02, 0x92, 0xb2, 0x2d, 0x17,
  0xc9, 0xad, 0x94, 0x25, 0x37, 0xa5, 0x9d, 0x12, 0x2c, 0x10, 0x03, 0x76,
  0xa3, 0x26, 0x08, 0xed, 0x3a, 0x69, 0xf6, 0xa4, 0x37, 0xb6, 0x62, 0x2d,
  0x28, 0x1c, 0x89, 0x23, 0x33, 0x94, 0x8d, 0xd4, 0x2c, 0xbd, 0x4a, 0x96,
  0x42, 0x0c, 0xc0, 0x47, 0x45, 0xba, 0xc6, 0xaa, 0x92, 0xbf, 0x27, 0xeb,
  0xa7, 0x8b, 0xfa, 0xdf, 0x03, 0x51, 0x61, 0xbd, 0x22, 0x2a, 0x3d, 0x91,
  0x17, 0xe0, 0xb8, 0xf6, 0x48, 0x97, 0xb3, 0x08, 0x25, 0x9c, 0x3e, 0x28,
  0x1e, 0xba, 0xa2, 0x46, 0x92, 0x77, 0x73, 0x8a, 0x29, 0xbe, 0x41, 0x15,
  0xea, 0xb4, 0x48, 0x29, 0x2a, 0xf6, 0xc0, 0x97, 0x24, 0xa1, 0x3e, 0xff,
  0x50, 0x47, 0xa4, 0x7f, 0x13, 0x7f, 0x98, 0x29, 0xca, 0x9d, 0xd6, 0x7d,
  0x3e, 0x90, 0x89, 0xfb, 0x5c, 0x28, 0x81, 0xa0, 0x6c, 0xb6, 0x89, 0x81,
  0xb1, 0xca, 0x38, 0xed, 0xd2, 0x87, 0x05, 0xad, 0xe1, 0xb1, 0x9c, 0x2b,
  0xd7, 0xfb, 0x7a, 0xde, 0xcc, 0xc8, 0x19, 0x72, 0x3d, 0x98, 0xd8, 0x53,
  0x36, 0x9b, 0xd4, 0x4f, 0x85, 0x83, 0x15, 0xc6, 0xe1, 0x86, 0x5f, 0x72,
  0xdc, 0x99, 0xa2, 0x25, 0xca, 0x49, 0xe7, 0x25, 0xf8, 0x8f, 0x62, 0x8d,
  0x11, 0xce, 0x3f, 0xb1, 0xd5, 0x4f, 0x0a, 0x6c, 0xf4, 0x23, 0xb3, 0x0b,
  0xa9, 0x97, 0xa8, 0x0a, 0x85, 0x5c, 0x02, 0x13, 0x29, 0x65, 0x60, 0xd5,
  0xba, 0x5d, 0x81, 0x40, 0xcb, 0xe7, 0x94, 0x72, 0xe4, 0xa7, 0xb6, 0x2f,
  0x4f, 0xa6, 0xc7, 0xaf, 0xa9, 0x9e, 0x65, 0xa9, 0xa3, 0xf7, 0x96, 0x52,
  0x54, 0x13, 0x8b, 0xf5, 0x23, 0x5c, 0x4f, 0x03, 0x19, 0x52, 0xb3, 0x07,
  0xb1, 0x9a, 0xfe, 0x4d, 0x0f, 0x8d, 0x2b, 0x69, 0x96, 0xde, 0xca, 0x45,
  0x11, 0x48, 0x32, 0x14, 0xe5, 0xcb, 0xb3, 0x33, 0xc4, 0xe8, 0x3f, 0x27,
  0x24, 0x7c, 0xc8, 0xe9, 0xb8, 0xcf, 0x7f, 0x47, 0xf1, 0xae, 0x00, 0xe8,
  0xbd, 0x09, 0x99, 0x67, 0x1b, 0xc5, 0xf8, 0x14, 0xd7, 0xa2, 0x51, 0x7e,
  0x57, 0x1a, 0xfd, 0xbf, 0x53, 0x06, 0x41, 0x46, 0xbf, 0x74, 0xaa, 0x2c,
  0x02, 0x32, 0xef, 0x38, 0xbf, 0x30, 0x34, 0xea, 0x30, 0x28, 0x19, 0x20,
  0xff, 0xfa, 0x39, 0x70, 0x97, 0x3e, 0xdb, 0x3f, 0x8d, 0xe1, 0xfc, 0xe2,
  0xf4, 0xda, 0x16, 0x13, 0xdf, 0x07, 0x20, 0x48, 0xd3, 0xdf, 0xc2, 0xbe,
  0x48, 0xd1, 0xe0, 0xb4, 0x1d, 0xcc, 0xbe, 0xd9, 0xec, 0x3e, 0x4a, 0x10,
  0x4f, 0xe0, 0x55, 0x1a, 0x7e, 0x32, 0xae, 0x15, 0xe4, 0x0f, 0x4f, 0xd7,
  0x07, 0x1e, 0x01, 0xf6, 0xcd, 0xde, 0xd8, 0x21, 0x3a, 0xce, 0x20, 0x3d,
  0x34, 0xe5, 0x2d, 0x12, 0x30, 0xc7, 0x30, 0x18, 0xb8, 0xfb, 0x3f, 0xf1,
  0xeb, 0xfb, 0x1c, 0xdc, 0xf6, 0xd2, 0xbf, 0x0a, 0x04, 0x29, 0x21, 0xc4,
  0xf9, 0xeb, 0x3d, 0xcb, 0x25, 0xee, 0xdf, 0x81, 0xf0, 0xfa, 0x30, 0x3b,
  0x23, 0xed, 0xe5, 0x2b, 0x03, 0xcd, 0xf7, 0x45, 0xea, 0xc3, 0xcb, 0x30,
  0x1f, 0xa8, 0xee, 0x5d, 0x2b, 0x46, 0x26, 0x1a, 0xc4, 0xe9, 0xd0, 0x4b,
  0xfb, 0x04, 0xde, 0xf1, 0xab, 0xd5, 0x00, 0x2c, 0x02, 0xd3, 0x18, 0xfc,
  0xfb, 0x34, 0x41, 0x00, 0xd3, 0xa2, 0x30, 0x0b, 0xf9, 0xc3, 0x02, 0xfe,
  0x28, 0xea, 0xd2, 0xb9, 0xea, 0x2e, 0x23, 0x06, 0xe2, 0x0e, 0x2a, 0x0a,
  0x19, 0x25, 0xe6, 0x45, 0x08, 0xea, 0xe1, 0xf1, 0xac, 0xb7, 0x4a, 0x02,
  0x7c, 0xd8, 0x0b, 0x38, 0x3a, 0x5b, 0x25, 0xcc, 0xef, 0x43, 0x10, 0xdc,
  0xe9, 0x21, 0x7d, 0x1d, 0xc0, 0x07, 0x3c, 0x19, 0x2c, 0xf5, 0xda, 0x5c,
  0xd8, 0xf8, 0xee, 0x04, 0xd4, 0xdd, 0xac, 0xf0, 0x3e, 0x0c, 0xc7, 0xcb,
  0x04, 0xa4, 0xfc, 0x2e, 0x1c, 0xb6, 0x04, 0x4b, 0xdb, 0x05, 0xe7, 0x10,
  0xd1, 0x07, 0xc9, 0x81, 0x4e, 0x09, 0x3e, 0x19, 0xd9, 0x04, 0x0e, 0x18,
  0xd5, 0x1f, 0xba, 0x61, 0x31, 0x35, 0x1e, 0x22, 0x41, 0xb4, 0xf3, 0x20,
  0x21, 0xf6, 0xe2, 0x07, 0xab, 0xc8, 0x9d, 0xf3, 0x36, 0x49, 0xd3, 0xc8,
  0x25, 0x1f, 0x3c, 0x19, 0xfe, 0xf9, 0x25, 0xb4, 0x23, 0x0a, 0x2d, 0xe3,
  0x10, 0xbb, 0x35, 0xd9, 0xfc, 0xe3, 0xb6, 0xef, 0xee, 0x32, 0xca, 0x29,
  0xd5, 0x29, 0x2c, 0xfe, 0x30, 0xcb, 0x15, 0xd5, 0x14, 0xd9, 0xd5, 0x24,
  0x05, 0xd6, 0x09, 0xdc, 0xb9, 0xee, 0x17, 0xd2, 0x68, 0xb1, 0xf5, 0x2a,
  0xe8, 0x1e, 0x33, 0xb3, 0x00, 0x5d, 0x09, 0xc2, 0xdc, 0xed, 0x60, 0xfb,
  0x03, 0x15, 0x28, 0x42, 0xce, 0xcd, 0x10, 0x55, 0x12, 0xfa, 0xf5, 0x0d,
  0x59, 0x18, 0xd0, 0x29, 0xae, 0x1e, 0xc3, 0x14, 0x29, 0xfe, 0x08, 0xb0,
  0xc0, 0x08, 0xe5, 0xb7, 0x15, 0x4f, 0x14, 0xf5, 0x1e, 0x5a, 0xdc, 0x2f,
  0x2a, 0xe6, 0x53, 0xca, 0x3d, 0xe2, 0x1c, 0xad, 0x3d, 0xf0, 0xc4, 0xc0,
  0xdc, 0x18, 0x23, 0x18, 0xa6, 0xed, 0xdf, 0x16, 0xbd, 0xb8, 0xea, 0x58,
  0x75, 0xe9, 0xb8, 0x02, 0xcc, 0x17, 0xda, 0x72, 0x38, 0x06, 0x0f, 0xde,
  0x25, 0x4c, 0x08, 0xd2, 0x57, 0x05, 0x1e, 0xc1, 0x2e, 0x33, 0x1d, 0x4a,
  0xc4, 0x19, 0x2a, 0x0e, 0xf7, 0x03, 0x1b, 0xe3, 0xc6, 0xff, 0xf0, 0xf5,
  0xfb, 0x11, 0x20, 0xdd, 0x27, 0xc8, 0xff, 0x2e, 0x0b, 0xde, 0x29, 0xda,
  0x37, 0x3f, 0x84, 0xa7, 0x81, 0x53, 0xc3, 0x02, 0x04, 0xd6, 0x8f, 0xda,
  0x4e, 0xba, 0xcf, 0x56, 0xde, 0xba, 0xef, 0xb3, 0xf6, 0xcd, 0xc8, 0xaa,
  0xdc, 0xcf, 0x38, 0x98, 0x01, 0x3b, 0xcd, 0x17, 0xf0, 0x2b, 0xcd, 0x9e,
  0x15, 0xed, 0xd7, 0x00, 0xd5, 0x32, 0xe9, 0xf7, 0x3c, 0xe9, 0x27, 0x3d,
  0xdb, 0x17, 0xac, 0x03, 0x49, 0x74, 0xd9, 0x1a, 0x3c, 0x40, 0x45, 0x8c,
  0xc1, 0x18, 0xf1, 0xe2, 0x11, 0x0a, 0x81, 0xd1, 0xed, 0x14, 0x0f, 0x57,
  0x2c, 0xd0, 0xeb, 0xdc, 0x0f, 0x9a, 0x31, 0xe0, 0xa6, 0x2d, 0x8d, 0xa0,
  0x3c, 0x2f, 0xcc, 0x46, 0x51, 0xf5, 0xfc, 0x86, 0xff, 0x2e, 0xd9, 0x11,
  0x0d, 0x30, 0xfa, 0xf3, 0x57, 0x49, 0x14, 0xcf, 0x5d, 0x4e, 0xd3, 0x57,
  0x4b, 0xff, 0xe0, 0xd7, 0x4e, 0x34, 0xde, 0x2d, 0x29, 0x12, 0xba, 0x27,
  0x1b, 0x09, 0xfd, 0x33, 0x03, 0xf0, 0xee, 0xf1, 0xe7, 0x25, 0x28, 0xf7,
  0xf7, 0x00, 0x3c, 0x2d, 0xce, 0x31, 0xce, 0xaf, 0xdc, 0x16, 0xca, 0x2e,
  0x34, 0x4c, 0xe6, 0x2c, 0x2c, 0x1a, 0x14, 0xdb, 0xc9, 0x18, 0xd8, 0x35,
  0xd3, 0x4b, 0xff, 0xd2, 0x51, 0x4e, 0xc9, 0x27, 0xca, 0x5a, 0x61, 0x4b,
  0x53, 0x4d, 0x32, 0x18, 0xba, 0xa5, 0x89, 0x1a, 0xff, 0x18, 0x81, 0x91,
  0x2b, 0x6e, 0x34, 0xe1, 0x95, 0x5e, 0xd2, 0xfd, 0xc5, 0x0c, 0xc7, 0x93,
  0x07, 0xa7, 0xbb, 0x47, 0x23, 0x3a, 0xac, 0xcb, 0xb1, 0xba, 0xf6, 0xfd,
  0x95, 0x83, 0xe0, 0x2a, 0x42, 0xa2, 0xdb, 0xe3, 0x01, 0x33, 0xc3, 0x11,
  0x44, 0xd7, 0xd3, 0x97, 0x02, 0x08, 0xa2, 0x15, 0xe8, 0x17, 0x82, 0x3f,
  0x9b, 0x91, 0x2b, 0x60, 0x0e, 0x2f, 0x36, 0x87, 0x45, 0x08, 0x3c, 0x1c,
  0x2b, 0xda, 0xab, 0xca, 0x32, 0xbc, 0x1b, 0xff, 0xe1, 0x2a, 0xf3, 0xe3,
  0xdd, 0x47, 0xaa, 0x37, 0xf6, 0x57, 0x6f, 0x20, 0xb1, 0xd1, 0xb3, 0x98,
  0x6d, 0x96, 0x95, 0x24, 0x45, 0x4b, 0xcf, 0x9a, 0x43, 0xa5, 0xbf, 0x95,
  0xc6, 0x00, 0x3a, 0xce, 0xd2, 0x8b, 0xae, 0x34, 0x70, 0x34, 0xd6, 0x50,
  0xdf, 0x8c, 0xb3, 0xd4, 0x4c, 0xd9, 0x91, 0x40, 0x35, 0x6d, 0xe5, 0xf5,
  0x10, 0x42, 0x18, 0xd8, 0x23, 0x54, 0xd8, 0xe1, 0xf3, 0xd6, 0x05, 0xaa,
  0x38, 0x8f, 0xc6, 0x96, 0x08, 0x6f, 0xf6, 0xf1, 0xeb, 0xc2, 0xd8, 0x6e,
  0x92, 0x01, 0xcb, 0x98, 0xcb, 0x68, 0xf6, 0x3f, 0xa0, 0xb4, 0x47, 0xa1,
  0xbc, 0x29, 0xbb, 0xf8, 0xb0, 0xfb, 0xb7, 0x58, 0xfb, 0x49, 0x1e, 0x1a,
  0xb4, 0xfa, 0xc5, 0x1f, 0x6e, 0x9e, 0x8d, 0xc5, 0x40, 0x13, 0xdc, 0xfa,
  0x19, 0x8d, 0x99, 0x5c, 0x35, 0xd0, 0xef, 0x08, 0x5e, 0x19, 0xbd, 0xd8,
  0xc9, 0x8e, 0xb4, 0x47, 0xc1, 0xac, 0xa8, 0x55, 0x47, 0x4b, 0xd4, 0x22,
  0x23, 0x60, 0xa9, 0x64, 0x34, 0xfc, 0xcd, 0x62, 0xbf, 0xba, 0xbc, 0x01,
  0xcb, 0x5e, 0x10, 0x3d, 0xb8, 0x39, 0x99, 0x69, 0xaa, 0x46, 0x9a, 0xf7,
  0xb2, 0x2f, 0xcb, 0x81, 0xe3, 0x19, 0x6c, 0xe3, 0x1a, 0x32, 0x49, 0xf1,
  0x42, 0xdd, 0xf8, 0x2d, 0x16, 0x0a, 0xf2, 0xfe, 0xc1, 0x36, 0xc5, 0xd6,
  0x21, 0xc6, 0x00, 0xbf, 0x3f, 0xb2, 0xed, 0xc8, 0x31, 0xe5, 0xe4, 0x1c,
  0x26, 0x25, 0xd0, 0xf9, 0xeb, 0x2d, 0x56, 0x0b, 0x64, 0xdc, 0xbe, 0xdd,
  0x49, 0x2d, 0x7f, 0xdf, 0x16, 0x3c, 0x04, 0xdc, 0xe6, 0x24, 0xee, 0x64,
  0xb9, 0x0f, 0x24, 0xd1, 0x30, 0x40, 0x0a, 0x2c, 0xff, 0x14, 0xec, 0xd3,
  0xfc, 0xe6, 0xf2, 0xbd, 0xc7, 0xbc, 0xeb, 0x3a, 0xba, 0xd0, 0xdd, 0x1c,
  0xcc, 0x05, 0x10, 0xdc, 0x32, 0xf1, 0xdf, 0xe9, 0xf1, 0x1b, 0xc2, 0x08,
  0x46, 0x0d, 0xc8, 0x12, 0x15, 0x3b, 0x14, 0x28, 0x21, 0xcc, 0x35, 0x26,
  0x77, 0x34, 0xcb, 0x11, 0x5a, 0x65, 0xf1, 0x08, 0x35, 0xfb, 0xec, 0xe5,
  0x43, 0xff, 0xf0, 0x24, 0xd9, 0xc0, 0x18, 0xdf, 0x02, 0x06, 0x3b, 0x7b,
  0x46, 0xeb, 0x42, 0xff, 0xaf, 0x03, 0x7a, 0x29, 0x11, 0xe6, 0x27, 0x57,
  0x16, 0x72, 0x37, 0xef, 0xf5, 0x10, 0x93, 0xa4, 0xbd, 0x16, 0x07, 0x01,
  0xe9, 0x99, 0xf9, 0x09, 0xf7, 0xbb, 0xf4, 0x35, 0xd6, 0x4c, 0xc8, 0x43,
  0x17, 0x1f, 0x6a, 0x31, 0x7f, 0x00, 0x47, 0xd9, 0xff, 0x5d, 0x5e, 0x4b,
  0x89, 0x20, 0xaa, 0xc2, 0x76, 0x13, 0x67, 0x0b, 0xf4, 0xf8, 0xd1, 0x09,
  0x05, 0xea, 0xe0, 0x11, 0x10, 0x32, 0xf1, 0x2a, 0xfc, 0xdb, 0xf0, 0x13,
  0xb1, 0xc3, 0x53, 0xb2, 0x1f, 0x63, 0x46, 0xfc, 0xb9, 0xb9, 0xf6, 0xfa,
  0xcd, 0x34, 0x21, 0x3d, 0x20, 0xbf, 0x34, 0x17, 0xfc, 0x18, 0xd2, 0x9b,
  0xda, 0xe2, 0x0d, 0x4c, 0x3d, 0x29, 0x0b, 0x3c, 0x1d, 0xee, 0xe8, 0x2e,
  0x59, 0xc0, 0xfe, 0x42, 0x18, 0x4f, 0x43, 0x25, 0xf8, 0x1f, 0x37, 0x0e,
  0x0b, 0xc7, 0x15, 0x22, 0x27, 0xff, 0xea, 0x07, 0xe8, 0xf2, 0x50, 0xe0,
  0xeb, 0xda, 0xd1, 0x5f, 0xf3, 0xf7, 0xf1, 0x25, 0xbb, 0x0b, 0x54, 0xc8,
  0xa5, 0x07, 0xde, 0x56, 0xc1, 0xcd, 0x0f, 0x25, 0x1b, 0x5c, 0x38, 0xbf,
  0x43, 0x32, 0xf3, 0x8e, 0x56, 0x2b, 0xde, 0x2f, 0x5a, 0x08, 0xbe, 0xc5,
  0x0f, 0xb1, 0xb3, 0x3e, 0xcc, 0x73, 0x09, 0x2b, 0x6b, 0xdd, 0x9d, 0x6b,
  0xda, 0x82, 0x81, 0x66, 0x47, 0xd9, 0xb8, 0x3d, 0xe2, 0x24, 0xca, 0x2d,
  0xc8, 0xa6, 0x45, 0xd0, 0xe6, 0xd8, 0x33, 0x89, 0x8b, 0xef, 0xd4, 0x62,
  0xb4, 0x66, 0x91, 0x2b, 0xc8, 0x1a, 0xf6, 0x65, 0x6f, 0x41, 0x2a, 0xb9,
  0x90, 0xca, 0x33, 0x66, 0x46, 0xa2, 0x88, 0xfb, 0x17, 0xf0, 0xfc, 0xb5,
  0x11, 0x2b, 0x5d, 0x47, 0xd9, 0x88, 0x3d, 0xa7, 0x9a, 0xe3, 0x35, 0xb6,
  0xb5, 0x4e, 0x26, 0x8d, 0x0c, 0x46, 0xc3, 0x4a, 0x05, 0x8e, 0xeb, 0xad,
  0x9e, 0xa0, 0xa0, 0xf0, 0x99, 0x68, 0x92, 0xe2, 0x16, 0x0d, 0x06, 0xc6,
  0xdf, 0x5c, 0x00, 0xff, 0x15, 0xc5, 0xdd, 0xfa, 0xee, 0xe6, 0x37, 0x12,
  0x20, 0x16, 0xcf, 0xda, 0xf1, 0x1f, 0x30, 0x30, 0x16, 0xe6, 0x44, 0xe3,
  0x3d, 0x15, 0x28, 0xa2, 0x74, 0xf5, 0x08, 0x92, 0x0a, 0xf6, 0xf8, 0xbc,
  0xf5, 0x5a, 0xe5, 0xfc, 0x12, 0x93, 0xd4, 0x06, 0x2f, 0x46, 0x30, 0xbc,
  0xef, 0xbe, 0x0f, 0x61, 0x15, 0xba, 0x02, 0xae, 0x2c, 0xc2, 0xf6, 0xc8,
  0x03, 0x3a, 0xd0, 0xf1, 0xb1, 0xf0, 0xcc, 0xc8, 0xbf, 0xfc, 0x27, 0xf8,
  0x2d, 0xd7, 0x56, 0x0b, 0xef, 0x33, 0xfe, 0x10, 0xf9, 0xdc, 0x19, 0xf6,
  0xea, 0xcb, 0xed, 0xff, 0xed, 0xe5, 0xc9, 0x22, 0x54, 0x25, 0x0a, 0xbb,
  0xba, 0x59, 0x3e, 0xfb, 0x1b, 0xf5, 0x99, 0x1a, 0xc5, 0xab, 0x16, 0x54,
  0x09, 0xf1, 0x9b, 0x15, 0xec, 0xec, 0xe8, 0x2c, 0x27, 0x30, 0x03, 0x81,
  0xd6, 0xcd, 0x18, 0x06, 0xe0, 0x0c, 0x3e, 0x13, 0xfa, 0xdb, 0xdc, 0x1c,
  0x01, 0x1f, 0x6c, 0xfc, 0x0e, 0x6b, 0x30, 0xd2, 0x02, 0xb9, 0x05, 0x0f,
  0xe6, 0xf8, 0x21, 0x3d, 0xca, 0x2d, 0xc2, 0x2c, 0xfb, 0xcb, 0x08, 0xca,
  0x30, 0x0b, 0x2b, 0xa4, 0xc8, 0x25, 0xfa, 0xd1, 0xc5, 0x14, 0xdc, 0xc9,
  0xd8, 0x2f, 0x06, 0xf8, 0x7f, 0xda, 0x2c, 0xd6, 0xe4, 0x03, 0xdb, 0x57,
  0xfc, 0xd5, 0x0b, 0x2f, 0x2f, 0x05, 0xd3, 0x51, 0xd0, 0xda, 0x1e, 0x10,
  0xfe, 0x0a, 0xf3, 0xcb, 0xce, 0x2c, 0x0d, 0x0a, 0xc8, 0xdc, 0x30, 0x28,
  0x03, 0x25, 0x11, 0x1d, 0xe7, 0x1b, 0x10, 0xd8, 0x28, 0x35, 0x27, 0xf7,
  0xe1, 0xf3, 0xd3, 0xbf, 0xf3, 0xf5, 0xb1, 0x27, 0x8f, 0x0f, 0x21, 0xff,
  0xd4, 0xcd, 0xd6, 0xfc, 0x0d, 0xd3, 0x42, 0x0e, 0x22, 0x31, 0x91, 0x19,
  0x1b, 0x32, 0x35, 0xd5, 0x4c, 0xdb, 0x1a, 0xf6, 0x29, 0xcf, 0xc9, 0xe8,
  0xec, 0x93, 0xc0, 0x91, 0x6f, 0x69, 0x93, 0xd5, 0xf9, 0xf8, 0x30, 0x3f,
  0xaf, 0xb1, 0xad, 0x6a, 0xfb, 0x83, 0x3d, 0x5a, 0x50, 0xa8, 0x11, 0xd6,
  0x93, 0x23, 0xbe, 0xfe, 0x68, 0x8d, 0x3d, 0x5d, 0x39, 0x02, 0x6e, 0x75,
  0xbb, 0xb7, 0x78, 0xaa, 0xa3, 0x05, 0x5d, 0xe3, 0x74, 0xd4, 0xa9, 0x84,
  0xc8, 0x23, 0x0d, 0x81, 0x85, 0x30, 0x30, 0x79, 0xba, 0x53, 0x74, 0x64,
  0xb1, 0x1e, 0xd3, 0x22, 0xb1, 0x07, 0xae, 0x8f, 0x1c, 0xa0, 0xcd, 0xeb,
  0x23, 0xb5, 0x8c, 0xf0, 0x3f, 0x55, 0xb2, 0x98, 0x00, 0xc4, 0xae, 0x1d,
  0x84, 0x9c, 0x24, 0xbb, 0x22, 0xf3, 0x1d, 0xa4, 0xd5, 0xc6, 0x5a, 0x1e,
  0xc0, 0xa9, 0x87, 0x3a, 0x54, 0x02, 0xb4, 0xe1, 0x53, 0xdb, 0x4a, 0xf8,
  0x14, 0xe8, 0xd5, 0x0b, 0x9b, 0xc7, 0x27, 0x4b, 0xee, 0xe1, 0x5b, 0xf9,
  0x2b, 0xa3, 0x2f, 0x1d, 0xf9, 0x57, 0x26, 0x3f, 0xf5, 0xf5, 0xec, 0xed,
  0x00, 0x11, 0xf8, 0xaf, 0xe6, 0xe9, 0x9b, 0x1e, 0x47, 0xc8, 0xe3, 0x18,
  0xe5, 0x40, 0xe9, 0x33, 0x24, 0xd7, 0x09, 0xdb, 0x0b, 0xf0, 0x2c, 0x26,
  0x37, 0xe9, 0x10, 0x33, 0xea, 0x29, 0xb2, 0x65, 0x19, 0x2b, 0xef, 0xef,
  0x08, 0xe4, 0x1f, 0x03, 0x08, 0x15, 0x2e, 0xd1, 0xf4, 0xd3, 0xc6, 0x57,
  0x1b, 0xf1, 0xe2, 0xa3, 0xca, 0xf4, 0xea, 0xdc, 0x00, 0x23, 0xf3, 0x01,
  0x28, 0x38, 0x41, 0x10, 0x39, 0xc5, 0x39, 0xcd, 0x0e, 0xf0, 0x16, 0x9f,
  0xfd, 0x25, 0xe8, 0xbc, 0x09, 0xcf, 0x06, 0x00, 0x28, 0xe9, 0xc4, 0x35,
  0x0c, 0xdd, 0x04, 0x02, 0x0c, 0xdf, 0x2e, 0x26, 0xf1, 0xf1, 0x5b, 0x2c,
  0x75, 0x0e, 0x2d, 0xf2, 0x43, 0x61, 0x4d, 0xff, 0x0a, 0x40, 0x23, 0xeb,
  0x00, 0x22, 0x59, 0xfa, 0xfe, 0x05, 0x33, 0x0b, 0x02, 0x14, 0xc9, 0x7f,
  0xd6, 0x08, 0x2a, 0xef, 0x5b, 0xe6, 0xaa, 0x9c, 0xf2, 0x3a, 0xde, 0xb5,
  0x1e, 0xd9, 0xe0, 0x12, 0xe8, 0xfe, 0x53, 0x41, 0x43, 0x0c, 0xaa, 0x12,
  0xc8, 0x60, 0x1c, 0xcf, 0x41, 0xea, 0xe9, 0x94, 0xbd, 0xf7, 0x41, 0xee,
  0x32, 0x29, 0xbe, 0xcd, 0x0c, 0x11, 0xfd, 0x37, 0x48, 0x81, 0xd2, 0x23,
  0x31, 0x99, 0x4d, 0xc1, 0xf8, 0xf9, 0x8d, 0xe0, 0x0c, 0x54, 0x39, 0xf7,
  0xdd, 0xec, 0x1f, 0xea, 0xbb, 0x1c, 0x0a, 0xfe, 0x23, 0xdc, 0xe4, 0x1c,
  0x09, 0x0d, 0xce, 0x0f, 0xfb, 0xe2, 0xbc, 0xc4, 0xfc, 0x46, 0xd3, 0x13,
  0x03, 0x3b, 0xd4, 0x00, 0xf0, 0x00, 0x05, 0xf8, 0xdd, 0x0e, 0x09, 0x63,
  0x23, 0xc0, 0xfa, 0xfc, 0xf9, 0x2a, 0xae, 0x23, 0x47, 0x2b, 0x39, 0xb6,
  0x1a, 0x34, 0x03, 0xf7, 0x31, 0x2a, 0x0c, 0xdd, 0xbf, 0xf6, 0x2a, 0xad,
  0xcd, 0xe0, 0xdf, 0x44, 0xbc, 0x0e, 0x1b, 0x64, 0x15, 0x24, 0x30, 0xbd,
  0xba, 0xf5, 0x58, 0x3b, 0xfb, 0x16, 0xc5, 0xe7, 0x35, 0x0e, 0x6e, 0x07,
  0x0c, 0xfe, 0xfe, 0x18, 0x32, 0xfc, 0xe9, 0x0b, 0xe1, 0xd4, 0x0f, 0x7f,
  0x19, 0xe1, 0xed, 0x48, 0xe1, 0xde, 0xd3, 0xcb, 0x24, 0xa6, 0x4f, 0xd4,
  0x2b, 0xc3, 0x1b, 0xd4, 0xb0, 0x55, 0x36, 0x11, 0xe1, 0xef, 0xe2, 0x28,
  0x19, 0xc2, 0x2d, 0xd5, 0xc7, 0xee, 0x36, 0x39, 0xf6, 0x08, 0xcc, 0x47,
  0xbf, 0x1e, 0x3f, 0x4f, 0x20, 0xf5, 0x0d, 0x0c, 0xfb, 0xe5, 0x2a, 0xc7,
  0xd6, 0xfc, 0x14, 0x0b, 0xc8, 0xce, 0x3c, 0x2a, 0x12, 0xed, 0x1b, 0xe6,
  0x28, 0x40, 0x30, 0x10, 0xec, 0xcb, 0x15, 0xff, 0x1d, 0xe5, 0xdf, 0x08,
  0x34, 0xdd, 0x00, 0x0e, 0xbc, 0x07, 0x36, 0x29, 0xf0, 0xd5, 0xd6, 0x48,
  0xf3, 0xdb, 0x25, 0x5c, 0xef, 0x19, 0x9d, 0x06, 0xfe, 0xce, 0x06, 0xd8,
  0x56, 0xd2, 0x01, 0xf0, 0x10, 0xd0, 0x21, 0x53, 0x1d, 0x6f, 0xf8, 0xd7,
  0x5a, 0x0e, 0x2f, 0xcc, 0xa6, 0x69, 0x32, 0x96, 0x8f, 0x5b, 0x3c, 0x9d,
  0x79, 0xb3, 0x36, 0x0a, 0xe0, 0x00, 0x63, 0xc9, 0xf3, 0x68, 0xcd, 0x77,
  0x9f, 0x4a, 0x6c, 0x47, 0x9e, 0xdc, 0xcb, 0xbb, 0xb8, 0xf2, 0x1b, 0xa0,
  0x55, 0x15, 0x6b, 0xd0, 0x54, 0xe1, 0xad, 0x52, 0xe3, 0x5b, 0xac, 0x81,
  0xa7, 0x95, 0xdf, 0xa9, 0x4a, 0x4e, 0x1a, 0x94, 0xec, 0x87, 0x1d, 0xf5,
  0x21, 0xcc, 0x42, 0xfc, 0xfa, 0xfb, 0xe8, 0x81, 0x96, 0xdf, 0xed, 0xc5,
  0x11, 0x29, 0x60, 0x60, 0x0f, 0x60, 0x11, 0x6f, 0x5f, 0x85, 0x0a, 0x20,
  0xf1, 0xfb, 0x43, 0x62, 0xee, 0x3b, 0xb6, 0xdc, 0x81, 0x36, 0xcf, 0x1e,
  0xd1, 0xa7, 0x32, 0x85, 0xaa, 0xdd, 0x69, 0x3f, 0x8f, 0xcb, 0x15, 0xbc,
  0xde, 0x48, 0x1d, 0x52, 0xb4, 0x15, 0x45, 0x3a, 0xe7, 0xb8, 0x46, 0xe1,
  0x36, 0xba, 0x71, 0x83, 0x1b, 0xd2, 0x0d, 0x26, 0x56, 0x0e, 0xf2, 0xc9,
  0x37, 0xed, 0x5a, 0xce, 0xf7, 0x13, 0xef, 0xa8, 0x39, 0xd0, 0x00, 0xed,
  0x1c, 0xd0, 0x0c, 0x14, 0x0b, 0xd3, 0xe5, 0x7f, 0xd6, 0xbb, 0xde, 0x43,
  0xb1, 0x13, 0x0e, 0xe8, 0xfb, 0xef, 0xd2, 0x1b, 0xf6, 0x28, 0x56, 0x21,
  0x86, 0x7f, 0x94, 0x42, 0x23, 0xe4, 0x6d, 0xfe, 0x3c, 0x34, 0xfb, 0x1a,
  0x10, 0xe5, 0xec, 0x3f, 0x0a, 0xdb, 0xe8, 0x55, 0xd8, 0x00, 0x2e, 0x3b,
  0x13, 0xd9, 0xc2, 0xcb, 0xd9, 0xd7, 0xed, 0x34, 0x3a, 0xb1, 0xd6, 0xcb,
  0x29, 0xd3, 0x2a, 0xc6, 0xfd, 0x07, 0xf9, 0xd8, 0xe6, 0x2c, 0xf0, 0x90,
  0xc4, 0xc3, 0x21, 0x10, 0xed, 0x43, 0xca, 0xd3, 0xd2, 0xe2, 0xb8, 0x5a,
  0x17, 0xfd, 0xea, 0x1d, 0xcd, 0x17, 0xf2, 0x3f, 0x26, 0x1d, 0xfa, 0x53,
  0xde, 0x22, 0x3c, 0xfb, 0x37, 0x03, 0x2d, 0x36, 0x24, 0x05, 0xc0, 0xff,
  0x0f, 0x03, 0xd9, 0xc7, 0x6e, 0xa3, 0x0a, 0xf9, 0x33, 0x10, 0x15, 0x43,
  0xc1, 0x2c, 0x1f, 0x0b, 0x32, 0x18, 0x34, 0x29, 0x41, 0xb0, 0xe6, 0x94,
  0x27, 0xee, 0x25, 0xde, 0xf9, 0xec, 0x37, 0x3f, 0xf9, 0x24, 0x06, 0x7f,
  0x68, 0x0d, 0xfd, 0x09, 0x24, 0xde, 0x5c, 0x03, 0xdc, 0x3c, 0xa7, 0xda,
  0x11, 0xd8, 0x2f, 0x43, 0xde, 0x21, 0xc1, 0x1e, 0xd4, 0x2c, 0x1a, 0x5b,
  0xf9, 0x41, 0xfa, 0xe0, 0xa9, 0xca, 0x54, 0x08, 0xbf, 0x09, 0xd5, 0x1e,
  0x17, 0x3b, 0xd9, 0xb2, 0xd0, 0xe7, 0xbb, 0xd1, 0xfd, 0xd1, 0xcb, 0xf8,
  0xc5, 0x13, 0xc9, 0xbd, 0xe4, 0xd0, 0x35, 0xfb, 0xde, 0x00, 0x01, 0x59,
  0xea, 0x2b, 0x3e, 0x2a, 0x25, 0x22, 0x28, 0x25, 0x03, 0x2d, 0x46, 0xe2,
  0x38, 0x4f, 0xb1, 0xdc, 0xcb, 0xf0, 0x0c, 0xf2, 0xe4, 0x3a, 0x00, 0x21,
  0x35, 0x05, 0x3d, 0x5d, 0xca, 0xde, 0x27, 0xca, 0x4b, 0x87, 0x35, 0xf2,
  0x24, 0xc7, 0x1a, 0x02, 0x40, 0xec, 0x07, 0x99, 0x9c, 0xb2, 0x2a, 0x08,
  0x6d, 0xb6, 0xff, 0x6a, 0xcb, 0x94, 0xc6, 0xa6, 0xa2, 0xe0, 0x81, 0xa0,
  0xec, 0xfb, 0xe7, 0x96, 0x06, 0x9f, 0x8e, 0xb9, 0xb4, 0xba, 0xdd, 0x8d,
  0x87, 0xf1, 0xa3, 0x54, 0x3c, 0x6c, 0xa9, 0xb1, 0xe1, 0x58, 0xf2, 0xf1,
  0x77, 0x6f, 0xf7, 0x58, 0x94, 0x48, 0x74, 0xe9, 0xd6, 0x86, 0x99, 0x2e,
  0x46, 0x32, 0x5c, 0xfe, 0x8d, 0x2c, 0xd0, 0x89, 0x6f, 0xf7, 0xc7, 0x63,
  0xf8, 0x96, 0x27, 0x22, 0xef, 0x22, 0x11, 0xf5, 0x09, 0x35, 0x2d, 0x30,
  0x44, 0x40, 0x8a, 0xd5, 0x71, 0x04, 0x15, 0x33, 0xee, 0x49, 0xd6, 0x54,
  0x4b, 0xcb, 0xd4, 0xb2, 0x27, 0x43, 0x0f, 0x63, 0x6c, 0xbf, 0x04, 0x8f,
  0xdb, 0x2f, 0x42, 0xbf, 0x43, 0xf9, 0x59, 0x39, 0xfb, 0xf6, 0xa0, 0x5b,
  0xb8, 0x0e, 0xce, 0x8c, 0x39, 0xf0, 0xdb, 0xb1, 0xb3, 0xe9, 0xf2, 0xdf,
  0xff, 0xd4, 0xc6, 0x0e, 0x71, 0xe7, 0x0b, 0x3e, 0xea, 0xfb, 0xdd, 0xdc,
  0x36, 0xf3, 0xf8, 0x29, 0x2c, 0xfe, 0x59, 0xc4, 0xc3, 0xe2, 0x35, 0x29,
  0xfe, 0x5b, 0xf4, 0xbd, 0xc4, 0x59, 0xc4, 0x67, 0xcb, 0xc2, 0x81, 0xd1,
  0x71, 0xf8, 0x53, 0xe4, 0xe2, 0x40, 0x92, 0x9f, 0x1a, 0x36, 0x3f, 0xb6,
  0x04, 0x15, 0x2f, 0xac, 0x14, 0xd2, 0x3e, 0xa1, 0xdb, 0x06, 0xbe, 0x3d,
  0x2e, 0x0a, 0xc0, 0xf7, 0x41, 0xde, 0x19, 0xed, 0x23, 0x23, 0x23, 0x3d,
  0xf0, 0xea, 0x2e, 0xc7, 0xf0, 0x0e, 0x11, 0x56, 0x2b, 0xf1, 0x19, 0x42,
  0xd5, 0x01, 0x1d, 0xee, 0x32, 0xd3, 0xf3, 0x30, 0x15, 0x26, 0x35, 0xfc,
  0x2b, 0x20, 0xdb, 0x09, 0xcc, 0x42, 0x22, 0xd1, 0x25, 0xfd, 0xf7, 0xae,
  0x03, 0xbc, 0xe6, 0x1d, 0xb1, 0x2b, 0xfb, 0x33, 0x35, 0x07, 0x41, 0xa3,
  0xcd, 0xd3, 0xf5, 0xf7, 0xbc, 0xbe, 0x30, 0x48, 0x27, 0xfa, 0x5f, 0xd7,
  0x02, 0x6f, 0x10, 0xcb, 0x2c, 0xdc, 0x7f, 0xd0, 0xc4, 0xe8, 0x42, 0x56,
  0xfb, 0x26, 0xa8, 0x39, 0xe2, 0x04, 0x32, 0xdf, 0xea, 0xa4, 0x7b, 0xc6,
  0x31, 0xd7, 0x1e, 0xfd, 0xbd, 0x11, 0x32, 0xad, 0xd0, 0x58, 0xcf, 0x1e,
  0x21, 0xf0, 0x39, 0x14, 0x0a, 0xb8, 0xb1, 0x58, 0x3d, 0x03, 0xac, 0x73,
  0x20, 0x50, 0x27, 0x50, 0xe9, 0xbf, 0x0e, 0x51, 0x8e, 0x2f, 0xb1, 0x1d,
  0xd0, 0x51, 0x41, 0x0c, 0xc3, 0xec, 0x5c, 0xdf, 0x25, 0x12, 0x29, 0xc5,
  0x2d, 0x27, 0x27, 0xe9, 0xe5, 0xfd, 0x6b, 0x8a, 0xcb, 0xd3, 0xbd, 0xee,
  0x32, 0x42, 0x37, 0xcc, 0xc4, 0x23, 0xcd, 0xc5, 0xef, 0xc8, 0x25, 0x6c,
  0x56, 0xcd, 0x18, 0xe6, 0xde, 0x3d, 0xa1, 0x5b, 0x0e, 0x1f, 0xd9, 0xd1,
  0x5e, 0x27, 0x6a, 0xc6, 0xff, 0xca, 0xb8, 0x29, 0x47, 0x47, 0xf8, 0x23,
  0xd3, 0x31, 0x15, 0x5c, 0xd0, 0x22, 0xca, 0x1e, 0x11, 0x11, 0x3e, 0x39,
  0xe2, 0x42, 0xcb, 0x19, 0xdc, 0xd2, 0xe7, 0x5c, 0xd4, 0xef, 0xeb, 0x1b,
  0x14, 0x34, 0x25, 0xaa, 0x5b, 0xc0, 0x1e, 0xb4, 0xa5, 0xf2, 0xeb, 0x2d,
  0xfd, 0xe7, 0xd2, 0xb8, 0x3d, 0x19, 0x50, 0x35, 0x13, 0xd0, 0xde, 0xb0,
  0xe6, 0x10, 0xd1, 0x38, 0xe7, 0x26, 0x19, 0x9a, 0xe5, 0x45, 0x06, 0x00,
  0x41, 0x16, 0xe8, 0x01, 0xbd, 0xfe, 0x17, 0xcc, 0xf0, 0x07, 0x2f, 0x74,
  0xd8, 0xe0, 0xe1, 0xcf, 0x37, 0x03, 0xed, 0xf4, 0xea, 0xcb, 0xbd, 0x23,
  0xfa, 0x0c, 0xf1, 0xc5, 0xe2, 0xe1, 0xbc, 0x27, 0x0e, 0xe0, 0xca, 0x0b,
  0x81, 0x55, 0x3f, 0x2c, 0x9c, 0xaf, 0x07, 0x52, 0x2c, 0xce, 0xfe, 0xeb,
  0xcb, 0xec, 0xc4, 0xca, 0xdd, 0x49, 0xeb, 0x4a, 0xec, 0x16, 0x3c, 0xdf,
  0xed, 0x30, 0x41, 0xfa, 0x55, 0x54, 0xc7, 0x0e, 0xe1, 0x62, 0xcd, 0x06,
  0x03, 0xc7, 0xc7, 0x3d, 0x4a, 0x03, 0x66, 0x22, 0x31, 0xff, 0xdd, 0xe9,
  0xcd, 0xfb, 0x06, 0x11, 0xec, 0x1b, 0x46, 0xc3, 0x07, 0x2a, 0x39, 0xd9,
  0xd0, 0x15, 0x1a, 0xe2, 0x0a, 0xe0, 0x3b, 0xfb, 0xe4, 0x0c, 0xb0, 0x16,
  0x06, 0x86, 0x42, 0x3b, 0xca, 0x13, 0xbd, 0xbe, 0x10, 0x0d, 0x24, 0xd1,
  0xef, 0xca, 0xec, 0x81, 0xdb, 0xd0, 0xdc, 0xd5, 0x21, 0xb6, 0x25, 0xfb,
  0x0a, 0xe7, 0xd6, 0xde, 0x2d, 0x17, 0x24, 0x1e, 0xe6, 0x49, 0xed, 0x07,
  0x3d, 0x56, 0x24, 0xd2, 0x02, 0x18, 0xff, 0x26, 0xd0, 0x39, 0x14, 0x38,
  0xec, 0x01, 0xb9, 0xe6, 0x42, 0x07, 0x0f, 0xd4, 0xbc, 0x4d, 0x13, 0x3c,
  0x06, 0x39, 0xa1, 0xad, 0x44, 0xb3, 0xc7, 0x11, 0xd9, 0xec, 0xb2, 0x00,
  0xe5, 0xc8, 0x46, 0x28, 0x43, 0xbc, 0x03, 0xe6, 0x48, 0xd5, 0xc3, 0xf5,
  0xb6, 0xf0, 0x7f, 0x4f, 0x33, 0x00, 0x47, 0xd5, 0x0c, 0x09, 0x2d, 0xef,
  0xac, 0x13, 0xce, 0xdf, 0x14, 0x3a, 0x75, 0xe9, 0x06, 0x05, 0x0d, 0x4c,
  0xc0, 0xeb, 0xa8, 0x38, 0x18, 0x06, 0x49, 0x00, 0x34, 0xc8, 0x31, 0xf4,
  0x4c, 0x07, 0x05, 0xb8, 0x0d, 0xf1, 0x61, 0xed, 0xe4, 0x73, 0xd1, 0x29,
  0x69, 0xc0, 0xe1, 0x17, 0xcc, 0x98, 0x17, 0x02, 0xb5, 0xba, 0x19, 0x07,
  0xf3, 0xf0, 0x14, 0x26, 0x1c, 0x26, 0xcc, 0xed, 0x31, 0xcf, 0x1c, 0x2d,
  0xea, 0x38, 0x45, 0xd4, 0xb3, 0xeb, 0x54, 0x0a, 0x50, 0xb3, 0x40, 0x0f,
  0xf1, 0x2c, 0x21, 0x51, 0xd4, 0x44, 0x2b, 0x09, 0xe8, 0xb4, 0xfe, 0x0f,
  0xde, 0x34, 0xbb, 0xfe, 0xc3, 0xf3, 0x3c, 0xd2, 0xee, 0x1f, 0xfa, 0x69,
  0x47, 0xda, 0xe9, 0xe3, 0xfb, 0xb5, 0x1a, 0xdf, 0x04, 0x52, 0xf7, 0x32,
  0xe7, 0xfd, 0x2a, 0x01, 0xda, 0x1f, 0x1d, 0xf7, 0x3e, 0xfe, 0xff, 0xff,
  0x04, 0x00, 0x00, 0x00, 0x80, 0x00, 0x00, 0x00, 0x30, 0x01, 0x00, 0x00,
  0xa7, 0xfe, 0xff, 0xff, 0x63, 0x00, 0x00, 0x00, 0x28, 0x03, 0x00, 0x00,
  0x6f, 0x01, 0x00, 0x00, 0x00, 0x00, 0x00, 0x00, 0xcf, 0xfe, 0xff, 0xff,
  0x9a, 0x02, 0x00, 0x00, 0x17, 0xfe, 0xff, 0xff, 0xe9, 0xfe, 0xff, 0xff,
  0xb7, 0x00, 0x00, 0x00, 0xc7, 0xfe, 0xff, 0xff, 0xad, 0xfc, 0xff, 0xff,
  0xa0, 0xfd, 0xff, 0xff, 0x1c, 0x01, 0x00, 0x00, 0x76, 0x03, 0x00, 0x00,
  0xcc, 0xfc, 0xff, 0xff, 0x99, 0x01, 0x00, 0x00, 0x08, 0x00, 0x00, 0x00,
  0xa9, 0xfd, 0xff, 0xff, 0x23, 0xff, 0xff, 0xff, 0xdd, 0xfc, 0xff, 0xff,
  0xa2, 0x01, 0x00, 0x00, 0x5b, 0xfe, 0xff, 0xff, 0x09, 0x03, 0x00, 0x00,
  0x92, 0x00, 0x00, 0x00, 0x59, 0xfe, 0xff, 0xff, 0x42, 0xfd, 0xff, 0xff,
  0x30, 0x02, 0x00, 0x00, 0x76, 0x00, 0x00, 0x00, 0xa8, 0xfe, 0xff, 0xff,
  0x8a, 0xfe, 0xff, 0xff, 0xca, 0xfe, 0xff, 0xff, 0x04, 0x00, 0x00, 0x00,
  0x60, 0x00, 0x00, 0x00, 0x79, 0x34, 0x1d, 0x6c, 0x11, 0x42, 0xc8, 0x4a,
  0x0f, 0xbd, 0xf8, 0x99, 0xbe, 0x4e, 0x4f, 0x5b, 0xb2, 0xd7, 0xf2, 0xc1,
  0x15, 0x85, 0x39, 0x05, 0x67, 0x12, 0xe5, 0x81, 0x4f, 0x1f, 0x82, 0x49,
  0x9a, 0x4e, 0xa2, 0xbc, 0x7f, 0xbb, 0xcb, 0xdf, 0xb9, 0x8e, 0x6c, 0x3e,
  0xda, 0x26, 0x87, 0xe6, 0xf7, 0x1f, 0xf6, 0xcc, 0xcf, 0x4a, 0x12, 0xd0,
  0xdc, 0x9c, 0xc6, 0x00, 0x05, 0x73, 0x47, 0x4f, 0xc9, 0x1e, 0x52, 0x82,
  0xe5, 0x38, 0x03, 0x00, 0x34, 0x5b, 0xe6, 0x3b, 0xd5, 0x22, 0x1e, 0xf0,
  0xbd, 0xad, 0x81, 0x13, 0x63, 0x5e, 0x94, 0x25, 0xba, 0x0a, 0xc1, 0x0e,
  0x87, 0xd5, 0x0c, 0x93, 0x36, 0xff, 0xff, 0xff, 0x04, 0x00, 0x00, 0x00,
  0x0c, 0x00, 0x00, 0x00, 0xa6, 0xfd, 0xff, 0xff, 0xa0, 0x00, 0x00, 0x00,
  0x8a, 0x01, 0x00, 0x00, 0x4e, 0xff, 0xff, 0xff, 0x04, 0x00, 0x00, 0x00,
  0x08, 0x00, 0x00, 0x00, 0xff, 0xff, 0xff, 0xff, 0x80, 0x00, 0x00, 0x00,
  0xc0, 0xe9, 0xff, 0xff, 0xc4, 0xe9, 0xff, 0xff, 0x0f, 0x00, 0x00, 0x00,
  0x4d, 0x4c, 0x49, 0x52, 0x20, 0x43, 0x6f, 0x6e, 0x76, 0x65, 0x72, 0x74,
  0x65, 0x64, 0x2e, 0x00, 0x01, 0x00, 0x00, 0x00, 0x14, 0x00, 0x00, 0x00,
  0x00, 0x00, 0x0e, 0x00, 0x18, 0x00, 0x14, 0x00, 0x10, 0x00, 0x0c, 0x00,
  0x08, 0x00, 0x04, 0x00, 0x0e, 0x00, 0x00, 0x00, 0x14, 0x00, 0x00, 0x00,
  0x1c, 0x00, 0x00, 0x00, 0xec, 0x02, 0x00, 0x00, 0xf0, 0x02, 0x00, 0x00,
  0xf4, 0x02, 0x00, 0x00, 0x04, 0x00, 0x00, 0x00, 0x6d, 0x61, 0x69, 0x6e,
  0x00, 0x00, 0x00, 0x00, 0x0a, 0x00, 0x00, 0x00, 0x84, 0x02, 0x00, 0x00,
  0x20, 0x02, 0x00, 0x00, 0xcc, 0x01, 0x00, 0x00, 0x88, 0x01, 0x00, 0x00,
  0x34, 0x01, 0x00, 0x00, 0xf0, 0x00, 0x00, 0x00, 0xc8, 0x00, 0x00, 0x00,
  0x78, 0x00, 0x00, 0x00, 0x40, 0x00, 0x00, 0x00, 0x04, 0x00, 0x00, 0x00,
  0x12, 0xfe, 0xff, 0xff, 0x1c, 0x00, 0x00, 0x00, 0x00, 0x00, 0x00, 0x09,
  0x1c, 0x00, 0x00, 0x00, 0x20, 0x00, 0x00, 0x00, 0x04, 0x00, 0x00, 0x00,
  0x00, 0x00, 0x06, 0x00, 0x08, 0x00, 0x04, 0x00, 0x06, 0x00, 0x00, 0x00,
  0x00, 0x00, 0x80, 0x3f, 0x01, 0x00, 0x00, 0x00, 0x15, 0x00, 0x00, 0x00,
  0x01, 0x00, 0x00, 0x00, 0x14, 0x00, 0x00, 0x00, 0xda, 0xfe, 0xff, 0xff,
  0x14, 0x00, 0x00, 0x00, 0x00, 0x00, 0x00, 0x08, 0x10, 0x00, 0x00, 0x00,
  0x14, 0x00, 0x00, 0x00, 0x03, 0x00, 0x00, 0x00, 0x94, 0xea, 0xff, 0xff,
  0x01, 0x00, 0x00, 0x00, 0x14, 0x00, 0x00, 0x00, 0x03, 0x00, 0x00, 0x00,
  0x13, 0x00, 0x00, 0x00, 0x03, 0x00, 0x00, 0x00, 0x02, 0x00, 0x00, 0x00,
  0x7e, 0xfe, 0xff, 0xff, 0x1c, 0x00, 0x00, 0x00, 0x00, 0x00, 0x00, 0x08,
  0x1c, 0x00, 0x00, 0x00, 0x20, 0x00, 0x00, 0x00, 0x03, 0x00, 0x00, 0x00,
  0x00, 0x00, 0x06, 0x00, 0x08, 0x00, 0x07, 0x00, 0x06, 0x00, 0x00, 0x00,
  0x00, 0x00, 0x00, 0x01, 0x01, 0x00, 0x00, 0x00, 0x13, 0x00, 0x00, 0x00,
  0x03, 0x00, 0x00, 0x00, 0x12, 0x00, 0x00, 0x00, 0x05, 0x00, 0x00, 0x00,
  0x04, 0x00, 0x00, 0x00, 0x00, 0x00, 0x0a, 0x00, 0x10, 0x00, 0x0c, 0x00,
  0x08, 0x00, 0x04, 0x00, 0x0a, 0x00, 0x00, 0x00, 0x0c, 0x00, 0x00, 0x00,
  0x10, 0x00, 0x00, 0x00, 0x02, 0x00, 0x00, 0x00, 0x01, 0x00, 0x00, 0x00,
  0x12, 0x00, 0x00, 0x00, 0x02, 0x00, 0x00, 0x00, 0x11, 0x00, 0x00, 0x00,
  0x01, 0x00, 0x00, 0x00, 0x7e, 0xff, 0xff, 0xff, 0x14, 0x00, 0x00, 0x00,
  0x00, 0x00, 0x00, 0x05, 0x24, 0x00, 0x00, 0x00, 0x28, 0x00, 0x00, 0x00,
  0x01, 0x00, 0x00, 0x00, 0xde, 0xfe, 0xff, 0xff, 0x02, 0x00, 0x00, 0x00,
  0x02, 0x00, 0x00, 0x00, 0x02, 0x00, 0x00, 0x00, 0x02, 0x00, 0x00, 0x00,
  0x00, 0x00, 0x00, 0x01, 0x01, 0x00, 0x00, 0x00, 0x11, 0x00, 0x00, 0x00,
  0x01, 0x00, 0x00, 0x00, 0x10, 0x00, 0x00, 0x00, 0xce, 0xfe, 0xff, 0xff,
  0x10, 0x00, 0x00, 0x00, 0x00, 0x00, 0x00, 0x01, 0x1c, 0x00, 0x00, 0x00,
  0x20, 0x00, 0x00, 0x00, 0xc0, 0xfe, 0xff, 0xff, 0x00, 0x00, 0x00, 0x01,
  0x01, 0x00, 0x00, 0x00, 0x01, 0x00, 0x00, 0x00, 0x00, 0x00, 0x00, 0x01,
  0x01, 0x00, 0x00, 0x00, 0x10, 0x00, 0x00, 0x00, 0x03, 0x00, 0x00, 0x00,
  0x0f, 0x00, 0x00, 0x00, 0x07, 0x00, 0x00, 0x00, 0x06, 0x00, 0x00, 0x00,
  0x00, 0x00, 0x0e, 0x00, 0x18, 0x00, 0x14, 0x00, 0x10, 0x00, 0x0c, 0x00,
  0x0b, 0x00, 0x04, 0x00, 0x0e, 0x00, 0x00, 0x00, 0x14, 0x00, 0x00, 0x00,
  0x00, 0x00, 0x00, 0x05, 0x24, 0x00, 0x00, 0x00, 0x28, 0x00, 0x00, 0x00,
  0x01, 0x00, 0x00, 0x00, 0x6e, 0xff, 0xff, 0xff, 0x02, 0x00, 0x00, 0x00,
  0x02, 0x00, 0x00, 0x00, 0x02, 0x00, 0x00, 0x00, 0x02, 0x00, 0x00, 0x00,
  0x00, 0x00, 0x00, 0x01, 0x01, 0x00, 0x00, 0x00, 0x0f, 0x00, 0x00, 0x00,
  0x01, 0x00, 0x00, 0x00, 0x0e, 0x00, 0x00, 0x00, 0x5e, 0xff, 0xff, 0xff,
  0x10, 0x00, 0x00, 0x00, 0x00, 0x00, 0x00, 0x01, 0x1c, 0x00, 0x00, 0x00,
  0x20, 0x00, 0x00, 0x00, 0x50, 0xff, 0xff, 0xff, 0x00, 0x00, 0x00, 0x01,
  0x01, 0x00, 0x00, 0x00, 0x01, 0x00, 0x00, 0x00, 0x00, 0x00, 0x00, 0x01,
  0x01, 0x00, 0x00, 0x00, 0x0e, 0x00, 0x00, 0x00, 0x03, 0x00, 0x00, 0x00,
  0x0d, 0x00, 0x00, 0x00, 0x09, 0x00, 0x00, 0x00, 0x08, 0x00, 0x00, 0x00,
  0x00, 0x00, 0x0e, 0x00, 0x1a, 0x00, 0x14, 0x00, 0x10, 0x00, 0x0c, 0x00,
  0x0b, 0x00, 0x04, 0x00, 0x0e, 0x00, 0x00, 0x00, 0x24, 0x00, 0x00, 0x00,
  0x00, 0x00, 0x00, 0x05, 0x34, 0x00, 0x00, 0x00, 0x38, 0x00, 0x00, 0x00,
  0x01, 0x00, 0x00, 0x00, 0x00, 0x00, 0x0e, 0x00, 0x18, 0x00, 0x17, 0x00,
  0x10, 0x00, 0x0c, 0x00, 0x08, 0x00, 0x04, 0x00, 0x0e, 0x00, 0x00, 0x00,
  0x02, 0x00, 0x00, 0x00, 0x02, 0x00, 0x00, 0x00, 0x02, 0x00, 0x00, 0x00,
  0x02, 0x00, 0x00, 0x00, 0x00, 0x00, 0x00, 0x01, 0x01, 0x00, 0x00, 0x00,
  0x0d, 0x00, 0x00, 0x00, 0x01, 0x00, 0x00, 0x00, 0x0c, 0x00, 0x00, 0x00,
  0x00, 0x00, 0x0e, 0x00, 0x14, 0x00, 0x00, 0x00, 0x10, 0x00, 0x0c, 0x00,
  0x0b, 0x00, 0x04, 0x00, 0x0e, 0x00, 0x00, 0x00, 0x1c, 0x00, 0x00, 0x00,
  0x00, 0x00, 0x00, 0x01, 0x28, 0x00, 0x00, 0x00, 0x2c, 0x00, 0x00, 0x00,
  0x0c, 0x00, 0x14, 0x00, 0x13, 0x00, 0x0c, 0x00, 0x08, 0x00, 0x07, 0x00,
  0x0c, 0x00, 0x00, 0x00, 0x00, 0x00, 0x00, 0x01, 0x01, 0x00, 0x00, 0x00,
  0x01, 0x00, 0x00, 0x00, 0x00, 0x00, 0x00, 0x01, 0x01, 0x00, 0x00, 0x00,
  0x0c, 0x00, 0x00, 0x00, 0x03, 0x00, 0x00, 0x00, 0x00, 0x00, 0x00, 0x00,
  0x0b, 0x00, 0x00, 0x00, 0x0a, 0x00, 0x00, 0x00, 0x01, 0x00, 0x00, 0x00,
  0x15, 0x00, 0x00, 0x00, 0x01, 0x00, 0x00, 0x00, 0x00, 0x00, 0x00, 0x00,
  0x16, 0x00, 0x00, 0x00, 0x3c, 0x13, 0x00, 0x00, 0xe0, 0x12, 0x00, 0x00,
  0x50, 0x12, 0x00, 0x00, 0xd4, 0x11, 0x00, 0x00, 0x00, 0x10, 0x00, 0x00,
  0x24, 0x0e, 0x00, 0x00, 0x50, 0x0c, 0x00, 0x00, 0x6c, 0x0a, 0x00, 0x00,
  0x58, 0x09, 0x00, 0x00, 0x34, 0x08, 0x00, 0x00, 0x80, 0x07, 0x00, 0x00,
  0xbc, 0x06, 0x00, 0x00, 0xd8, 0x05, 0x00, 0x00, 0x44, 0x05, 0x00, 0x00,
  0x58, 0x04, 0x00, 0x00, 0xc4, 0x03, 0x00, 0x00, 0xd8, 0x02, 0x00, 0x00,
  0x44, 0x02, 0x00, 0x00, 0xc8, 0x01, 0x00, 0x00, 0x1c, 0x01, 0x00, 0x00,
  0x80, 0x00, 0x00, 0x00, 0x04, 0x00, 0x00, 0x00, 0x32, 0xed, 0xff, 0xff,
  0x00, 0x00, 0x00, 0x01, 0x18, 0x00, 0x00, 0x00, 0x20, 0x00, 0x00, 0x00,
  0x3c, 0x00, 0x00, 0x00, 0x16, 0x00, 0x00, 0x00, 0x00, 0x00, 0x00, 0x09,
  0x50, 0x00, 0x00, 0x00, 0x02, 0x00, 0x00, 0x00, 0xff, 0xff, 0xff, 0xff,
  0x03, 0x00, 0x00, 0x00, 0x14, 0xed, 0xff, 0xff, 0x08, 0x00, 0x00, 0x00,
  0x10, 0x00, 0x00, 0x00, 0x01, 0x00, 0x00, 0x00, 0x80, 0xff, 0xff, 0xff,
  0xff, 0xff, 0xff, 0xff, 0x01, 0x00, 0x00, 0x00, 0x00, 0x00, 0x80, 0x3b,
  0x19, 0x00, 0x00, 0x00, 0x53, 0x74, 0x61, 0x74, 0x65, 0x66, 0x75, 0x6c,
  0x50, 0x61, 0x72, 0x74, 0x69, 0x74, 0x69, 0x6f, 0x6e, 0x65, 0x64, 0x43,
  0x61, 0x6c, 0x6c, 0x3a, 0x30, 0x00, 0x00, 0x00, 0x02, 0x00, 0x00, 0x00,
  0x01, 0x00, 0x00, 0x00, 0x03, 0x00, 0x00, 0x00, 0xaa, 0xed, 0xff, 0xff,
  0x00, 0x00, 0x00, 0x01, 0x18, 0x00, 0x00, 0x00, 0x20, 0x00, 0x00, 0x00,
  0x40, 0x00, 0x00, 0x00, 0x15, 0x00, 0x00, 0x00, 0x00, 0x00, 0x00, 0x09,
  0x70, 0x00, 0x00, 0x00, 0x02, 0x00, 0x00, 0x00, 0xff, 0xff, 0xff, 0xff,
  0x03, 0x00, 0x00, 0x00, 0x8c, 0xed, 0xff, 0xff, 0x08, 0x00, 0x00, 0x00,
  0x14, 0x00, 0x00, 0x00, 0x01, 0x00, 0x00, 0x00, 0x0c, 0x00, 0x00, 0x00,
  0x00, 0x00, 0x00, 0x00, 0x00, 0x00, 0x00, 0x00, 0x01, 0x00, 0x00, 0x00,
  0x06, 0x46, 0x8c, 0x3d, 0x34, 0x00, 0x00, 0x00, 0x73, 0x65, 0x71, 0x75,
  0x65, 0x6e, 0x74, 0x69, 0x61, 0x6c, 0x2f, 0x64, 0x65, 0x6e, 0x73, 0x65,
  0x5f, 0x31, 0x2f, 0x4d, 0x61, 0x74, 0x4d, 0x75, 0x6c, 0x3b, 0x73, 0x65,
  0x71, 0x75, 0x65, 0x6e, 0x74, 0x69, 0x61, 0x6c, 0x2f, 0x64, 0x65, 0x6e,
  0x73, 0x65, 0x5f, 0x31, 0x2f, 0x42, 0x69, 0x61, 0x73, 0x41, 0x64, 0x64,
  0x00, 0x00, 0x00, 0x00, 0x02, 0x00, 0x00, 0x00, 0x01, 0x00, 0x00, 0x00,
  0x03, 0x00, 0x00, 0x00, 0x42, 0xee, 0xff, 0xff, 0x00, 0x00, 0x00, 0x01,
  0x18, 0x00, 0x00, 0x00, 0x20, 0x00, 0x00, 0x00, 0x40, 0x00, 0x00, 0x00,
  0x14, 0x00, 0x00, 0x00, 0x00, 0x00, 0x00, 0x09, 0x80, 0x00, 0x00, 0x00,
  0x02, 0x00, 0x00, 0x00, 0xff, 0xff, 0xff, 0xff, 0x20, 0x00, 0x00, 0x00,
  0x24, 0xee, 0xff, 0xff, 0x08, 0x00, 0x00, 0x00, 0x14, 0x00, 0x00, 0x00,
  0x01, 0x00, 0x00, 0x00, 0x80, 0xff, 0xff, 0xff, 0xff, 0xff, 0xff, 0xff,
  0x00, 0x00, 0x00, 0x00, 0x01, 0x00, 0x00, 0x00, 0x66, 0x68, 0x41, 0x3c,
  0x46, 0x00, 0x00, 0x00, 0x73, 0x65, 0x71, 0x75, 0x65, 0x6e, 0x74, 0x69,
  0x61, 0x6c, 0x2f, 0x64, 0x65, 0x6e, 0x73, 0x65, 0x2f, 0x4d, 0x61, 0x74,
  0x4d, 0x75, 0x6c, 0x3b, 0x73, 0x65, 0x71, 0x75, 0x65, 0x6e, 0x74, 0x69,
  0x61, 0x6c, 0x2f, 0x64, 0x65, 0x6e, 0x73, 0x65, 0x2f, 0x52, 0x65, 0x6c,
  0x75, 0x3b, 0x73, 0x65, 0x71, 0x75, 0x65, 0x6e, 0x74, 0x69, 0x61, 0x6c,
  0x2f, 0x64, 0x65, 0x6e, 0x73, 0x65, 0x2f, 0x42, 0x69, 0x61, 0x73, 0x41,
  0x64, 0x64, 0x00, 0x00, 0x02, 0x00, 0x00, 0x00, 0x01, 0x00, 0x00, 0x00,
  0x20, 0x00, 0x00, 0x00, 0xea, 0xee, 0xff, 0xff, 0x00, 0x00, 0x00, 0x01,
  0x18, 0x00, 0x00, 0x00, 0x20, 0x00, 0x00, 0x00, 0x3c, 0x00, 0x00, 0x00,
  0x13, 0x00, 0x00, 0x00, 0x00, 0x00, 0x00, 0x09, 0x50, 0x00, 0x00, 0x00,
  0x02, 0x00, 0x00, 0x00, 0xff, 0xff, 0xff, 0xff, 0x80, 0x00, 0x00, 0x00,
  0xcc, 0xee, 0xff, 0xff, 0x08, 0x00, 0x00, 0x00, 0x10, 0x00, 0x00, 0x00,
  0x01, 0x00, 0x00, 0x00, 0x80, 0xff, 0xff, 0xff, 0xff, 0xff, 0xff, 0xff,
  0x01, 0x00, 0x00, 0x00, 0xfb, 0xe0, 0x38, 0x3c, 0x1a, 0x00, 0x00, 0x00,
  0x73, 0x65, 0x71, 0x75, 0x65, 0x6e, 0x74, 0x69, 0x61, 0x6c, 0x2f, 0x66,
  0x6c, 0x61, 0x74, 0x74, 0x65, 0x6e, 0x2f, 0x52, 0x65, 0x73, 0x68, 0x61,
  0x70, 0x65, 0x00, 0x00, 0x02, 0x00, 0x00, 0x00, 0x01, 0x00, 0x00, 0x00,
  0x80, 0x00, 0x00, 0x00, 0x62, 0xef, 0xff, 0xff, 0x00, 0x00, 0x00, 0x01,
  0x18, 0x00, 0x00, 0x00, 0x28, 0x00, 0x00, 0x00, 0x44, 0x00, 0x00, 0x00,
  0x12, 0x00, 0x00, 0x00, 0x00, 0x00, 0x00, 0x09, 0x60, 0x00, 0x00, 0x00,
  0x04, 0x00, 0x00, 0x00, 0xff, 0xff, 0xff, 0xff, 0x02, 0x00, 0x00, 0x00,
  0x02, 0x00, 0x00, 0x00, 0x20, 0x00, 0x00, 0x00, 0x4c, 0xef, 0xff, 0xff,
  0x08, 0x00, 0x00, 0x00, 0x10, 0x00, 0x00, 0x00, 0x01, 0x00, 0x00, 0x00,
  0x80, 0xff, 0xff, 0xff, 0xff, 0xff, 0xff, 0xff, 0x01, 0x00, 0x00, 0x00,
  0xfb, 0xe0, 0x38, 0x3c, 0x22, 0x00, 0x00, 0x00, 0x73, 0x65, 0x71, 0x75,
  0x65, 0x6e, 0x74, 0x69, 0x61, 0x6c, 0x2f, 0x6d, 0x61, 0x78, 0x5f, 0x70,
  0x6f, 0x6f, 0x6c, 0x69, 0x6e, 0x67, 0x32, 0x64, 0x5f, 0x32, 0x2f, 0x4d,
  0x61, 0x78, 0x50, 0x6f, 0x6f, 0x6c, 0x00, 0x00, 0x04, 0x00, 0x00, 0x00,
  0x01, 0x00, 0x00, 0x00, 0x02, 0x00, 0x00, 0x00, 0x02, 0x00, 0x00, 0x00,
  0x20, 0x00, 0x00, 0x00, 0xf2, 0xef, 0xff, 0xff, 0x00, 0x00, 0x00, 0x01,
  0x18, 0x00, 0x00, 0x00, 0x28, 0x00, 0x00, 0x00, 0x44, 0x00, 0x00, 0x00,
  0x11, 0x00, 0x00, 0x00, 0x00, 0x00, 0x00, 0x09, 0xb8, 0x00, 0x00, 0x00,
  0x04, 0x00, 0x00, 0x00, 0xff, 0xff, 0xff, 0xff, 0x04, 0x00, 0x00, 0x00,
  0x04, 0x00, 0x00, 0x00, 0x20, 0x00, 0x00, 0x00, 0xdc, 0xef, 0xff, 0xff,
  0x08, 0x00, 0x00, 0x00, 0x10, 0x00, 0x00, 0x00, 0x01, 0x00, 0x00, 0x00,
  0x80, 0xff, 0xff, 0xff, 0xff, 0xff, 0xff, 0xff, 0x01, 0x00, 0x00, 0x00,
  0xfb, 0xe0, 0x38, 0x3c, 0x7a, 0x00, 0x00, 0x00, 0x73, 0x65, 0x71, 0x75,
  0x65, 0x6e, 0x74, 0x69, 0x61, 0x6c, 0x2f, 0x63, 0x6f, 0x6e, 0x76, 0x32,
  0x64, 0x5f, 0x32, 0x2f, 0x52, 0x65, 0x6c, 0x75, 0x3b, 0x73, 0x65, 0x71,
  0x75, 0x65, 0x6e, 0x74, 0x69, 0x61, 0x6c, 0x2f, 0x63, 0x6f, 0x6e, 0x76,
  0x32, 0x64, 0x5f, 0x32, 0x2f, 0x42, 0x69, 0x61, 0x73, 0x41, 0x64, 0x64,
  0x3b, 0x73, 0x65, 0x71, 0x75, 0x65, 0x6e, 0x74, 0x69, 0x61, 0x6c, 0x2f,
  0x63, 0x6f, 0x6e, 0x76, 0x32, 0x64, 0x5f, 0x32, 0x2f, 0x43, 0x6f, 0x6e,
  0x76, 0x32, 0x44, 0x3b, 0x73, 0x65, 0x71, 0x75, 0x65, 0x6e, 0x74, 0x69,
  0x61, 0x6c, 0x2f, 0x63, 0x6f, 0x6e, 0x76, 0x32, 0x64, 0x5f, 0x32, 0x2f,
  0x42, 0x69, 0x61, 0x73, 0x41, 0x64, 0x64, 0x2f, 0x52, 0x65, 0x61, 0x64,
  0x56, 0x61, 0x72, 0x69, 0x61, 0x62, 0x6c, 0x65, 0x4f, 0x70, 0x00, 0x00,
  0x04, 0x00, 0x00, 0x00, 0x01, 0x00, 0x00, 0x00, 0x04, 0x00, 0x00, 0x00,
  0x04, 0x00, 0x00, 0x00, 0x20, 0x00, 0x00, 0x00, 0xda, 0xf0, 0xff, 0xff,
  0x00, 0x00, 0x00, 0x01, 0x18, 0x00, 0x00, 0x00, 0x28, 0x00, 0x00, 0x00,
  0x44, 0x00, 0x00, 0x00, 0x10, 0x00, 0x00, 0x00, 0x00, 0x00, 0x00, 0x09,
  0x60, 0x00, 0x00, 0x00, 0x04, 0x00, 0x00, 0x00, 0xff, 0xff, 0xff, 0xff,
  0x06, 0x00, 0x00, 0x00, 0x06, 0x00, 0x00, 0x00, 0x10, 0x00, 0x00, 0x00,
  0xc4, 0xf0, 0xff, 0xff, 0x08, 0x00, 0x00, 0x00, 0x10, 0x00, 0x00, 0x00,
  0x01, 0x00, 0x00, 0x00, 0x80, 0xff, 0xff, 0xff, 0xff, 0xff, 0xff, 0xff,
  0x01, 0x00, 0x00, 0x00, 0x5a, 0x02, 0xa0, 0x3b, 0x22, 0x00, 0x00, 0x00,
  0x73, 0x65, 0x71, 0x75, 0x65, 0x6e, 0x74, 0x69, 0x61, 0x6c, 0x2f, 0x6d,
  0x61, 0x78, 0x5f, 0x70, 0x6f, 0x6f, 0x6c, 0x69, 0x6e, 0x67, 0x32, 0x64,
  0x5f, 0x31, 0x2f, 0x4d, 0x61, 0x78, 0x50, 0x6f, 0x6f, 0x6c, 0x00, 0x00,
  0x04, 0x00, 0x00, 0x00, 0x01, 0x00, 0x00, 0x00, 0x06, 0x00, 0x00, 0x00,
  0x06, 0x00, 0x00, 0x00, 0x10, 0x00, 0x00, 0x00, 0x6a, 0xf1, 0xff, 0xff,
  0x00, 0x00, 0x00, 0x01, 0x18, 0x00, 0x00, 0x00, 0x28, 0x00, 0x00, 0x00,
  0x44, 0x00, 0x00, 0x00, 0x0f, 0x00, 0x00, 0x00, 0x00, 0x00, 0x00, 0x09,
  0xb8, 0x00, 0x00, 0x00, 0x04, 0x00, 0x00, 0x00, 0xff, 0xff, 0xff, 0xff,
  0x0d, 0x00, 0x00, 0x00, 0x0d, 0x00, 0x00, 0x00, 0x10, 0x00, 0x00, 0x00,
  0x54, 0xf1, 0xff, 0xff, 0x08, 0x00, 0x00, 0x00, 0x10, 0x00, 0x00, 0x00,
  0x01, 0x00, 0x00, 0x00, 0x80, 0xff, 0xff, 0xff, 0xff, 0xff, 0xff, 0xff,
  0x01, 0x00, 0x00, 0x00, 0x5a, 0x02, 0xa0, 0x3b, 0x7a, 0x00, 0x00, 0x00,
  0x73, 0x65, 0x71, 0x75, 0x65, 0x6e, 0x74, 0x69, 0x61, 0x6c, 0x2f, 0x63,
  0x6f, 0x6e, 0x76, 0x32, 0x64, 0x5f, 0x31, 0x2f, 0x52, 0x65, 0x6c, 0x75,
  0x3b, 0x73, 0x65, 0x71, 0x75, 0x65, 0x6e, 0x74, 0x69, 0x61, 0x6c, 0x2f,
  0x63, 0x6f, 0x6e, 0x76, 0x32, 0x64, 0x5f, 0x31, 0x2f, 0x42, 0x69, 0x61,
  0x73, 0x41, 0x64, 0x64, 0x3b, 0x73, 0x65, 0x71, 0x75, 0x65, 0x6e, 0x74,
  0x69, 0x61, 0x6c, 0x2f, 0x63, 0x6f, 0x6e, 0x76, 0x32, 0x64, 0x5f, 0x31,
  0x2f, 0x43, 0x6f, 0x6e, 0x76, 0x32, 0x44, 0x3b, 0x73, 0x65, 0x71, 0x75,
  0x65, 0x6e, 0x74, 0x69, 0x61, 0x6c, 0x2f, 0x63, 0x6f, 0x6e, 0x76, 0x32,
  0x64, 0x5f, 0x31, 0x2f, 0x42, 0x69, 0x61, 0x73, 0x41, 0x64, 0x64, 0x2f,
  0x52, 0x65, 0x61, 0x64, 0x56, 0x61, 0x72, 0x69, 0x61, 0x62, 0x6c, 0x65,
  0x4f, 0x70, 0x00, 0x00, 0x04, 0x00, 0x00, 0x00, 0x01, 0x00, 0x00, 0x00,
  0x0d, 0x00, 0x00, 0x00, 0x0d, 0x00, 0x00, 0x00, 0x10, 0x00, 0x00, 0x00,
  0x52, 0xf2, 0xff, 0xff, 0x00, 0x00, 0x00, 0x01, 0x18, 0x00, 0x00, 0x00,
  0x28, 0x00, 0x00, 0x00, 0x44, 0x00, 0x00, 0x00, 0x0e, 0x00, 0x00, 0x00,
  0x00, 0x00, 0x00, 0x09, 0x60, 0x00, 0x00, 0x00, 0x04, 0x00, 0x00, 0x00,
  0xff, 0xff, 0xff, 0xff, 0x0f, 0x00, 0x00, 0x00, 0x0f, 0x00, 0x00, 0x00,
  0x08, 0x00, 0x00, 0x00, 0x3c, 0xf2, 0xff, 0xff, 0x08, 0x00, 0x00, 0x00,
  0x10, 0x00, 0x00, 0x00, 0x01, 0x00, 0x00, 0x00, 0x80, 0xff, 0xff, 0xff,
  0xff, 0xff, 0xff, 0xff, 0x01, 0x00, 0x00, 0x00, 0x2e, 0xe7, 0x5d, 0x3b,
  0x20, 0x00, 0x00, 0x00, 0x73, 0x65, 0x71, 0x75, 0x65, 0x6e, 0x74, 0x69,
  0x61, 0x6c, 0x2f, 0x6d, 0x61, 0x78, 0x5f, 0x70, 0x6f, 0x6f, 0x6c, 0x69,
  0x6e, 0x67, 0x32, 0x64, 0x2f, 0x4d, 0x61, 0x78, 0x50, 0x6f, 0x6f, 0x6c,
  0x00, 0x00, 0x00, 0x00, 0x04, 0x00, 0x00, 0x00, 0x01, 0x00, 0x00, 0x00,
  0x0f, 0x00, 0x00, 0x00, 0x0f, 0x00, 0x00, 0x00, 0x08, 0x00, 0x00, 0x00,
  0xe2, 0xf2, 0xff, 0xff, 0x00, 0x00, 0x00, 0x01, 0x18, 0x00, 0x00, 0x00,
  0x28, 0x00, 0x00, 0x00, 0x44, 0x00, 0x00, 0x00, 0x0d, 0x00, 0x00, 0x00,
  0x00, 0x00, 0x00, 0x09, 0xb0, 0x00, 0x00, 0x00, 0x04, 0x00, 0x00, 0x00,
  0xff, 0xff, 0xff, 0xff, 0x1e, 0x00, 0x00, 0x00, 0x1e, 0x00, 0x00, 0x00,
  0x08, 0x00, 0x00, 0x00, 0xcc, 0xf2, 0xff, 0xff, 0x08, 0x00, 0x00, 0x00,
  0x10, 0x00, 0x00, 0x00, 0x01, 0x00, 0x00, 0x00, 0x80, 0xff, 0xff, 0xff,
  0xff, 0xff, 0xff, 0xff, 0x01, 0x00, 0x00, 0x00, 0x2e, 0xe7, 0x5d, 0x3b,
  0x73, 0x00, 0x00, 0x00, 0x73, 0x65, 0x71, 0x75, 0x65, 0x6e, 0x74, 0x69,
  0x61, 0x6c, 0x2f, 0x63, 0x6f, 0x6e, 0x76, 0x32, 0x64, 0x2f, 0x52, 0x65,
  0x6c, 0x75, 0x3b, 0x73, 0x65, 0x71, 0x75, 0x65, 0x6e, 0x74, 0x69, 0x61,
  0x6c, 0x2f, 0x63, 0x6f, 0x6e, 0x76, 0x32, 0x64, 0x2f, 0x42, 0x69, 0x61,
  0x73, 0x41, 0x64, 0x64, 0x3b, 0x73, 0x65, 0x71, 0x75, 0x65, 0x6e, 0x74,
  0x69, 0x61, 0x6c, 0x2f, 0x63, 0x6f, 0x6e, 0x76, 0x32, 0x64, 0x2f, 0x43,
  0x6f, 0x6e, 0x76, 0x32, 0x44, 0x3b, 0x73, 0x65, 0x71, 0x75, 0x65, 0x6e,
  0x74, 0x69, 0x61, 0x6c, 0x2f, 0x63, 0x6f, 0x6e, 0x76, 0x32, 0x64, 0x2f,
  0x42, 0x69, 0x61, 0x73, 0x41, 0x64, 0x64, 0x2f, 0x52, 0x65, 0x61, 0x64,
  0x56, 0x61, 0x72, 0x69, 0x61, 0x62, 0x6c, 0x65, 0x4f, 0x70, 0x31, 0x00,
  0x04, 0x00, 0x00, 0x00, 0x01, 0x00, 0x00, 0x00, 0x1e, 0x00, 0x00, 0x00,
  0x1e, 0x00, 0x00, 0x00, 0x08, 0x00, 0x00, 0x00, 0x1a, 0xf4, 0xff, 0xff,
  0x00, 0x00, 0x00, 0x01, 0x14, 0x00, 0x00, 0x00, 0x88, 0x00, 0x00, 0x00,
  0x0c, 0x00, 0x00, 0x00, 0x00, 0x00, 0x00, 0x09, 0x94, 0x00, 0x00, 0x00,
  0x94, 0xf3, 0xff, 0xff, 0x08, 0x00, 0x00, 0x00, 0x4c, 0x00, 0x00, 0x00,
  0x08, 0x00, 0x00, 0x00, 0x00, 0x00, 0x00, 0x00, 0x00, 0x00, 0x00, 0x00,
  0x00, 0x00, 0x00, 0x00, 0x00, 0x00, 0x00, 0x00, 0x00, 0x00, 0x00, 0x00,
  0x00, 0x00, 0x00, 0x00, 0x00, 0x00, 0x00, 0x00, 0x00, 0x00, 0x00, 0x00,
  0x00, 0x00, 0x00, 0x00, 0x00, 0x00, 0x00, 0x00, 0x00, 0x00, 0x00, 0x00,
  0x00, 0x00, 0x00, 0x00, 0x00, 0x00, 0x00, 0x00, 0x00, 0x00, 0x00, 0x00,
  0x00, 0x00, 0x00, 0x00, 0x00, 0x00, 0x00, 0x00, 0x00, 0x00, 0x00, 0x00,
  0x08, 0x00, 0x00, 0x00, 0x84, 0xad, 0x0e, 0x3b, 0x6f, 0xf5, 0x0d, 0x3b,
  0xac, 0x0d, 0x12, 0x3b, 0xb9, 0x08, 0x33, 0x3b, 0x89, 0xdb, 0x19, 0x3b,
  0x70, 0xb3, 0xfa, 0x3a, 0x61, 0x54, 0x0e, 0x3b, 0xf2, 0xcb, 0x0b, 0x3b,
  0x12, 0x00, 0x00, 0x00, 0x74, 0x66, 0x6c, 0x2e, 0x70, 0x73, 0x65, 0x75,
  0x64, 0x6f, 0x5f, 0x71, 0x63, 0x6f, 0x6e, 0x73, 0x74, 0x39, 0x00, 0x00,
  0x04, 0x00, 0x00, 0x00, 0x08, 0x00, 0x00, 0x00, 0x03, 0x00, 0x00, 0x00,
  0x03, 0x00, 0x00, 0x00, 0x01, 0x00, 0x00, 0x00, 0xda, 0xf4, 0xff, 0xff,
  0x00, 0x00, 0x00, 0x01, 0x14, 0x00, 0x00, 0x00, 0x84, 0x00, 0x00, 0x00,
  0x0b, 0x00, 0x00, 0x00, 0x00, 0x00, 0x00, 0x02, 0x90, 0x00, 0x00, 0x00,
  0x54, 0xf4, 0xff, 0xff, 0x08, 0x00, 0x00, 0x00, 0x48, 0x00, 0x00, 0x00,
  0x08, 0x00, 0x00, 0x00, 0x00, 0x00, 0x00, 0x00, 0x00, 0x00, 0x00, 0x00,
  0x00, 0x00, 0x00, 0x00, 0x00, 0x00, 0x00, 0x00, 0x00, 0x00, 0x00, 0x00,
  0x00, 0x00, 0x00, 0x00, 0x00, 0x00, 0x00, 0x00, 0x00, 0x00, 0x00, 0x00,
  0x00, 0x00, 0x00, 0x00, 0x00, 0x00, 0x00, 0x00, 0x00, 0x00, 0x00, 0x00,
  0x00, 0x00, 0x00, 0x00, 0x00, 0x00, 0x00, 0x00, 0x00, 0x00, 0x00, 0x00,
  0x00, 0x00, 0x00, 0x00, 0x00, 0x00, 0x00, 0x00, 0x08, 0x00, 0x00, 0x00,
  0x17, 0x39, 0x0f, 0x37, 0x4e, 0x80, 0x0e, 0x37, 0x8c, 0x9c, 0x12, 0x37,
  0xdc, 0xb7, 0x33, 0x37, 0x0c, 0x72, 0x1a, 0x37, 0xaf, 0xa8, 0xfb, 0x36,
  0x9d, 0xdf, 0x0e, 0x37, 0xb3, 0x54, 0x0c, 0x37, 0x12, 0x00, 0x00, 0x00,
  0x74, 0x66, 0x6c, 0x2e, 0x70, 0x73, 0x65, 0x75, 0x64, 0x6f, 0x5f, 0x71,
  0x63, 0x6f, 0x6e, 0x73, 0x74, 0x38, 0x00, 0x00, 0x01, 0x00, 0x00, 0x00,
  0x08, 0x00, 0x00, 0x00, 0x8a, 0xf5, 0xff, 0xff, 0x00, 0x00, 0x00, 0x01,
  0x14, 0x00, 0x00, 0x00, 0xe8, 0x00, 0x00, 0x00, 0x0a, 0x00, 0x00, 0x00,
  0x00, 0x00, 0x00, 0x09, 0xf4, 0x00, 0x00, 0x00, 0x04, 0xf5, 0xff, 0xff,
  0x08, 0x00, 0x00, 0x00, 0x8c, 0x00, 0x00, 0x00, 0x10, 0x00, 0x00, 0x00,
  0x00, 0x00, 0x00, 0x00, 0x00, 0x00, 0x00, 0x00, 0x00, 0x00, 0x00, 0x00,
  0x00, 0x00, 0x00, 0x00, 0x00, 0x00, 0x00, 0x00, 0x00, 0x00, 0x00, 0x00,
  0x00, 0x00, 0x00, 0x00, 0x00, 0x00, 0x00, 0x00, 0x00, 0x00, 0x00, 0x00,
  0x00, 0x00, 0x00, 0x00, 0x00, 0x00, 0x00, 0x00, 0x00, 0x00, 0x00, 0x00,
  0x00, 0x00, 0x00, 0x00, 0x00, 0x00, 0x00, 0x00, 0x00, 0x00, 0x00, 0x00,
  0x00, 0x00, 0x00, 0x00, 0x00, 0x00, 0x00, 0x00, 0x00, 0x00, 0x00, 0x00,
  0x00, 0x00, 0x00, 0x00, 0x00, 0x00, 0x00, 0x00, 0x00, 0x00, 0x00, 0x00,
  0x00, 0x00, 0x00, 0x00, 0x00, 0x00, 0x00, 0x00, 0x00, 0x00, 0x00, 0x00,
  0x00, 0x00, 0x00, 0x00, 0x00, 0x00, 0x00, 0x00, 0x00, 0x00, 0x00, 0x00,
  0x00, 0x00, 0x00, 0x00, 0x00, 0x00, 0x00, 0x00, 0x00, 0x00, 0x00, 0x00,
  0x00, 0x00, 0x00, 0x00, 0x00, 0x00, 0x00, 0x00, 0x00, 0x00, 0x00, 0x00,
  0x10, 0x00, 0x00, 0x00, 0x03, 0xe4, 0x17, 0x3b, 0x32, 0x86, 0x1c, 0x3b,
  0x3b, 0xa5, 0x0b, 0x3b, 0x82, 0x18, 0x07, 0x3b, 0xb9, 0xdd, 0x25, 0x3b,
  0xbf, 0xc8, 0x1b, 0x3b, 0x08, 0xdf, 0x48, 0x3b, 0x4c, 0x32, 0x0e, 0x3b,
  0xfe, 0x69, 0x02, 0x3b, 0xbd, 0x51, 0x2d, 0x3b, 0x8f, 0x4f, 0x15, 0x3b,
  0xed, 0xea, 0x43, 0x3b, 0x4b, 0xf2, 0x10, 0x3b, 0xf7, 0xdb, 0x16, 0x3b,
  0x9b, 0xf9, 0xf6, 0x3a, 0x6b, 0x59, 0x15, 0x3b, 0x12, 0x00, 0x00, 0x00,
  0x74, 0x66, 0x6c, 0x2e, 0x70, 0x73, 0x65, 0x75, 0x64, 0x6f, 0x5f, 0x71,
  0x63, 0x6f, 0x6e, 0x73, 0x74, 0x37, 0x00, 0x00, 0x04, 0x00, 0x00, 0x00,
  0x10, 0x00, 0x00, 0x00, 0x03, 0x00, 0x00, 0x00, 0x03, 0x00, 0x00, 0x00,
  0x08, 0x00, 0x00, 0x00, 0xaa, 0xf6, 0xff, 0xff, 0x00, 0x00, 0x00, 0x01,
  0x14, 0x00, 0x00, 0x00, 0xe4, 0x00, 0x00, 0x00, 0x09, 0x00, 0x00, 0x00,
  0x00, 0x00, 0x00, 0x02, 0xf0, 0x00, 0x00, 0x00, 0x24, 0xf6, 0xff, 0xff,
  0x08, 0x00, 0x00, 0x00, 0x88, 0x00, 0x00, 0x00, 0x10, 0x00, 0x00, 0x00,
  0x00, 0x00, 0x00, 0x00, 0x00, 0x00, 0x00, 0x00, 0x00, 0x00, 0x00, 0x00,
  0x00, 0x00, 0x00, 0x00, 0x00, 0x00, 0x00, 0x00, 0x00, 0x00, 0x00, 0x00,
  0x00, 0x00, 0x00, 0x00, 0x00, 0x00, 0x00, 0x00, 0x00, 0x00, 0x00, 0x00,
  0x00, 0x00, 0x00, 0x00, 0x00, 0x00, 0x00, 0x00, 0x00, 0x00, 0x00, 0x00,
  0x00, 0x00, 0x00, 0x00, 0x00, 0x00, 0x00, 0x00, 0x00, 0x00, 0x00, 0x00,
  0x00, 0x00, 0x00, 0x00, 0x00, 0x00, 0x00, 0x00, 0x00, 0x00, 0x00, 0x00,
  0x00, 0x00, 0x00, 0x00, 0x00, 0x00, 0x00, 0x00, 0x00, 0x00, 0x00, 0x00,
  0x00, 0x00, 0x00, 0x00, 0x00, 0x00, 0x00, 0x00, 0x00, 0x00, 0x00, 0x00,
  0x00, 0x00, 0x00, 0x00, 0x00, 0x00, 0x00, 0x00, 0x00, 0x00, 0x00, 0x00,
  0x00, 0x00, 0x00, 0x00, 0x00, 0x00, 0x00, 0x00, 0x00, 0x00, 0x00, 0x00,
  0x00, 0x00, 0x00, 0x00, 0x00, 0x00, 0x00, 0x00, 0x10, 0x00, 0x00, 0x00,
  0x01, 0xa9, 0x03, 0x37, 0x32, 0xad, 0x07, 0x37, 0x7e, 0x17, 0xf2, 0x36,
  0x4f, 0x34, 0xea, 0x36, 0x32, 0xc6, 0x0f, 0x37, 0xfb, 0x08, 0x07, 0x37,
  0xef, 0x1d, 0x2e, 0x37, 0xa9, 0x83, 0xf6, 0x36, 0x8b, 0x16, 0xe2, 0x36,
  0x14, 0x3c, 0x16, 0x37, 0x84, 0x6c, 0x01, 0x37, 0xbb, 0xd2, 0x29, 0x37,
  0x1f, 0x48, 0xfb, 0x36, 0x20, 0xc4, 0x02, 0x37, 0x82, 0x14, 0xd6, 0x36,
  0x10, 0x75, 0x01, 0x37, 0x12, 0x00, 0x00, 0x00, 0x74, 0x66, 0x6c, 0x2e,
  0x70, 0x73, 0x65, 0x75, 0x64, 0x6f, 0x5f, 0x71, 0x63, 0x6f, 0x6e, 0x73,
  0x74, 0x36, 0x00, 0x00, 0x01, 0x00, 0x00, 0x00, 0x10, 0x00, 0x00, 0x00,
  0xba, 0xf7, 0xff, 0xff, 0x00, 0x00, 0x00, 0x01, 0x14, 0x00, 0x00, 0x00,
  0xa8, 0x01, 0x00, 0x00, 0x08, 0x00, 0x00, 0x00, 0x00, 0x00, 0x00, 0x09,
  0xb4, 0x01, 0x00, 0x00, 0x34, 0xf7, 0xff, 0xff, 0x08, 0x00, 0x00, 0x00,
  0x0c, 0x01, 0x00, 0x00, 0x20, 0x00, 0x00, 0x00, 0x00, 0x00, 0x00, 0x00,
  0x00, 0x00, 0x00, 0x00, 0x00, 0x00, 0x00, 0x00, 0x00, 0x00, 0x00, 0x00,
  0x00, 0x00, 0x00, 0x00, 0x00, 0x00, 0x00, 0x00, 0x00, 0x00, 0x00, 0x00,
  0x00, 0x00, 0x00, 0x00, 0x00, 0x00, 0x00, 0x00, 0x00, 0x00, 0x00, 0x00,
  0x00, 0x00, 0x00, 0x00, 0x00, 0x00, 0x00, 0x00, 0x00, 0x00, 0x00, 0x00,
  0x00, 0x00, 0x00, 0x00, 0x00, 0x00, 0x00, 0x00, 0x00, 0x00, 0x00, 0x00,
  0x00, 0x00, 0x00, 0x00, 0x00, 0x00, 0x00, 0x00, 0x00, 0x00, 0x00, 0x00,
  0x00, 0x00, 0x00, 0x00, 0x00, 0x00, 0x00, 0x00, 0x00, 0x00, 0x00, 0x00,
  0x00, 0x00, 0x00, 0x00, 0x00, 0x00, 0x00, 0x00, 0x00, 0x00, 0x00, 0x00,
  0x00, 0x00, 0x00, 0x00, 0x00, 0x00, 0x00, 0x00, 0x00, 0x00, 0x00, 0x00,
  0x00, 0x00, 0x00, 0x00, 0x00, 0x00, 0x00, 0x00, 0x00, 0x00, 0x00, 0x00,
  0x00, 0x00, 0x00, 0x00, 0x00, 0x00, 0x00, 0x00, 0x00, 0x00, 0x00, 0x00,
  0x00, 0x00, 0x00, 0x00, 0x00, 0x00, 0x00, 0x00, 0x00, 0x00, 0x00, 0x00,
  0x00, 0x00, 0x00, 0x00, 0x00, 0x00, 0x00, 0x00, 0x00, 0x00, 0x00, 0x00,
  0x00, 0x00, 0x00, 0x00, 0x00, 0x00, 0x00, 0x00, 0x00, 0x00, 0x00, 0x00,
  0x00, 0x00, 0x00, 0x00, 0x00, 0x00, 0x00, 0x00, 0x00, 0x00, 0x00, 0x00,
  0x00, 0x00, 0x00, 0x00, 0x00, 0x00, 0x00, 0x00, 0x00, 0x00, 0x00, 0x00,
  0x00, 0x00, 0x00, 0x00, 0x00, 0x00, 0x00, 0x00, 0x00, 0x00, 0x00, 0x00,
  0x00, 0x00, 0x00, 0x00, 0x00, 0x00, 0x00, 0x00, 0x00, 0x00, 0x00, 0x00,
  0x00, 0x00, 0x00, 0x00, 0x00, 0x00, 0x00, 0x00, 0x00, 0x00, 0x00, 0x00,
  0x00, 0x00, 0x00, 0x00, 0x00, 0x00, 0x00, 0x00, 0x00, 0x00, 0x00, 0x00,
  0x00, 0x00, 0x00, 0x00, 0x00, 0x00, 0x00, 0x00, 0x00, 0x00, 0x00, 0x00,
  0x00, 0x00, 0x00, 0x00, 0x20, 0x00, 0x00, 0x00, 0x64, 0xa0, 0xd2, 0x3a,
  0xe7, 0x16, 0xdc, 0x3a, 0xe8, 0x24, 0xf4, 0x3a, 0xd3, 0xdc, 0x1c, 0x3b,
  0x46, 0xd2, 0x18, 0x3b, 0x02, 0x69, 0xde, 0x3a, 0x46, 0x7f, 0x7d, 0x3a,
  0xd8, 0x2f, 0x08, 0x3b, 0x61, 0xff, 0x27, 0x3b, 0xdd, 0x6e, 0x02, 0x3b,
  0x45, 0xe3, 0xde, 0x3a, 0x4e, 0x8d, 0xe4, 0x3a, 0xee, 0x1d, 0x05, 0x3b,
  0x57, 0x38, 0xf3, 0x3a, 0xbb, 0xff, 0xf3, 0x3a, 0xcc, 0xb1, 0xfb, 0x3a,
  0xb0, 0x39, 0x0d, 0x3b, 0x15, 0x5c, 0xf6, 0x3a, 0x47, 0x2f, 0x08, 0x3b,
  0x14, 0x2f, 0x03, 0x3b, 0xb5, 0x48, 0x80, 0x3a, 0xfe, 0x5e, 0x48, 0x3b,
  0x77, 0x27, 0x83, 0x3a, 0x7a, 0x3a, 0x00, 0x3b, 0xaa, 0x2d, 0x1f, 0x3b,
  0xd2, 0x6e, 0x81, 0x3a, 0xda, 0xc2, 0x22, 0x3b, 0x61, 0xe3, 0x0f, 0x3b,
  0xf9, 0xce, 0x8e, 0x3a, 0x46, 0x08, 0x75, 0x3a, 0x4f, 0xe3, 0x83, 0x3a,
  0x2b, 0xb4, 0x06, 0x3b, 0x12, 0x00, 0x00, 0x00, 0x74, 0x66, 0x6c, 0x2e,
  0x70, 0x73, 0x65, 0x75, 0x64, 0x6f, 0x5f, 0x71, 0x63, 0x6f, 0x6e, 0x73,
  0x74, 0x35, 0x00, 0x00, 0x04, 0x00, 0x00, 0x00, 0x20, 0x00, 0x00, 0x00,
  0x03, 0x00, 0x00, 0x00, 0x03, 0x00, 0x00, 0x00, 0x10, 0x00, 0x00, 0x00,
  0x9a, 0xf9, 0xff, 0xff, 0x00, 0x00, 0x00, 0x01, 0x14, 0x00, 0x00, 0x00,
  0xa4, 0x01, 0x00, 0x00, 0x07, 0x00, 0x00, 0x00, 0x00, 0x00, 0x00, 0x02,
  0xb0, 0x01, 0x00, 0x00, 0x14, 0xf9, 0xff, 0xff, 0x08, 0x00, 0x00, 0x00,
  0x08, 0x01, 0x00, 0x00, 0x20, 0x00, 0x00, 0x00, 0x00, 0x00, 0x00, 0x00,
  0x00, 0x00, 0x00, 0x00, 0x00, 0x00, 0x00, 0x00, 0x00, 0x00, 0x00, 0x00,
  0x00, 0x00, 0x00, 0x00, 0x00, 0x00, 0x00, 0x00, 0x00, 0x00, 0x00, 0x00,
  0x00, 0x00, 0x00, 0x00, 0x00, 0x00, 0x00, 0x00, 0x00, 0x00, 0x00, 0x00,
  0x00, 0x00, 0x00, 0x00, 0x00, 0x00, 0x00, 0x00, 0x00, 0x00, 0x00, 0x00,
  0x00, 0x00, 0x00, 0x00, 0x00, 0x00, 0x00, 0x00, 0x00, 0x00, 0x00, 0x00,
  0x00, 0x00, 0x00, 0x00, 0x00, 0x00, 0x00, 0x00, 0x00, 0x00, 0x00, 0x00,
  0x00, 0x00, 0x00, 0x00, 0x00, 0x00, 0x00, 0x00, 0x00, 0x00, 0x00, 0x00,
  0x00, 0x00, 0x00, 0x00, 0x00, 0x00, 0x00, 0x00, 0x00, 0x00, 0x00, 0x00,
  0x00, 0x00, 0x00, 0x00, 0x00, 0x00, 0x00, 0x00, 0x00, 0x00, 0x00, 0x00,
  0x00, 0x00, 0x00, 0x00, 0x00, 0x00, 0x00, 0x00, 0x00, 0x00, 0x00, 0x00,
  0x00, 0x00, 0x00, 0x00, 0x00, 0x00, 0x00, 0x00, 0x00, 0x00, 0x00, 0x00,
  0x00, 0x00, 0x00, 0x00, 0x00, 0x00, 0x00, 0x00, 0x00, 0x00, 0x00, 0x00,
  0x00, 0x00, 0x00, 0x00, 0x00, 0x00, 0x00, 0x00, 0x00, 0x00, 0x00, 0x00,
  0x00, 0x00, 0x00, 0x00, 0x00, 0x00, 0x00, 0x00, 0x00, 0x00, 0x00, 0x00,
  0x00, 0x00, 0x00, 0x00, 0x00, 0x00, 0x00, 0x00, 0x00, 0x00, 0x00, 0x00,
  0x00, 0x00, 0x00, 0x00, 0x00, 0x00, 0x00, 0x00, 0x00, 0x00, 0x00, 0x00,
  0x00, 0x00, 0x00, 0x00, 0x00, 0x00, 0x00, 0x00, 0x00, 0x00, 0x00, 0x00,
  0x00, 0x00, 0x00, 0x00, 0x00, 0x00, 0x00, 0x00, 0x00, 0x00, 0x00, 0x00,
  0x00, 0x00, 0x00, 0x00, 0x00, 0x00, 0x00, 0x00, 0x00, 0x00, 0x00, 0x00,
  0x00, 0x00, 0x00, 0x00, 0x00, 0x00, 0x00, 0x00, 0x00, 0x00, 0x00, 0x00,
  0x00, 0x00, 0x00, 0x00, 0x00, 0x00, 0x00, 0x00, 0x00, 0x00, 0x00, 0x00,
  0x20, 0x00, 0x00, 0x00, 0x2e, 0xa6, 0x03, 0x37, 0x56, 0x90, 0x09, 0x37,
  0x4f, 0x99, 0x18, 0x37, 0xe9, 0x16, 0x44, 0x37, 0xa6, 0x09, 0x3f, 0x37,
  0xac, 0x03, 0x0b, 0x37, 0xe0, 0x71, 0x9e, 0x36, 0x4f, 0x3e, 0x2a, 0x37,
  0x4f, 0x02, 0x52, 0x37, 0xfa, 0x0c, 0x23, 0x37, 0x17, 0x50, 0x0b, 0x37,
  0x6a, 0xda, 0x0e, 0x37, 0xdc, 0x67, 0x26, 0x37, 0x72, 0x05, 0x18, 0x37,
  0x13, 0x82, 0x18, 0x37, 0x6f, 0x51, 0x1d, 0x37, 0xb4, 0x8a, 0x30, 0x37,
  0xd0, 0xfb, 0x19, 0x37, 0x99, 0x3d, 0x2a, 0x37, 0x42, 0xfd, 0x23, 0x37,
  0x3e, 0x5d, 0xa0, 0x36, 0x6c, 0x7a, 0x7a, 0x37, 0xbe, 0xf3, 0xa3, 0x36,
  0x74, 0x4b, 0x20, 0x37, 0x01, 0xfc, 0x46, 0x37, 0xe7, 0xcc, 0xa1, 0x36,
  0x8e, 0x76, 0x4b, 0x37, 0xde, 0xde, 0x33, 0x37, 0x57, 0x85, 0xb2, 0x36,
  0x6c, 0x27, 0x99, 0x36, 0x8f, 0xde, 0xa4, 0x36, 0xaf, 0x63, 0x28, 0x37,
  0x12, 0x00, 0x00, 0x00, 0x74, 0x66, 0x6c, 0x2e, 0x70, 0x73, 0x65, 0x75,
  0x64, 0x6f, 0x5f, 0x71, 0x63, 0x6f, 0x6e, 0x73, 0x74, 0x34, 0x00, 0x00,
  0x01, 0x00, 0x00, 0x00, 0x20, 0x00, 0x00, 0x00, 0x6a, 0xfb, 0xff, 0xff,
  0x00, 0x00, 0x00, 0x01, 0x14, 0x00, 0x00, 0x00, 0xa8, 0x01, 0x00, 0x00,
  0x06, 0x00, 0x00, 0x00, 0x00, 0x00, 0x00, 0x09, 0xb4, 0x01, 0x00, 0x00,
  0xe4, 0xfa, 0xff, 0xff, 0x08, 0x00, 0x00, 0x00, 0x0c, 0x01, 0x00, 0x00,
  0x20, 0x00, 0x00, 0x00, 0x00, 0x00, 0x00, 0x00, 0x00, 0x00, 0x00, 0x00,
  0x00, 0x00, 0x00, 0x00, 0x00, 0x00, 0x00, 0x00, 0x00, 0x00, 0x00, 0x00,
  0x00, 0x00, 0x00, 0x00, 0x00, 0x00, 0x00, 0x00, 0x00, 0x00, 0x00, 0x00,
  0x00, 0x00, 0x00, 0x00, 0x00, 0x00, 0x00, 0x00, 0x00, 0x00, 0x00, 0x00,
  0x00, 0x00, 0x00, 0x00, 0x00, 0x00, 0x00, 0x00, 0x00, 0x00, 0x00, 0x00,
  0x00, 0x00, 0x00, 0x00, 0x00, 0x00, 0x00, 0x00, 0x00, 0x00, 0x00, 0x00,
  0x00, 0x00, 0x00, 0x00, 0x00, 0x00, 0x00, 0x00, 0x00, 0x00, 0x00, 0x00,
  0x00, 0x00, 0x00, 0x00, 0x00, 0x00, 0x00, 0x00, 0x00, 0x00, 0x00, 0x00,
  0x00, 0x00, 0x00, 0x00, 0x00, 0x00, 0x00, 0x00, 0x00, 0x00, 0x00, 0x00,
  0x00, 0x00, 0x00, 0x00, 0x00, 0x00, 0x00, 0x00, 0x00, 0x00, 0x00, 0x00,
  0x00, 0x00, 0x00, 0x00, 0x00, 0x00, 0x00, 0x00, 0x00, 0x00, 0x00, 0x00,
  0x00, 0x00, 0x00, 0x00, 0x00, 0x00, 0x00, 0x00, 0x00, 0x00, 0x00, 0x00,
  0x00, 0x00, 0x00, 0x00, 0x00, 0x00, 0x00, 0x00, 0x00, 0x00, 0x00, 0x00,
  0x00, 0x00, 0x00, 0x00, 0x00, 0x00, 0x00, 0x00, 0x00, 0x00, 0x00, 0x00,
  0x00, 0x00, 0x00, 0x00, 0x00, 0x00, 0x00, 0x00, 0x00, 0x00, 0x00, 0x00,
  0x00, 0x00, 0x00, 0x00, 0x00, 0x00, 0x00, 0x00, 0x00, 0x00, 0x00, 0x00,
  0x00, 0x00, 0x00, 0x00, 0x00, 0x00, 0x00, 0x00, 0x00, 0x00, 0x00, 0x00,
  0x00, 0x00, 0x00, 0x00, 0x00, 0x00, 0x00, 0x00, 0x00, 0x00, 0x00, 0x00,
  0x00, 0x00, 0x00, 0x00, 0x00, 0x00, 0x00, 0x00, 0x00, 0x00, 0x00, 0x00,
  0x00, 0x00, 0x00, 0x00, 0x00, 0x00, 0x00, 0x00, 0x00, 0x00, 0x00, 0x00,
  0x00, 0x00, 0x00, 0x00, 0x00, 0x00, 0x00, 0x00, 0x00, 0x00, 0x00, 0x00,
  0x00, 0x00, 0x00, 0x00, 0x00, 0x00, 0x00, 0x00, 0x00, 0x00, 0x00, 0x00,
  0x20, 0x00, 0x00, 0x00, 0x58, 0x7e, 0x1d, 0x3b, 0x0f, 0x3f, 0xcb, 0x3a,
  0xcc, 0x96, 0x66, 0x3b, 0xfd, 0x77, 0x27, 0x3b, 0xee, 0x62, 0x47, 0x3b,
  0xf0, 0x18, 0xc7, 0x3a, 0x09, 0x0d, 0xca, 0x3a, 0x65, 0x07, 0x15, 0x3b,
  0x9b, 0x42, 0x35, 0x3b, 0x2c, 0x6c, 0x53, 0x3b, 0x16, 0xcb, 0x23, 0x3b,
  0xf2, 0xa1, 0x1b, 0x3b, 0x4c, 0x79, 0xd0, 0x3a, 0xc9, 0x98, 0xd5, 0x3a,
  0x52, 0x06, 0x2f, 0x3b, 0xff, 0x6a, 0x13, 0x3b, 0x1c, 0x46, 0xd1, 0x3a,
  0xdb, 0x99, 0x35, 0x3b, 0x89, 0x48, 0x5f, 0x3b, 0x7b, 0x85, 0xcb, 0x3a,
  0x4d, 0x80, 0x53, 0x3b, 0x8d, 0xe5, 0x2f, 0x3b, 0xb0, 0xc3, 0x4c, 0x3b,
  0xbc, 0xdc, 0xce, 0x3a, 0xa0, 0x64, 0x26, 0x3b, 0xb6, 0x5c, 0x34, 0x3b,
  0x9f, 0x6a, 0xce, 0x3a, 0xd6, 0x51, 0x34, 0x3b, 0x54, 0xcd, 0x18, 0x3b,
  0x1d, 0x70, 0x38, 0x3b, 0x8c, 0xdf, 0x26, 0x3b, 0x4a, 0xad, 0x1b, 0x3b,
  0x12, 0x00, 0x00, 0x00, 0x74, 0x66, 0x6c, 0x2e, 0x70, 0x73, 0x65, 0x75,
  0x64, 0x6f, 0x5f, 0x71, 0x63, 0x6f, 0x6e, 0x73, 0x74, 0x33, 0x00, 0x00,
  0x02, 0x00, 0x00, 0x00, 0x20, 0x00, 0x00, 0x00, 0x80, 0x00, 0x00, 0x00,
  0x42, 0xfd, 0xff, 0xff, 0x00, 0x00, 0x00, 0x01, 0x14, 0x00, 0x00, 0x00,
  0xa4, 0x01, 0x00, 0x00, 0x05, 0x00, 0x00, 0x00, 0x00, 0x00, 0x00, 0x02,
  0xb0, 0x01, 0x00, 0x00, 0xbc, 0xfc, 0xff, 0xff, 0x08, 0x00, 0x00, 0x00,
  0x08, 0x01, 0x00, 0x00, 0x20, 0x00, 0x00, 0x00, 0x00, 0x00, 0x00, 0x00,
  0x00, 0x00, 0x00, 0x00, 0x00, 0x00, 0x00, 0x00, 0x00, 0x00, 0x00, 0x00,
  0x00, 0x00, 0x00, 0x00, 0x00, 0x00, 0x00, 0x00, 0x00, 0x00, 0x00, 0x00,
  0x00, 0x00, 0x00, 0x00, 0x00, 0x00, 0x00, 0x00, 0x00, 0x00, 0x00, 0x00,
  0x00, 0x00, 0x00, 0x00, 0x00, 0x00, 0x00, 0x00, 0x00, 0x00, 0x00, 0x00,
  0x00, 0x00, 0x00, 0x00, 0x00, 0x00, 0x00, 0x00, 0x00, 0x00, 0x00, 0x00,
  0x00, 0x00, 0x00, 0x00, 0x00, 0x00, 0x00, 0x00, 0x00, 0x00, 0x00, 0x00,
  0x00, 0x00, 0x00, 0x00, 0x00, 0x00, 0x00, 0x00, 0x00, 0x00, 0x00, 0x00,
  0x00, 0x00, 0x00, 0x00, 0x00, 0x00, 0x00, 0x00, 0x00, 0x00, 0x00, 0x00,
  0x00, 0x00, 0x00, 0x00, 0x00, 0x00, 0x00, 0x00, 0x00, 0x00, 0x00, 0x00,
  0x00, 0x00, 0x00, 0x00, 0x00, 0x00, 0x00, 0x00, 0x00, 0x00, 0x00, 0x00,
  0x00, 0x00, 0x00, 0x00, 0x00, 0x00, 0x00, 0x00, 0x00, 0x00, 0x00, 0x00,
